#version: 0.2
▁ t
▁ i
▁ a
▁t h
▁ w
r e
▁ s
▁ m
e r
▁ o
▁th e
n d
e d
i n
o u
▁ b
▁i t
▁ f
▁ p
a n
▁ h
▁ c
▁ y
o r
▁t o
a s
▁ l
i s
▁ d
▁y ou
▁a nd
a t
▁ re
e n
i t
l l
in g
▁m y
▁ g
o n
c e
o m
▁ n
o t
▁f or
▁b e
 

e m
u t
s t
v e
▁th an
a r
▁o r
c t
▁than k
▁i s
l y
p p
▁l o
a y
en t
▁w as
c h
i f
▁or d
▁o n
l e
▁o f
▁i n
o w
▁th is
▁ e
▁w h
▁it em
▁n ot
v ed
it h
▁h a
v er
▁ j
e s
▁s o
▁f r
▁w ith
▁a m
▁th at
▁ord er
i e
u r
i d
u st
a l
ce i
▁re cei
e t
▁fr om
t ed
▁s e
▁s h
▁h e
u l
u re
▁you r
ver y
e re
k e
on e
r o
▁recei ved
i ll
▁ 

l d
s e
u ch
g h
o k
t h
▁w ill
as e
a ll
▁j ust
pp o
r i
▁w e
▁s ent
▁l i
▁b ut
▁ha ve
▁d o
▁d is
▁ u
▁m e
c k
▁m uch
ou ld
▁p i
▁c an
i l
m e
▁ k
▁c h
▁lo ok
▁ very
a d
a ppo
▁dis appo
▁disappo in
▁a n
a il
a g
if t
o o
▁c om
▁g ift
▁e x
▁disappoin ted
▁lo ve
’ s
▁a s
▁p ro
ct ure
▁pi cture
gh t
d ay
p h
a ut
i on
▁be aut
ere d
e ly
is t
▁d e
r a
▁wh at
▁beaut if
p e
▁a b
▁h ow
q u
▁beautif ul
i ce
a in
▁w ould
o l
▁ord ered
i r
▁w an
ag e
▁ 2
▁a g
▁w or
▁n e
ph one
v ie
vie w
▁a re
▁i phone
▁a ll
▁thank s
▁li ke
a m
▁o ut
▁d id
all y
▁on e
▁ha pp
o re
s ed
▁ 1
▁c on
▁k n
▁iphone 

▁i m
an y
▁ qu
ot h
es s
▁ag ain
▁happ y
d u
▁wor k
▁kn ow
a nd
b er
’ t
re at
▁s t
▁re view
it y
r ist
u s
▁p er
▁h i
▁to day
▁g et
▁com p
▁pro du
a u
i c
o nd
▁a t
▁b ase
a ck
▁i ’
▁the y
▁p le
▁h er
▁re c
ar d
▁produ ct
n t
▁ 3
re s
▁s u
▁p h
ar t
▁a l
om e
▁se e
▁ch rist
▁o ur
▁se nd
e ar
i ve
▁m ail
▁p ur
▁g reat
ie nd
oo d
▁comp any
m as
r y
▁i f
▁the m
▁it ’s
as t
at e
▁wh en
al ity
o s
s ol
▁ em
▁s m
▁g ood
▁sh e
▁look s
a z
l a
▁t i
▁a d
▁wh o
▁qu ality
oth er
▁i’ m
▁ple ase
▁christ mas
▁pur ch
b le
▁g o
ut ely
ur n
▁u p
▁ab sol
▁ph ot
▁absol utely
a ke
c i
e ct
i g
i ed
u m
▁ 5
▁h as
ll o
▁n o
▁am az
▁wan ted
' t
e a
▁i '
▁a r
▁a pp
▁s a
▁s ay
e st
i z
p t
t er
▁w r
▁he llo
▁ti me
▁go ing
t a
▁ en
▁m ess
▁the re
ou t
▁l et
▁fr iend
▁wan t
▁sm all
▁phot o
f ied
v ing
▁a w
▁s at
is fied
it e
▁j o
ie ce
▁li ght
▁amaz ing
▁mess age
' s
f in
n ’t
p en
u n
v en
v ice
▁w ay
▁s er
▁m ore
▁b ack
▁p iece
▁d ay
▁re s
▁re ally
ar g
▁de fin
▁i' m
▁sat isfied
a re
▁c ust
as ed
it ely
om er
▁lo ved
▁sh i
▁sh ow
▁em ail
▁ser vice
▁defin itely
▁cust omer
a h
a me
f ul
i ly
l o
o st
▁ r
▁t e
▁s in
ct ed
▁e very
▁ab out
▁sin ce
a k
f ect
i m
i nd
i ch
u y
▁ 7
▁t w
▁w if
re d
▁m em
▁the se
▁f a
▁h is
▁l arg
▁re f
if f
▁we ll
▁an y
▁ne ed
▁im age
▁per fect
au se
▁ar ri
▁wif e
0 0
b e
c ause
l p
s on
▁s pe
▁o pen
▁f ir
or t
▁n ow
▁be cause
▁lo st
▁he art
▁he lp
ion s
ear s
▁fir st
e w
h ing
▁ 9
▁s ome
▁o th
▁b o
▁p as
▁g ot
pp ed
▁ha d
ad e
▁ex pe
▁mem or
▁oth er
m ent
n ing
o p
v id
▁ &
▁ 8
▁s ure
ou s
▁b r
▁c ould
▁g ive
▁g uy
▁on ly
▁do g
▁u s
me nd
ght er
au ghter
res ent
▁purch ase
iz e
▁en g
ah oo
▁arri ved
e l
l i
s o
▁ 4
▁ ke
▁w ere
▁m ay
▁m ade
▁f am
an t
▁c or
▁l ast
▁l ea
▁d iff
▁re t
it t
om mend
▁order ing
▁look ing
▁ex ce
▁2 0
▁ne w
▁rec ommend
▁tw o
▁guy s
▁eng ra
▁fam ily
u nd
u ll
▁ v
▁t urn
▁w ond
re ly
ou ght
▁b y
▁p a
▁p l
▁p os
▁p resent
at h
▁re g
▁g ra
▁n ice
▁an other
▁ad d
▁open ed
▁pas sed
▁wond er
b and
c er
e ver
f ore
i a
i ble
n 't
re ci
▁s uch
▁m om
ou gh
▁p la
▁h us
▁d aughter
on g
ar y
▁e ven
▁wh ich
▁item s
ul t
▁do es
▁u n
▁con ta
▁su ppo
▁app reci
▁since rely
▁ref und
▁lea ve
▁ret urn
▁hus band
2 0
a ch
l f
▁a f
▁w a
▁s p
▁s ize
▁m at
▁m ake
in e
in k
▁b l
▁p re
▁d on
▁re p
▁n um
▁be en
▁be fore
em ber
pp ing
le s
▁of f
▁al so
▁aw ay
▁res p
▁larg er
▁cor re
▁turn ed
▁wonder ful
b s
c ed
f or
i ver
m it
p er
w ard
x t
▁ 6
ed i
ou nt
▁b ri
▁b ir
▁it 's
▁p o
▁c ame
▁y ahoo
▁l e
is h
▁d one
at ion
it ed
▁g i
om et
▁be st
ent ly
le ar
▁recei ve
th day
▁an n
▁per son
▁wr ong
▁jo b
▁shi pping
▁diff ere
▁gra nd
▁add res
▁conta ct
▁num ber
iver s
▁bir thday
c ond
e p
p ad
r is
u e
w er
▁ #
▁ $
▁i pad
▁s on
▁m o
▁m or
▁the n
▁b oth
▁b us
▁p ri
at ed
▁re m
▁for ward
▁or ig
▁in c
ri ed
▁look ed
▁love s
ion al
▁de l
▁how ever
▁hi m
la ce
ci al
▁te ll
▁bo x
▁memor y
ath er
▁reg ard
▁suppo sed
▁af ter
▁rep lace
▁resp on
▁ann ivers
▁mor ning
▁orig in
▁annivers ary
a ve
b l
c c
i le
i es
i ck
m ail
s ible
t e
t ter
▁ “
▁t r
▁t ears
▁th ink
re e
▁s ist
▁s omet
▁p r
▁c ou
▁c lear
▁to wer
as s
▁d ate
at ely
▁re qu
it ing
ll ent
▁be tter
es ome
▁se cond
th ing
▁we bs
▁pi c
▁as k
▁picture s
▁con cer
▁qu ick
▁rec ently
▁send ing
▁purch ased
▁sa id
▁friend s
▁aw esome
▁day s
▁every one
▁fa ce
▁spe cial
▁expe cted
▁exce llent
▁engra ved
ull y
▁pa id
▁pla ced
▁corre ct
▁differe nt
▁origin al
▁sist er
▁somet hing
▁requ est
▁webs ite
8 8
e op
f f
o se
o pe
r iend
u d
▁ 00
▁s c
▁s or
▁m ar
er r
er day
▁the ir
in ess
ou nd
▁b ig
▁it s
▁f in
▁f ew
▁p eop
▁h ope
▁c l
▁c o
▁c u
▁c ried
▁y et
▁y ear
▁y est
▁to p
▁l a
is e
▁d a
▁and ro
▁re ct
▁g r
st and
ar k
▁so on
▁that ’s
id e
id 

▁do ing
▁com e
▁gift s
▁ex p
▁pro vid
▁pro bl
▁ab le
▁ag o
am es
▁1 1
▁at ta
▁3 d
ive red
▁sa w
ak ing
▁expe ct
▁ke ep
▁pos sible
▁appreci ate
▁wa it
▁don ’t
▁addres s
▁bus iness
▁del ivered
▁regard s
▁respon se
▁concer n
▁sor ry
▁peop le
▁yest erday
▁andro id

▁probl em
▁atta ch
4 3
6 8
9 7
a ble
b mit
c ited
f t
i p
i ent
l ed
m an
m ost
n o
t ing
▁ 0
▁ |
❤ ️
▁a le
▁a ol
▁th ree
▁w ar
▁m other
nd er
in t
▁b lo
▁f e
▁f ather
▁p ut
▁p ack
an ce
▁h ard
▁c ro
▁c ol
▁y es
▁y ears
▁l itt
at ing
▁g ave
on t
▁n ame
ut ure
▁is s
le y
ow n
▁e ar
▁e ach
▁wh y
▁wh ere
▁sh a
▁sh ould
se lf
▁can ’t
▁can 't
ad y
▁ex t
▁ex cited
▁did n't
▁1 0
▁ple ased
ast ic
▁r ot
▁every thing
▁larg e
▁some one
ant astic
▁pre view
for m
edi um
▁gi ving
▁grand m
▁ipad 

▁blo ck
▁litt le
6 3
6 4
; 

a le
b ile
e k
l ud
m y
n er
n ot
p ris
s s
y ond
▁ ri
▁a p
▁th ought
▁w ed
re me
▁s ur
▁m r
▁m ust
▁m one
▁m ist
▁m ich
▁m edium
er 

▁o ver
▁b re
▁f i
▁f o
▁f uture
▁f antastic
▁p are
an g
an s
▁c all
▁to o
is ed
▁d es
▁you 

at ions
en s
▁g l
▁g ir
ot t
▁be ing
▁be yond
pp ort
ow s
▁not hing
ver al
▁so oo
▁se en
▁se veral
▁he ad
th ew
ri ble
▁we ek
▁dis c
▁u nder
ck ed
▁can not
▁k im
▁com 

▁did n’t
▁con t
▁im p
▁im ag
▁st and
▁hi gh
nt s
▁su bmit
▁al most
▁ad v
▁up s
▁wr iting
▁shi pped
▁show s
lo ok
▁te xt
▁memor ies
▁could n’t
▁may be
▁20 20
▁mat thew
▁bl ack
▁po or
▁le ft
▁mo bile
▁pri ce
▁inc lud
▁replace ment
▁cu be
▁col or
▁ext reme
▁sur pris
▁mone y
▁pare nts
▁extreme ly
1 7
1 9
2 2
3 1
4 0
5 9
6 9
8 2
8 9
@ y
a b
a p
a x
a ct
c ome
d ing
e ll
f ully
g e
i al
i ght
i ous
n e
u ly
u al
u ally
w h
y f
y ou
▁ "
▁ ﻿
▁ ro
▁ ra
▁ ❤️
▁t ry
▁a cc
▁th ing
re n
re ady
▁s ide
▁m er
▁m is
▁m art
▁m ost
▁m aking
▁o pt
ou th
▁b are
▁b ought
▁b ott
▁it self
▁f it
▁f ore
▁p art
▁h or
▁h op
▁c reat
▁c li
▁to t
▁d et
▁d ad
▁d im
▁re d
▁re ad
▁re ach
en n
en ce
it ion
it ive
ll y
ce ss
om ised
ot e
if y
if ic
▁in t
▁e ith
▁wh om
▁not ice
▁j un
▁j ames
▁am ount
▁order s
▁se pt
▁me an
▁k ind
▁as s
▁de li
▁ne xt
▁out look
▁out come
▁st un
▁rec ip
▁3 0
res sed
▁ph one
▁al ready
ry an
▁res ult
▁fa ct
▁ke lly
▁engra ving
▁pos itive
▁present ed
▁does n’t
▁sp ent
les s
▁bri an
▁bri ck
ish ed
▁rem ember
▁after no
▁pic s
▁la w
▁da vid
▁provid e
▁keep s
▁ale x
▁mist ake
▁mich a
▁gl ass
▁under stand
▁imp ressed
▁includ ed
@y ahoo
▁bare ly
▁bott om
▁hop ing
▁det ail
▁dim ens
▁eith er
▁deli very
▁stun ning
▁recip ient
▁afterno on
. .
1 1
2 1
2 5
2 6
3 0
4 1
4 5
5 4
6 7
7 7
> 

@ h
c ific
i ence
j ect
l ie
m edi
n g
n ess
o ph
o ice
p ar
p le
s ing
u es
u nt
w ise
▁ x
▁ >

▁t re
▁t ra
▁t ake
▁t iff
▁i d
▁a ct
▁w ra
▁w ind
▁s w
▁s et
▁s ad
▁s ite
▁s im
▁m an
▁m on
▁m any
▁f ind
▁p ra
an ie
▁c ond
▁c are
▁c ell
or k
▁l it
▁l ot
▁d ue
▁d ark
▁d anie
at es
▁re al
it ch
▁g re
▁g one
▁n or
ot mail
ar r
▁in form
▁e l
▁j pe
▁fr ont
▁with out
id ay
▁se le
▁se par
▁sh ort
se ph
th ough
ri pt
▁u se
▁u sed
▁u nt
▁ch e
▁ch i
▁ch oo
▁ch ose
▁pro cess
▁de ce
▁wor d
▁ne ver
▁all en
▁1 4
▁im medi
ber ly
▁st ar
▁st ay
▁st ill
▁per man
ic ult
▁i’ ll
▁su pport
▁al though
▁christ oph
▁sm ith
▁purch as
▁phot os
▁5 3
▁no v
ea red
▁app eared
▁sa me
▁say s
▁say ing
▁wr ote
▁en ough
▁jo seph
▁light s
▁shi p
▁show ed
▁r us
▁7 0
▁tw ice
▁spe cific
▁bo yf
▁other wise
▁4 4
▁diff icult
▁exce pt
▁pl an
lf riend
▁po int
▁gi ven
▁$ 1
▁tr uly
▁pr omised
▁cou r
▁fin ally
▁fin ished
▁rect ify
▁expect ing
▁expect ations
▁attach ed
▁pack age
▁iss ue
▁sha pe
▁grandm other
▁ri ght
▁wed ding
▁gir lfriend
▁disc ount
▁kim berly
▁imag es
▁high ly
▁surpris ed
▁mer ry
▁opt ions
▁hor rible
▁tot ally
▁int o
▁jun e
▁sept ember
▁keeps ake
▁micha el
▁dimens ional
@h otmail
▁tiff any
▁act ually
▁wind ows
▁cond ition
▁jpe g
▁unt il
▁immedi ately
▁christoph er
▁boyf riend
/ c
2 8
2 9
2 is
3 9
5 3
5 7
6 0
8 4
8 7
@ g
a f
a ce
b o
b or
b ul
b ri
b ject
c y
c ing
c ent
c ript
d d
d aughter
f e
f ort
g er
h e
h n
h ind
h ap
i b
i re
i am
k en
l t
l ain
n y
n ed
n ce
n ect
o g
o ber
p les
r u
s 

s un
t on
t ment
u z
v in
v is
v ious
w n
y ch
y es
z y
’ ll
▁ ent
▁ ver
▁ err
▁ ryan
▁t ri
▁t am
▁i os
▁a unt
▁th om
▁w ish
▁s us
▁m in
▁m all
er t
er al
er ial
▁o ct
▁o ld
nd ed
in a
in cent
ou r
▁b en
▁b ro
▁b uy
▁f em
▁f ig
▁f uz
▁p s
▁p ay
▁p age
▁p ost
▁h ome
▁c ent
▁c ase
▁c oo
▁c ra
▁c ost
▁c 2is
▁c ert
or d
▁to :
▁to ok
as on
▁l ed
▁l is
▁l ear
▁l ate
▁l ink
at ch
at form
it s
ll ow
▁g on
ce pt
▁n ames
▁be lie
▁be hind
st ru
ct ice
▁lo c
ent s
▁in te
▁e as
▁e ver
▁e yes
▁wh ile
▁not ic
▁j ess
▁fr iday
▁with in
▁that 's
ie ved
ur ing
id s
al k
al th
▁recei pt
et h
▁sh ar
▁he alth
ul ar
ure d
▁will iam
▁we st
▁li nd
▁me l
▁much 

▁k ath
▁k ids
▁ch arg
▁ch oice
▁disappoin tment
▁an s
ag ed
▁ex am
▁ex pen
▁picture d
▁de p
▁de ar
▁de al
ol og
▁2 1
▁wor ld
▁1 2
▁1 5
▁1 lt
▁con s
▁con nect
▁qu est
ber g
▁st e
▁per hap
▁get ting
ic a
▁at t
▁rec ieved
▁product s
▁su ite
ate ful
▁em ot
▁em ily
▁she ’s
um in
▁no se
▁amaz ed
▁ar t
▁app ear
▁sa fe
iz ed
▁wr ite
▁small er
▁jo y
▁jo hn
▁show n
lo y
ak es
▁fa bul
▁ref err
▁spe ak
▁some wh
▁br ad
▁br other
▁br ought
▁us af
▁v is
▁v incent
▁pl atform
▁reg ular
▁pla ce
▁suppo se
▁appreci ated
▁mat erial
▁bl own
▁pre vious
▁don 't
▁corre cted
▁le g
▁grand daughter
▁addres sed
▁son ’s
▁cou ple
▁clear ly
▁tower s
▁ask ed
▁quick ly
▁mar ia
▁da vis
▁rect ang
▁gr ateful
▁exp lain
▁provid ed
▁11 /
▁fe el
▁hard ly
▁iss ues
▁rot ating
▁grandm a
▁bre nd
▁des cript
▁sooo o
▁week s
▁cont in
▁submit ted
▁adv ise
▁ups et
ne y
▁﻿ 

▁try ing
▁mart in
▁alex and
▁tra ck
▁id ea
▁wra pped
▁mon th
▁pra ctice
▁inform ation
▁sele cted
▁choo se
▁purchas ing
▁nov ember
▁ship ment
▁except ional
@g mail
▁err or
▁tam my
▁ios 

▁oct ober
▁fem ale
▁fig ure
▁fuz zy
▁c2is r
▁lear n
▁belie ve
▁inte nded
▁jess ica
▁exam ples
▁quest ions
▁perhap s
▁fabul ous
▁somewh at
▁rectang le
▁descript ion
! !
& t
/ or
/ 20
0 1
0 8
3 3
3 6
4 6
4 68
5 5
5 8
7 6
9 2
9 11
a a
a c
a is
a 

a gh
b r
b ly
b es
b ur
c é
c le
c us
c lear
d y
d ate
e z
e ch
f o
g g
g r
g in
h ley
i k
i er
i ke
j ust
j am
j and
j ia
k in
k et
l s
l or
l ow
l im
l ine
m a
m ed
m on
m ber
m outh
n a
n es
n th
o y
o ing
o sed
o pped
o cked
p g
p ic
p ose
p loy
r ough
r atch
s a
s h
s ay
s ion
s ive
s ide
t y
t own
t ney
u ed
u ce
u ck
u ation
v ent
v ast
w ay
w ith
w ered
w ork
x l
y l
y le
y nth
ا ل
ع ل
ق َ
ْ ر
▁ ت
▁ ”
▁ 👍
▁ view
▁ ال
▁ عل
▁ قَ
▁t er
▁t it
▁t ay
▁t est
▁t ried
▁t ree
▁t ma
▁th ough
▁th rough
▁w on
▁w ent
▁w ow
▁w id
▁w alk
re w
re et
▁s d
▁s ar
▁s id
▁s ir
▁s am
▁s outh
▁m f
▁m h
▁m ent
▁m err
▁m ale
er s
er ally
er ish
▁o cc
▁o pport
▁o bject
▁o wn
nd ay
nd ered
ed ed
in ed
▁b at
▁b ased
▁b ak
▁b ull
▁b ab
▁b ryan
▁it ’ll
▁f ast
▁f el
▁f ull
▁f ine
▁f ully
▁f our
▁p at
▁p it
▁p et
▁p ort
▁p ark
▁p ng
an k
an cé
▁h ar
▁h es
▁h um
▁c as
▁c at
▁c ut
▁c ard
▁c ry
▁c lo
▁c red
▁c ris
▁c ynth
or re
as ure
▁l if
▁l ake
▁l ine
▁l ady
▁l ord
▁l umin
is ite
▁d ied
▁d uring
▁you ng
▁and /or
at ure
▁re st
▁re ality
▁re sol
▁re ndered
en ed
en eral
ll e
ing s
▁my self
▁g u
▁g al
▁g eneral
on y
ce led
om an
▁n one
ot s
▁be ard
em o
em p
em ent
ut er
ve s
ar ity
ar ound
▁or ient
ct ly
ct fully
▁thank you
▁is n’t
▁lo l
ent e
ent ial
▁was n’t
if er
if ied
le te
▁in fo
▁e t
▁e ll
▁e ff
▁e vent
▁wh ite
▁not e
▁not ch
▁ha ving
▁ha ven
▁j im
▁j enn
▁j pg
es 

▁am and
ur t
id er
▁recei ving
▁sh ad
▁sh are
▁he y
▁he ’s
ld s
ld ren
ok ed
th ony
ri a
▁li ve
▁li mit
▁but ton
▁do or
▁me ant
▁me jia
ck ”
▁can celed
▁k rist
▁k ais
▁ch os
▁ch ea
▁ch ance
▁ch erish
▁an thony
ag er
▁gift ing
▁ex qu
▁ex per
▁ex act
▁love ly
▁as ap
▁as hley
▁beaut y
▁de c
▁de vast
▁de lete
ra id
▁beautif ully
pe ctfully
ice :
▁would n't
ir it
▁2 9
▁2 nd
▁2 00
▁wor th
▁ne ar
▁all ows
am aged
▁1 8
▁1 97
▁con f
▁con cept
▁con stru
▁kn ew
▁im g
▁work s
▁work er
▁work ed
▁st reet
▁review s
us ual
▁comp uter
▁produ ce
ic ally
ic les
▁at &t
▁i’ d
▁3 64
res s
▁su per
▁su dd
▁su nday
art phone
art ment
▁send er
▁mail ed
▁pur pose
▁em ploy
▁sm artphone
▁ti m
▁ti p
▁ad am
▁ad just
▁who se
▁who ’s
▁go d
▁5 67
▁5 911
ea k
▁i' ll
▁i' ve
▁ar ound
▁app :
▁app ears
iz es
▁time ly
ta ble
▁let ter
▁want s
▁amazing 

