{
  "version": "1.0",
  "truncation": null,
  "padding": null,
  "added_tokens": [
    {
      "id": 0,
      "content": "<unk>",
      "single_word": false,
      "lstrip": false,
      "rstrip": false,
      "normalized": false,
      "special": true
    }
  ],
  "normalizer": {
    "type": "NFKC"
  },
  "pre_tokenizer": {
    "type": "Metaspace",
    "replacement": "▁",
    "add_prefix_space": true
  },
  "post_processor": null,
  "decoder": {
    "type": "Metaspace",
    "replacement": "▁",
    "add_prefix_space": true
  },
  "model": {
    "type": "BPE",
    "dropout": null,
    "unk_token": "<unk>",
    "continuing_subword_prefix": null,
    "end_of_word_suffix": null,
    "fuse_unk": false,
    "byte_fallback": false,
    "vocab": {
      "<unk>": 0,
      "\n": 1,
      "\r": 2,
      "!": 3,
      "\"": 4,
      "#": 5,
      "$": 6,
      "%": 7,
      "&": 8,
      "'": 9,
      ".": 10,
      "/": 11,
      "0": 12,
      "1": 13,
      "2": 14,
      "3": 15,
      "4": 16,
      "5": 17,
      "6": 18,
      "7": 19,
      "8": 20,
      "9": 21,
      ":": 22,
      ";": 23,
      ">": 24,
      "@": 25,
      "a": 26,
      "b": 27,
      "c": 28,
      "d": 29,
      "e": 30,
      "f": 31,
      "g": 32,
      "h": 33,
      "i": 34,
      "j": 35,
      "k": 36,
      "l": 37,
      "m": 38,
      "n": 39,
      "o": 40,
      "p": 41,
      "q": 42,
      "r": 43,
      "s": 44,
      "t": 45,
      "u": 46,
      "v": 47,
      "w": 48,
      "x": 49,
      "y": 50,
      "z": 51,
      "|": 52,
      "é": 53,
      "í": 54,
      "ó": 55,
      "أ": 56,
      "ا": 57,
      "ب": 58,
      "ت": 59,
      "ج": 60,
      "د": 61,
      "ر": 62,
      "ط": 63,
      "ع": 64,
      "ق": 65,
      "ل": 66,
      "م": 67,
      "ن": 68,
      "ه": 69,
      "و": 70,
      "ى": 71,
      "ي": 72,
      "َ": 73,
      "ُ": 74,
      "ِ": 75,
      "ْ": 76,
      "’": 77,
      "“": 78,
      "”": 79,
      "▁": 80,
      "❤": 81,
      "️": 82,
      "﻿": 83,
      "👍": 84,
      "😖": 85,
      "😢": 86,
      "😭": 87,
      "🥲": 88,
      "🥺": 89,
      "▁t": 90,
      "▁i": 91,
      "▁a": 92,
      "▁th": 93,
      "▁w": 94,
      "re": 95,
      "▁s": 96,
      "▁m": 97,
      "er": 98,
      "▁o": 99,
      "▁the": 100,
      "nd": 101,
      "ed": 102,
      "in": 103,
      "ou": 104,
      "▁b": 105,
      "▁it": 106,
      "▁f": 107,
      "▁p": 108,
      "an": 109,
      "▁h": 110,
      "▁c": 111,
      "▁y": 112,
      "or": 113,
      "▁to": 114,
      "as": 115,
      "▁l": 116,
      "is": 117,
      "▁d": 118,
      "▁you": 119,
      "▁and": 120,
      "at": 121,
      "▁re": 122,
      "en": 123,
      "it": 124,
      "ll": 125,
      "ing": 126,
      "▁my": 127,
      "▁g": 128,
      "on": 129,
      "ce": 130,
      "om": 131,
      "▁n": 132,
      "ot": 133,
      "▁for": 134,
      "▁be": 135,
      "\r\n": 136,
      "em": 137,
      "ut": 138,
      "st": 139,
      "ve": 140,
      "▁than": 141,
      "ar": 142,
      "▁or": 143,
      "ct": 144,
      "▁thank": 145,
      "▁is": 146,
      "ly": 147,
      "pp": 148,
      "▁lo": 149,
      "ay": 150,
      "ent": 151,
      "▁was": 152,
      "ch": 153,
      "if": 154,
      "▁ord": 155,
      "▁on": 156,
      "le": 157,
      "▁of": 158,
      "▁in": 159,
      "ow": 160,
      "▁this": 161,
      "▁e": 162,
      "▁wh": 163,
      "▁item": 164,
      "▁not": 165,
      "ved": 166,
      "ith": 167,
      "▁ha": 168,
      "ver": 169,
      "▁j": 170,
      "es": 171,
      "▁so": 172,
      "▁fr": 173,
      "▁with": 174,
      "▁am": 175,
      "▁that": 176,
      "▁order": 177,
      "ie": 178,
      "ur": 179,
      "id": 180,
      "ust": 181,
      "al": 182,
      "cei": 183,
      "▁recei": 184,
      "et": 185,
      "▁from": 186,
      "ted": 187,
      "▁se": 188,
      "▁sh": 189,
      "▁he": 190,
      "ul": 191,
      "ure": 192,
      "▁your": 193,
      "very": 194,
      "ere": 195,
      "ke": 196,
      "one": 197,
      "ro": 198,
      "▁received": 199,
      "ill": 200,
      "▁\r\n": 201,
      "ld": 202,
      "se": 203,
      "uch": 204,
      "gh": 205,
      "ok": 206,
      "th": 207,
      "▁will": 208,
      "ase": 209,
      "all": 210,
      "▁just": 211,
      "ppo": 212,
      "ri": 213,
      "▁we": 214,
      "▁sent": 215,
      "▁li": 216,
      "▁but": 217,
      "▁have": 218,
      "▁do": 219,
      "▁dis": 220,
      "▁u": 221,
      "▁me": 222,
      "ck": 223,
      "▁much": 224,
      "ould": 225,
      "▁pi": 226,
      "▁can": 227,
      "il": 228,
      "me": 229,
      "▁k": 230,
      "▁ch": 231,
      "▁look": 232,
      "▁very": 233,
      "ad": 234,
      "appo": 235,
      "▁disappo": 236,
      "▁disappoin": 237,
      "▁an": 238,
      "ail": 239,
      "ag": 240,
      "ift": 241,
      "oo": 242,
      "▁com": 243,
      "▁gift": 244,
      "▁ex": 245,
      "▁disappointed": 246,
      "▁love": 247,
      "’s": 248,
      "▁as": 249,
      "▁pro": 250,
      "cture": 251,
      "▁picture": 252,
      "ght": 253,
      "day": 254,
      "ph": 255,
      "aut": 256,
      "ion": 257,
      "▁beaut": 258,
      "ered": 259,
      "ely": 260,
      "ist": 261,
      "▁de": 262,
      "ra": 263,
      "▁what": 264,
      "▁beautif": 265,
      "pe": 266,
      "▁ab": 267,
      "▁how": 268,
      "qu": 269,
      "▁beautiful": 270,
      "ice": 271,
      "ain": 272,
      "▁would": 273,
      "ol": 274,
      "▁ordered": 275,
      "ir": 276,
      "▁wan": 277,
      "age": 278,
      "▁2": 279,
      "▁ag": 280,
      "▁wor": 281,
      "▁ne": 282,
      "phone": 283,
      "vie": 284,
      "view": 285,
      "▁are": 286,
      "▁iphone": 287,
      "▁all": 288,
      "▁thanks": 289,
      "▁like": 290,
      "am": 291,
      "▁out": 292,
      "▁did": 293,
      "ally": 294,
      "▁one": 295,
      "▁happ": 296,
      "ore": 297,
      "sed": 298,
      "▁1": 299,
      "▁con": 300,
      "▁kn": 301,
      "▁iphone\r\n": 302,
      "▁im": 303,
      "any": 304,
      "▁qu": 305,
      "oth": 306,
      "ess": 307,
      "▁again": 308,
      "▁happy": 309,
      "du": 310,
      "▁work": 311,
      "▁know": 312,
      "and": 313,
      "ber": 314,
      "’t": 315,
      "reat": 316,
      "▁st": 317,
      "▁review": 318,
      "ity": 319,
      "rist": 320,
      "us": 321,
      "▁per": 322,
      "▁hi": 323,
      "▁today": 324,
      "▁get": 325,
      "▁comp": 326,
      "▁produ": 327,
      "au": 328,
      "ic": 329,
      "ond": 330,
      "▁at": 331,
      "▁base": 332,
      "ack": 333,
      "▁i’": 334,
      "▁they": 335,
      "▁ple": 336,
      "▁her": 337,
      "▁rec": 338,
      "ard": 339,
      "▁product": 340,
      "nt": 341,
      "▁3": 342,
      "res": 343,
      "▁su": 344,
      "▁ph": 345,
      "art": 346,
      "▁al": 347,
      "ome": 348,
      "▁see": 349,
      "▁christ": 350,
      "▁our": 351,
      "▁send": 352,
      "ear": 353,
      "ive": 354,
      "▁mail": 355,
      "▁pur": 356,
      "▁great": 357,
      "iend": 358,
      "ood": 359,
      "▁company": 360,
      "mas": 361,
      "ry": 362,
      "▁if": 363,
      "▁them": 364,
      "▁it’s": 365,
      "ast": 366,
      "ate": 367,
      "▁when": 368,
      "ality": 369,
      "os": 370,
      "sol": 371,
      "▁em": 372,
      "▁sm": 373,
      "▁good": 374,
      "▁she": 375,
      "▁looks": 376,
      "az": 377,
      "la": 378,
      "▁ti": 379,
      "▁ad": 380,
      "▁who": 381,
      "▁quality": 382,
      "other": 383,
      "▁i’m": 384,
      "▁please": 385,
      "▁christmas": 386,
      "▁purch": 387,
      "ble": 388,
      "▁go": 389,
      "utely": 390,
      "urn": 391,
      "▁up": 392,
      "▁absol": 393,
      "▁phot": 394,
      "▁absolutely": 395,
      "ake": 396,
      "ci": 397,
      "ect": 398,
      "ig": 399,
      "ied": 400,
      "um": 401,
      "▁5": 402,
      "▁has": 403,
      "llo": 404,
      "▁no": 405,
      "▁amaz": 406,
      "▁wanted": 407,
      "'t": 408,
      "ea": 409,
      "▁i'": 410,
      "▁ar": 411,
      "▁app": 412,
      "▁sa": 413,
      "▁say": 414,
      "est": 415,
      "iz": 416,
      "pt": 417,
      "ter": 418,
      "▁wr": 419,
      "▁hello": 420,
      "▁time": 421,
      "▁going": 422,
      "ta": 423,
      "▁en": 424,
      "▁mess": 425,
      "▁there": 426,
      "out": 427,
      "▁let": 428,
      "▁friend": 429,
      "▁want": 430,
      "▁small": 431,
      "▁photo": 432,
      "fied": 433,
      "ving": 434,
      "▁aw": 435,
      "▁sat": 436,
      "isfied": 437,
      "ite": 438,
      "▁jo": 439,
      "iece": 440,
      "▁light": 441,
      "▁amazing": 442,
      "▁message": 443,
      "'s": 444,
      "fin": 445,
      "n’t": 446,
      "pen": 447,
      "un": 448,
      "ven": 449,
      "vice": 450,
      "▁way": 451,
      "▁ser": 452,
      "▁more": 453,
      "▁back": 454,
      "▁piece": 455,
      "▁day": 456,
      "▁res": 457,
      "▁really": 458,
      "arg": 459,
      "▁defin": 460,
      "▁i'm": 461,
      "▁satisfied": 462,
      "are": 463,
      "▁cust": 464,
      "ased": 465,
      "itely": 466,
      "omer": 467,
      "▁loved": 468,
      "▁shi": 469,
      "▁show": 470,
      "▁email": 471,
      "▁service": 472,
      "▁definitely": 473,
      "▁customer": 474,
      "ah": 475,
      "ame": 476,
      "ful": 477,
      "ily": 478,
      "lo": 479,
      "ost": 480,
      "▁r": 481,
      "▁te": 482,
      "▁sin": 483,
      "cted": 484,
      "▁every": 485,
      "▁about": 486,
      "▁since": 487,
      "ak": 488,
      "fect": 489,
      "im": 490,
      "ind": 491,
      "ich": 492,
      "uy": 493,
      "▁7": 494,
      "▁tw": 495,
      "▁wif": 496,
      "red": 497,
      "▁mem": 498,
      "▁these": 499,
      "▁fa": 500,
      "▁his": 501,
      "▁larg": 502,
      "▁ref": 503,
      "iff": 504,
      "▁well": 505,
      "▁any": 506,
      "▁need": 507,
      "▁image": 508,
      "▁perfect": 509,
      "ause": 510,
      "▁arri": 511,
      "▁wife": 512,
      "00": 513,
      "be": 514,
      "cause": 515,
      "lp": 516,
      "son": 517,
      "▁spe": 518,
      "▁open": 519,
      "▁fir": 520,
      "ort": 521,
      "▁now": 522,
      "▁because": 523,
      "▁lost": 524,
      "▁heart": 525,
      "▁help": 526,
      "ions": 527,
      "ears": 528,
      "▁first": 529,
      "ew": 530,
      "hing": 531,
      "▁9": 532,
      "▁some": 533,
      "▁oth": 534,
      "▁bo": 535,
      "▁pas": 536,
      "▁got": 537,
      "pped": 538,
      "▁had": 539,
      "ade": 540,
      "▁expe": 541,
      "▁memor": 542,
      "▁other": 543,
      "ment": 544,
      "ning": 545,
      "op": 546,
      "vid": 547,
      "▁&": 548,
      "▁8": 549,
      "▁sure": 550,
      "ous": 551,
      "▁br": 552,
      "▁could": 553,
      "▁give": 554,
      "▁guy": 555,
      "▁only": 556,
      "▁dog": 557,
      "▁us": 558,
      "mend": 559,
      "ghter": 560,
      "aughter": 561,
      "resent": 562,
      "▁purchase": 563,
      "ize": 564,
      "▁eng": 565,
      "ahoo": 566,
      "▁arrived": 567,
      "el": 568,
      "li": 569,
      "so": 570,
      "▁4": 571,
      "▁ke": 572,
      "▁were": 573,
      "▁may": 574,
      "▁made": 575,
      "▁fam": 576,
      "ant": 577,
      "▁cor": 578,
      "▁last": 579,
      "▁lea": 580,
      "▁diff": 581,
      "▁ret": 582,
      "itt": 583,
      "ommend": 584,
      "▁ordering": 585,
      "▁looking": 586,
      "▁exce": 587,
      "▁20": 588,
      "▁new": 589,
      "▁recommend": 590,
      "▁two": 591,
      "▁guys": 592,
      "▁engra": 593,
      "▁family": 594,
      "und": 595,
      "ull": 596,
      "▁v": 597,
      "▁turn": 598,
      "▁wond": 599,
      "rely": 600,
      "ought": 601,
      "▁by": 602,
      "▁pa": 603,
      "▁pl": 604,
      "▁pos": 605,
      "▁present": 606,
      "ath": 607,
      "▁reg": 608,
      "▁gra": 609,
      "▁nice": 610,
      "▁another": 611,
      "▁add": 612,
      "▁opened": 613,
      "▁passed": 614,
      "▁wonder": 615,
      "band": 616,
      "cer": 617,
      "ever": 618,
      "fore": 619,
      "ia": 620,
      "ible": 621,
      "n't": 622,
      "reci": 623,
      "▁such": 624,
      "▁mom": 625,
      "ough": 626,
      "▁pla": 627,
      "▁hus": 628,
      "▁daughter": 629,
      "ong": 630,
      "ary": 631,
      "▁even": 632,
      "▁which": 633,
      "▁items": 634,
      "ult": 635,
      "▁does": 636,
      "▁un": 637,
      "▁conta": 638,
      "▁suppo": 639,
      "▁appreci": 640,
      "▁sincerely": 641,
      "▁refund": 642,
      "▁leave": 643,
      "▁return": 644,
      "▁husband": 645,
      "20": 646,
      "ach": 647,
      "lf": 648,
      "▁af": 649,
      "▁wa": 650,
      "▁sp": 651,
      "▁size": 652,
      "▁mat": 653,
      "▁make": 654,
      "ine": 655,
      "ink": 656,
      "▁bl": 657,
      "▁pre": 658,
      "▁don": 659,
      "▁rep": 660,
      "▁num": 661,
      "▁been": 662,
      "▁before": 663,
      "ember": 664,
      "pping": 665,
      "les": 666,
      "▁off": 667,
      "▁also": 668,
      "▁away": 669,
      "▁resp": 670,
      "▁larger": 671,
      "▁corre": 672,
      "▁turned": 673,
      "▁wonderful": 674,
      "bs": 675,
      "ced": 676,
      "for": 677,
      "iver": 678,
      "mit": 679,
      "per": 680,
      "ward": 681,
      "xt": 682,
      "▁6": 683,
      "edi": 684,
      "ount": 685,
      "▁bri": 686,
      "▁bir": 687,
      "▁it's": 688,
      "▁po": 689,
      "▁came": 690,
      "▁yahoo": 691,
      "▁le": 692,
      "ish": 693,
      "▁done": 694,
      "ation": 695,
      "ited": 696,
      "▁gi": 697,
      "omet": 698,
      "▁best": 699,
      "ently": 700,
      "lear": 701,
      "▁receive": 702,
      "thday": 703,
      "▁ann": 704,
      "▁person": 705,
      "▁wrong": 706,
      "▁job": 707,
      "▁shipping": 708,
      "▁differe": 709,
      "▁grand": 710,
      "▁addres": 711,
      "▁contact": 712,
      "▁number": 713,
      "ivers": 714,
      "▁birthday": 715,
      "cond": 716,
      "ep": 717,
      "pad": 718,
      "ris": 719,
      "ue": 720,
      "wer": 721,
      "▁#": 722,
      "▁$": 723,
      "▁ipad": 724,
      "▁son": 725,
      "▁mo": 726,
      "▁mor": 727,
      "▁then": 728,
      "▁both": 729,
      "▁bus": 730,
      "▁pri": 731,
      "ated": 732,
      "▁rem": 733,
      "▁forward": 734,
      "▁orig": 735,
      "▁inc": 736,
      "ried": 737,
      "▁looked": 738,
      "▁loves": 739,
      "ional": 740,
      "▁del": 741,
      "▁however": 742,
      "▁him": 743,
      "lace": 744,
      "cial": 745,
      "▁tell": 746,
      "▁box": 747,
      "▁memory": 748,
      "ather": 749,
      "▁regard": 750,
      "▁supposed": 751,
      "▁after": 752,
      "▁replace": 753,
      "▁respon": 754,
      "▁annivers": 755,
      "▁morning": 756,
      "▁origin": 757,
      "▁anniversary": 758,
      "ave": 759,
      "bl": 760,
      "cc": 761,
      "ile": 762,
      "ies": 763,
      "ick": 764,
      "mail": 765,
      "sible": 766,
      "te": 767,
      "tter": 768,
      "▁“": 769,
      "▁tr": 770,
      "▁tears": 771,
      "▁think": 772,
      "ree": 773,
      "▁sist": 774,
      "▁somet": 775,
      "▁pr": 776,
      "▁cou": 777,
      "▁clear": 778,
      "▁tower": 779,
      "ass": 780,
      "▁date": 781,
      "ately": 782,
      "▁requ": 783,
      "iting": 784,
      "llent": 785,
      "▁better": 786,
      "esome": 787,
      "▁second": 788,
      "thing": 789,
      "▁webs": 790,
      "▁pic": 791,
      "▁ask": 792,
      "▁pictures": 793,
      "▁concer": 794,
      "▁quick": 795,
      "▁recently": 796,
      "▁sending": 797,
      "▁purchased": 798,
      "▁said": 799,
      "▁friends": 800,
      "▁awesome": 801,
      "▁days": 802,
      "▁everyone": 803,
      "▁face": 804,
      "▁special": 805,
      "▁expected": 806,
      "▁excellent": 807,
      "▁engraved": 808,
      "ully": 809,
      "▁paid": 810,
      "▁placed": 811,
      "▁correct": 812,
      "▁different": 813,
      "▁original": 814,
      "▁sister": 815,
      "▁something": 816,
      "▁request": 817,
      "▁website": 818,
      "88": 819,
      "eop": 820,
      "ff": 821,
      "ose": 822,
      "ope": 823,
      "riend": 824,
      "ud": 825,
      "▁00": 826,
      "▁sc": 827,
      "▁sor": 828,
      "▁mar": 829,
      "err": 830,
      "erday": 831,
      "▁their": 832,
      "iness": 833,
      "ound": 834,
      "▁big": 835,
      "▁its": 836,
      "▁fin": 837,
      "▁few": 838,
      "▁peop": 839,
      "▁hope": 840,
      "▁cl": 841,
      "▁co": 842,
      "▁cu": 843,
      "▁cried": 844,
      "▁yet": 845,
      "▁year": 846,
      "▁yest": 847,
      "▁top": 848,
      "▁la": 849,
      "ise": 850,
      "▁da": 851,
      "▁andro": 852,
      "▁rect": 853,
      "▁gr": 854,
      "stand": 855,
      "ark": 856,
      "▁soon": 857,
      "▁that’s": 858,
      "ide": 859,
      "id\r\n": 860,
      "▁doing": 861,
      "▁come": 862,
      "▁gifts": 863,
      "▁exp": 864,
      "▁provid": 865,
      "▁probl": 866,
      "▁able": 867,
      "▁ago": 868,
      "ames": 869,
      "▁11": 870,
      "▁atta": 871,
      "▁3d": 872,
      "ivered": 873,
      "▁saw": 874,
      "aking": 875,
      "▁expect": 876,
      "▁keep": 877,
      "▁possible": 878,
      "▁appreciate": 879,
      "▁wait": 880,
      "▁don’t": 881,
      "▁address": 882,
      "▁business": 883,
      "▁delivered": 884,
      "▁regards": 885,
      "▁response": 886,
      "▁concern": 887,
      "▁sorry": 888,
      "▁people": 889,
      "▁yesterday": 890,
      "▁android\r\n": 891,
      "▁problem": 892,
      "▁attach": 893,
      "43": 894,
      "68": 895,
      "97": 896,
      "able": 897,
      "bmit": 898,
      "cited": 899,
      "ft": 900,
      "ip": 901,
      "ient": 902,
      "led": 903,
      "man": 904,
      "most": 905,
      "no": 906,
      "ting": 907,
      "▁0": 908,
      "▁|": 909,
      "❤️": 910,
      "▁ale": 911,
      "▁aol": 912,
      "▁three": 913,
      "▁war": 914,
      "▁mother": 915,
      "nder": 916,
      "int": 917,
      "▁blo": 918,
      "▁fe": 919,
      "▁father": 920,
      "▁put": 921,
      "▁pack": 922,
      "ance": 923,
      "▁hard": 924,
      "▁cro": 925,
      "▁col": 926,
      "▁yes": 927,
      "▁years": 928,
      "▁litt": 929,
      "ating": 930,
      "▁gave": 931,
      "ont": 932,
      "▁name": 933,
      "uture": 934,
      "▁iss": 935,
      "ley": 936,
      "own": 937,
      "▁ear": 938,
      "▁each": 939,
      "▁why": 940,
      "▁where": 941,
      "▁sha": 942,
      "▁should": 943,
      "self": 944,
      "▁can’t": 945,
      "▁can't": 946,
      "ady": 947,
      "▁ext": 948,
      "▁excited": 949,
      "▁didn't": 950,
      "▁10": 951,
      "▁pleased": 952,
      "astic": 953,
      "▁rot": 954,
      "▁everything": 955,
      "▁large": 956,
      "▁someone": 957,
      "antastic": 958,
      "▁preview": 959,
      "form": 960,
      "edium": 961,
      "▁giving": 962,
      "▁grandm": 963,
      "▁ipad\r\n": 964,
      "▁block": 965,
      "▁little": 966,
      "63": 967,
      "64": 968,
      ";\r\n": 969,
      "ale": 970,
      "bile": 971,
      "ek": 972,
      "lud": 973,
      "my": 974,
      "ner": 975,
      "not": 976,
      "pris": 977,
      "ss": 978,
      "yond": 979,
      "▁ri": 980,
      "▁ap": 981,
      "▁thought": 982,
      "▁wed": 983,
      "reme": 984,
      "▁sur": 985,
      "▁mr": 986,
      "▁must": 987,
      "▁mone": 988,
      "▁mist": 989,
      "▁mich": 990,
      "▁medium": 991,
      "er\r\n": 992,
      "▁over": 993,
      "▁bre": 994,
      "▁fi": 995,
      "▁fo": 996,
      "▁future": 997,
      "▁fantastic": 998,
      "▁pare": 999,
      "ang": 1000,
      "ans": 1001,
      "▁call": 1002,
      "▁too": 1003,
      "ised": 1004,
      "▁des": 1005,
      "▁you\r\n": 1006,
      "ations": 1007,
      "ens": 1008,
      "▁gl": 1009,
      "▁gir": 1010,
      "ott": 1011,
      "▁being": 1012,
      "▁beyond": 1013,
      "pport": 1014,
      "ows": 1015,
      "▁nothing": 1016,
      "veral": 1017,
      "▁sooo": 1018,
      "▁seen": 1019,
      "▁several": 1020,
      "▁head": 1021,
      "thew": 1022,
      "rible": 1023,
      "▁week": 1024,
      "▁disc": 1025,
      "▁under": 1026,
      "cked": 1027,
      "▁cannot": 1028,
      "▁kim": 1029,
      "▁com\r\n": 1030,
      "▁didn’t": 1031,
      "▁cont": 1032,
      "▁imp": 1033,
      "▁imag": 1034,
      "▁stand": 1035,
      "▁high": 1036,
      "nts": 1037,
      "▁submit": 1038,
      "▁almost": 1039,
      "▁adv": 1040,
      "▁ups": 1041,
      "▁writing": 1042,
      "▁shipped": 1043,
      "▁shows": 1044,
      "look": 1045,
      "▁text": 1046,
      "▁memories": 1047,
      "▁couldn’t": 1048,
      "▁maybe": 1049,
      "▁2020": 1050,
      "▁matthew": 1051,
      "▁black": 1052,
      "▁poor": 1053,
      "▁left": 1054,
      "▁mobile": 1055,
      "▁price": 1056,
      "▁includ": 1057,
      "▁replacement": 1058,
      "▁cube": 1059,
      "▁color": 1060,
      "▁extreme": 1061,
      "▁surpris": 1062,
      "▁money": 1063,
      "▁parents": 1064,
      "▁extremely": 1065,
      "17": 1066,
      "19": 1067,
      "22": 1068,
      "31": 1069,
      "40": 1070,
      "59": 1071,
      "69": 1072,
      "82": 1073,
      "89": 1074,
      "@y": 1075,
      "ab": 1076,
      "ap": 1077,
      "ax": 1078,
      "act": 1079,
      "come": 1080,
      "ding": 1081,
      "ell": 1082,
      "fully": 1083,
      "ge": 1084,
      "ial": 1085,
      "ight": 1086,
      "ious": 1087,
      "ne": 1088,
      "uly": 1089,
      "ual": 1090,
      "ually": 1091,
      "wh": 1092,
      "yf": 1093,
      "you": 1094,
      "▁\"": 1095,
      "▁﻿": 1096,
      "▁ro": 1097,
      "▁ra": 1098,
      "▁❤️": 1099,
      "▁try": 1100,
      "▁acc": 1101,
      "▁thing": 1102,
      "ren": 1103,
      "ready": 1104,
      "▁side": 1105,
      "▁mer": 1106,
      "▁mis": 1107,
      "▁mart": 1108,
      "▁most": 1109,
      "▁making": 1110,
      "▁opt": 1111,
      "outh": 1112,
      "▁bare": 1113,
      "▁bought": 1114,
      "▁bott": 1115,
      "▁itself": 1116,
      "▁fit": 1117,
      "▁fore": 1118,
      "▁part": 1119,
      "▁hor": 1120,
      "▁hop": 1121,
      "▁creat": 1122,
      "▁cli": 1123,
      "▁tot": 1124,
      "▁det": 1125,
      "▁dad": 1126,
      "▁dim": 1127,
      "▁red": 1128,
      "▁read": 1129,
      "▁reach": 1130,
      "enn": 1131,
      "ence": 1132,
      "ition": 1133,
      "itive": 1134,
      "lly": 1135,
      "cess": 1136,
      "omised": 1137,
      "ote": 1138,
      "ify": 1139,
      "ific": 1140,
      "▁int": 1141,
      "▁eith": 1142,
      "▁whom": 1143,
      "▁notice": 1144,
      "▁jun": 1145,
      "▁james": 1146,
      "▁amount": 1147,
      "▁orders": 1148,
      "▁sept": 1149,
      "▁mean": 1150,
      "▁kind": 1151,
      "▁ass": 1152,
      "▁deli": 1153,
      "▁next": 1154,
      "▁outlook": 1155,
      "▁outcome": 1156,
      "▁stun": 1157,
      "▁recip": 1158,
      "▁30": 1159,
      "ressed": 1160,
      "▁phone": 1161,
      "▁already": 1162,
      "ryan": 1163,
      "▁result": 1164,
      "▁fact": 1165,
      "▁kelly": 1166,
      "▁engraving": 1167,
      "▁positive": 1168,
      "▁presented": 1169,
      "▁doesn’t": 1170,
      "▁spent": 1171,
      "less": 1172,
      "▁brian": 1173,
      "▁brick": 1174,
      "ished": 1175,
      "▁remember": 1176,
      "▁afterno": 1177,
      "▁pics": 1178,
      "▁law": 1179,
      "▁david": 1180,
      "▁provide": 1181,
      "▁keeps": 1182,
      "▁alex": 1183,
      "▁mistake": 1184,
      "▁micha": 1185,
      "▁glass": 1186,
      "▁understand": 1187,
      "▁impressed": 1188,
      "▁included": 1189,
      "@yahoo": 1190,
      "▁barely": 1191,
      "▁bottom": 1192,
      "▁hoping": 1193,
      "▁detail": 1194,
      "▁dimens": 1195,
      "▁either": 1196,
      "▁delivery": 1197,
      "▁stunning": 1198,
      "▁recipient": 1199,
      "▁afternoon": 1200,
      "..": 1201,
      "11": 1202,
      "21": 1203,
      "25": 1204,
      "26": 1205,
      "30": 1206,
      "41": 1207,
      "45": 1208,
      "54": 1209,
      "67": 1210,
      "77": 1211,
      ">\r\n": 1212,
      "@h": 1213,
      "cific": 1214,
      "ience": 1215,
      "ject": 1216,
      "lie": 1217,
      "medi": 1218,
      "ng": 1219,
      "ness": 1220,
      "oph": 1221,
      "oice": 1222,
      "par": 1223,
      "ple": 1224,
      "sing": 1225,
      "ues": 1226,
      "unt": 1227,
      "wise": 1228,
      "▁x": 1229,
      "▁>\r\n": 1230,
      "▁tre": 1231,
      "▁tra": 1232,
      "▁take": 1233,
      "▁tiff": 1234,
      "▁id": 1235,
      "▁act": 1236,
      "▁wra": 1237,
      "▁wind": 1238,
      "▁sw": 1239,
      "▁set": 1240,
      "▁sad": 1241,
      "▁site": 1242,
      "▁sim": 1243,
      "▁man": 1244,
      "▁mon": 1245,
      "▁many": 1246,
      "▁find": 1247,
      "▁pra": 1248,
      "anie": 1249,
      "▁cond": 1250,
      "▁care": 1251,
      "▁cell": 1252,
      "ork": 1253,
      "▁lit": 1254,
      "▁lot": 1255,
      "▁due": 1256,
      "▁dark": 1257,
      "▁danie": 1258,
      "ates": 1259,
      "▁real": 1260,
      "itch": 1261,
      "▁gre": 1262,
      "▁gone": 1263,
      "▁nor": 1264,
      "otmail": 1265,
      "arr": 1266,
      "▁inform": 1267,
      "▁el": 1268,
      "▁jpe": 1269,
      "▁front": 1270,
      "▁without": 1271,
      "iday": 1272,
      "▁sele": 1273,
      "▁separ": 1274,
      "▁short": 1275,
      "seph": 1276,
      "though": 1277,
      "ript": 1278,
      "▁use": 1279,
      "▁used": 1280,
      "▁unt": 1281,
      "▁che": 1282,
      "▁chi": 1283,
      "▁choo": 1284,
      "▁chose": 1285,
      "▁process": 1286,
      "▁dece": 1287,
      "▁word": 1288,
      "▁never": 1289,
      "▁allen": 1290,
      "▁14": 1291,
      "▁immedi": 1292,
      "berly": 1293,
      "▁star": 1294,
      "▁stay": 1295,
      "▁still": 1296,
      "▁perman": 1297,
      "icult": 1298,
      "▁i’ll": 1299,
      "▁support": 1300,
      "▁although": 1301,
      "▁christoph": 1302,
      "▁smith": 1303,
      "▁purchas": 1304,
      "▁photos": 1305,
      "▁53": 1306,
      "▁nov": 1307,
      "eared": 1308,
      "▁appeared": 1309,
      "▁same": 1310,
      "▁says": 1311,
      "▁saying": 1312,
      "▁wrote": 1313,
      "▁enough": 1314,
      "▁joseph": 1315,
      "▁lights": 1316,
      "▁ship": 1317,
      "▁showed": 1318,
      "▁rus": 1319,
      "▁70": 1320,
      "▁twice": 1321,
      "▁specific": 1322,
      "▁boyf": 1323,
      "▁otherwise": 1324,
      "▁44": 1325,
      "▁difficult": 1326,
      "▁except": 1327,
      "▁plan": 1328,
      "lfriend": 1329,
      "▁point": 1330,
      "▁given": 1331,
      "▁$1": 1332,
      "▁truly": 1333,
      "▁promised": 1334,
      "▁cour": 1335,
      "▁finally": 1336,
      "▁finished": 1337,
      "▁rectify": 1338,
      "▁expecting": 1339,
      "▁expectations": 1340,
      "▁attached": 1341,
      "▁package": 1342,
      "▁issue": 1343,
      "▁shape": 1344,
      "▁grandmother": 1345,
      "▁right": 1346,
      "▁wedding": 1347,
      "▁girlfriend": 1348,
      "▁discount": 1349,
      "▁kimberly": 1350,
      "▁images": 1351,
      "▁highly": 1352,
      "▁surprised": 1353,
      "▁merry": 1354,
      "▁options": 1355,
      "▁horrible": 1356,
      "▁totally": 1357,
      "▁into": 1358,
      "▁june": 1359,
      "▁september": 1360,
      "▁keepsake": 1361,
      "▁michael": 1362,
      "▁dimensional": 1363,
      "@hotmail": 1364,
      "▁tiffany": 1365,
      "▁actually": 1366,
      "▁windows": 1367,
      "▁condition": 1368,
      "▁jpeg": 1369,
      "▁until": 1370,
      "▁immediately": 1371,
      "▁christopher": 1372,
      "▁boyfriend": 1373,
      "/c": 1374,
      "28": 1375,
      "29": 1376,
      "2is": 1377,
      "39": 1378,
      "53": 1379,
      "57": 1380,
      "60": 1381,
      "84": 1382,
      "87": 1383,
      "@g": 1384,
      "af": 1385,
      "ace": 1386,
      "bo": 1387,
      "bor": 1388,
      "bul": 1389,
      "bri": 1390,
      "bject": 1391,
      "cy": 1392,
      "cing": 1393,
      "cent": 1394,
      "cript": 1395,
      "dd": 1396,
      "daughter": 1397,
      "fe": 1398,
      "fort": 1399,
      "ger": 1400,
      "he": 1401,
      "hn": 1402,
      "hind": 1403,
      "hap": 1404,
      "ib": 1405,
      "ire": 1406,
      "iam": 1407,
      "ken": 1408,
      "lt": 1409,
      "lain": 1410,
      "ny": 1411,
      "ned": 1412,
      "nce": 1413,
      "nect": 1414,
      "og": 1415,
      "ober": 1416,
      "ples": 1417,
      "ru": 1418,
      "s\r\n": 1419,
      "sun": 1420,
      "ton": 1421,
      "tment": 1422,
      "uz": 1423,
      "vin": 1424,
      "vis": 1425,
      "vious": 1426,
      "wn": 1427,
      "ych": 1428,
      "yes": 1429,
      "zy": 1430,
      "’ll": 1431,
      "▁ent": 1432,
      "▁ver": 1433,
      "▁err": 1434,
      "▁ryan": 1435,
      "▁tri": 1436,
      "▁tam": 1437,
      "▁ios": 1438,
      "▁aunt": 1439,
      "▁thom": 1440,
      "▁wish": 1441,
      "▁sus": 1442,
      "▁min": 1443,
      "▁mall": 1444,
      "ert": 1445,
      "eral": 1446,
      "erial": 1447,
      "▁oct": 1448,
      "▁old": 1449,
      "nded": 1450,
      "ina": 1451,
      "incent": 1452,
      "our": 1453,
      "▁ben": 1454,
      "▁bro": 1455,
      "▁buy": 1456,
      "▁fem": 1457,
      "▁fig": 1458,
      "▁fuz": 1459,
      "▁ps": 1460,
      "▁pay": 1461,
      "▁page": 1462,
      "▁post": 1463,
      "▁home": 1464,
      "▁cent": 1465,
      "▁case": 1466,
      "▁coo": 1467,
      "▁cra": 1468,
      "▁cost": 1469,
      "▁c2is": 1470,
      "▁cert": 1471,
      "ord": 1472,
      "▁to:": 1473,
      "▁took": 1474,
      "ason": 1475,
      "▁led": 1476,
      "▁lis": 1477,
      "▁lear": 1478,
      "▁late": 1479,
      "▁link": 1480,
      "atch": 1481,
      "atform": 1482,
      "its": 1483,
      "llow": 1484,
      "▁gon": 1485,
      "cept": 1486,
      "▁names": 1487,
      "▁belie": 1488,
      "▁behind": 1489,
      "stru": 1490,
      "ctice": 1491,
      "▁loc": 1492,
      "ents": 1493,
      "▁inte": 1494,
      "▁eas": 1495,
      "▁ever": 1496,
      "▁eyes": 1497,
      "▁while": 1498,
      "▁notic": 1499,
      "▁jess": 1500,
      "▁friday": 1501,
      "▁within": 1502,
      "▁that's": 1503,
      "ieved": 1504,
      "uring": 1505,
      "ids": 1506,
      "alk": 1507,
      "alth": 1508,
      "▁receipt": 1509,
      "eth": 1510,
      "▁shar": 1511,
      "▁health": 1512,
      "ular": 1513,
      "ured": 1514,
      "▁william": 1515,
      "▁west": 1516,
      "▁lind": 1517,
      "▁mel": 1518,
      "▁much\r\n": 1519,
      "▁kath": 1520,
      "▁kids": 1521,
      "▁charg": 1522,
      "▁choice": 1523,
      "▁disappointment": 1524,
      "▁ans": 1525,
      "aged": 1526,
      "▁exam": 1527,
      "▁expen": 1528,
      "▁pictured": 1529,
      "▁dep": 1530,
      "▁dear": 1531,
      "▁deal": 1532,
      "olog": 1533,
      "▁21": 1534,
      "▁world": 1535,
      "▁12": 1536,
      "▁15": 1537,
      "▁1lt": 1538,
      "▁cons": 1539,
      "▁connect": 1540,
      "▁quest": 1541,
      "berg": 1542,
      "▁ste": 1543,
      "▁perhap": 1544,
      "▁getting": 1545,
      "ica": 1546,
      "▁att": 1547,
      "▁recieved": 1548,
      "▁products": 1549,
      "▁suite": 1550,
      "ateful": 1551,
      "▁emot": 1552,
      "▁emily": 1553,
      "▁she’s": 1554,
      "umin": 1555,
      "▁nose": 1556,
      "▁amazed": 1557,
      "▁art": 1558,
      "▁appear": 1559,
      "▁safe": 1560,
      "ized": 1561,
      "▁write": 1562,
      "▁smaller": 1563,
      "▁joy": 1564,
      "▁john": 1565,
      "▁shown": 1566,
      "loy": 1567,
      "akes": 1568,
      "▁fabul": 1569,
      "▁referr": 1570,
      "▁speak": 1571,
      "▁somewh": 1572,
      "▁brad": 1573,
      "▁brother": 1574,
      "▁brought": 1575,
      "▁usaf": 1576,
      "▁vis": 1577,
      "▁vincent": 1578,
      "▁platform": 1579,
      "▁regular": 1580,
      "▁place": 1581,
      "▁suppose": 1582,
      "▁appreciated": 1583,
      "▁material": 1584,
      "▁blown": 1585,
      "▁previous": 1586,
      "▁don't": 1587,
      "▁corrected": 1588,
      "▁leg": 1589,
      "▁granddaughter": 1590,
      "▁addressed": 1591,
      "▁son’s": 1592,
      "▁couple": 1593,
      "▁clearly": 1594,
      "▁towers": 1595,
      "▁asked": 1596,
      "▁quickly": 1597,
      "▁maria": 1598,
      "▁davis": 1599,
      "▁rectang": 1600,
      "▁grateful": 1601,
      "▁explain": 1602,
      "▁provided": 1603,
      "▁11/": 1604,
      "▁feel": 1605,
      "▁hardly": 1606,
      "▁issues": 1607,
      "▁rotating": 1608,
      "▁grandma": 1609,
      "▁brend": 1610,
      "▁descript": 1611,
      "▁soooo": 1612,
      "▁weeks": 1613,
      "▁contin": 1614,
      "▁submitted": 1615,
      "▁advise": 1616,
      "▁upset": 1617,
      "ney": 1618,
      "▁﻿\r\n": 1619,
      "▁trying": 1620,
      "▁martin": 1621,
      "▁alexand": 1622,
      "▁track": 1623,
      "▁idea": 1624,
      "▁wrapped": 1625,
      "▁month": 1626,
      "▁practice": 1627,
      "▁information": 1628,
      "▁selected": 1629,
      "▁choose": 1630,
      "▁purchasing": 1631,
      "▁november": 1632,
      "▁shipment": 1633,
      "▁exceptional": 1634,
      "@gmail": 1635,
      "▁error": 1636,
      "▁tammy": 1637,
      "▁ios\r\n": 1638,
      "▁october": 1639,
      "▁female": 1640,
      "▁figure": 1641,
      "▁fuzzy": 1642,
      "▁c2isr": 1643,
      "▁learn": 1644,
      "▁believe": 1645,
      "▁intended": 1646,
      "▁jessica": 1647,
      "▁examples": 1648,
      "▁questions": 1649,
      "▁perhaps": 1650,
      "▁fabulous": 1651,
      "▁somewhat": 1652,
      "▁rectangle": 1653,
      "▁description": 1654,
      "!!": 1655,
      "&t": 1656,
      "/or": 1657,
      "/20": 1658,
      "01": 1659,
      "08": 1660,
      "33": 1661,
      "36": 1662,
      "46": 1663,
      "468": 1664,
      "55": 1665,
      "58": 1666,
      "76": 1667,
      "92": 1668,
      "911": 1669,
      "aa": 1670,
      "ac": 1671,
      "ais": 1672,
      "a\r\n": 1673,
      "agh": 1674,
      "br": 1675,
      "bly": 1676,
      "bes": 1677,
      "bur": 1678,
      "cé": 1679,
      "cle": 1680,
      "cus": 1681,
      "clear": 1682,
      "dy": 1683,
      "date": 1684,
      "ez": 1685,
      "ech": 1686,
      "fo": 1687,
      "gg": 1688,
      "gr": 1689,
      "gin": 1690,
      "hley": 1691,
      "ik": 1692,
      "ier": 1693,
      "ike": 1694,
      "just": 1695,
      "jam": 1696,
      "jand": 1697,
      "jia": 1698,
      "kin": 1699,
      "ket": 1700,
      "ls": 1701,
      "lor": 1702,
      "low": 1703,
      "lim": 1704,
      "line": 1705,
      "ma": 1706,
      "med": 1707,
      "mon": 1708,
      "mber": 1709,
      "mouth": 1710,
      "na": 1711,
      "nes": 1712,
      "nth": 1713,
      "oy": 1714,
      "oing": 1715,
      "osed": 1716,
      "opped": 1717,
      "ocked": 1718,
      "pg": 1719,
      "pic": 1720,
      "pose": 1721,
      "ploy": 1722,
      "rough": 1723,
      "ratch": 1724,
      "sa": 1725,
      "sh": 1726,
      "say": 1727,
      "sion": 1728,
      "sive": 1729,
      "side": 1730,
      "ty": 1731,
      "town": 1732,
      "tney": 1733,
      "ued": 1734,
      "uce": 1735,
      "uck": 1736,
      "uation": 1737,
      "vent": 1738,
      "vast": 1739,
      "way": 1740,
      "with": 1741,
      "wered": 1742,
      "work": 1743,
      "xl": 1744,
      "yl": 1745,
      "yle": 1746,
      "ynth": 1747,
      "ال": 1748,
      "عل": 1749,
      "قَ": 1750,
      "ْر": 1751,
      "▁ت": 1752,
      "▁”": 1753,
      "▁👍": 1754,
      "▁view": 1755,
      "▁ال": 1756,
      "▁عل": 1757,
      "▁قَ": 1758,
      "▁ter": 1759,
      "▁tit": 1760,
      "▁tay": 1761,
      "▁test": 1762,
      "▁tried": 1763,
      "▁tree": 1764,
      "▁tma": 1765,
      "▁though": 1766,
      "▁through": 1767,
      "▁won": 1768,
      "▁went": 1769,
      "▁wow": 1770,
      "▁wid": 1771,
      "▁walk": 1772,
      "rew": 1773,
      "reet": 1774,
      "▁sd": 1775,
      "▁sar": 1776,
      "▁sid": 1777,
      "▁sir": 1778,
      "▁sam": 1779,
      "▁south": 1780,
      "▁mf": 1781,
      "▁mh": 1782,
      "▁ment": 1783,
      "▁merr": 1784,
      "▁male": 1785,
      "ers": 1786,
      "erally": 1787,
      "erish": 1788,
      "▁occ": 1789,
      "▁opport": 1790,
      "▁object": 1791,
      "▁own": 1792,
      "nday": 1793,
      "ndered": 1794,
      "eded": 1795,
      "ined": 1796,
      "▁bat": 1797,
      "▁based": 1798,
      "▁bak": 1799,
      "▁bull": 1800,
      "▁bab": 1801,
      "▁bryan": 1802,
      "▁it’ll": 1803,
      "▁fast": 1804,
      "▁fel": 1805,
      "▁full": 1806,
      "▁fine": 1807,
      "▁fully": 1808,
      "▁four": 1809,
      "▁pat": 1810,
      "▁pit": 1811,
      "▁pet": 1812,
      "▁port": 1813,
      "▁park": 1814,
      "▁png": 1815,
      "ank": 1816,
      "ancé": 1817,
      "▁har": 1818,
      "▁hes": 1819,
      "▁hum": 1820,
      "▁cas": 1821,
      "▁cat": 1822,
      "▁cut": 1823,
      "▁card": 1824,
      "▁cry": 1825,
      "▁clo": 1826,
      "▁cred": 1827,
      "▁cris": 1828,
      "▁cynth": 1829,
      "orre": 1830,
      "asure": 1831,
      "▁lif": 1832,
      "▁lake": 1833,
      "▁line": 1834,
      "▁lady": 1835,
      "▁lord": 1836,
      "▁lumin": 1837,
      "isite": 1838,
      "▁died": 1839,
      "▁during": 1840,
      "▁young": 1841,
      "▁and/or": 1842,
      "ature": 1843,
      "▁rest": 1844,
      "▁reality": 1845,
      "▁resol": 1846,
      "▁rendered": 1847,
      "ened": 1848,
      "eneral": 1849,
      "lle": 1850,
      "ings": 1851,
      "▁myself": 1852,
      "▁gu": 1853,
      "▁gal": 1854,
      "▁general": 1855,
      "ony": 1856,
      "celed": 1857,
      "oman": 1858,
      "▁none": 1859,
      "ots": 1860,
      "▁beard": 1861,
      "emo": 1862,
      "emp": 1863,
      "ement": 1864,
      "uter": 1865,
      "ves": 1866,
      "arity": 1867,
      "around": 1868,
      "▁orient": 1869,
      "ctly": 1870,
      "ctfully": 1871,
      "▁thankyou": 1872,
      "▁isn’t": 1873,
      "▁lol": 1874,
      "ente": 1875,
      "ential": 1876,
      "▁wasn’t": 1877,
      "ifer": 1878,
      "ified": 1879,
      "lete": 1880,
      "▁info": 1881,
      "▁et": 1882,
      "▁ell": 1883,
      "▁eff": 1884,
      "▁event": 1885,
      "▁white": 1886,
      "▁note": 1887,
      "▁notch": 1888,
      "▁having": 1889,
      "▁haven": 1890,
      "▁jim": 1891,
      "▁jenn": 1892,
      "▁jpg": 1893,
      "es\r\n": 1894,
      "▁amand": 1895,
      "urt": 1896,
      "ider": 1897,
      "▁receiving": 1898,
      "▁shad": 1899,
      "▁share": 1900,
      "▁hey": 1901,
      "▁he’s": 1902,
      "lds": 1903,
      "ldren": 1904,
      "oked": 1905,
      "thony": 1906,
      "ria": 1907,
      "▁live": 1908,
      "▁limit": 1909,
      "▁button": 1910,
      "▁door": 1911,
      "▁meant": 1912,
      "▁mejia": 1913,
      "ck”": 1914,
      "▁canceled": 1915,
      "▁krist": 1916,
      "▁kais": 1917,
      "▁chos": 1918,
      "▁chea": 1919,
      "▁chance": 1920,
      "▁cherish": 1921,
      "▁anthony": 1922,
      "ager": 1923,
      "▁gifting": 1924,
      "▁exqu": 1925,
      "▁exper": 1926,
      "▁exact": 1927,
      "▁lovely": 1928,
      "▁asap": 1929,
      "▁ashley": 1930,
      "▁beauty": 1931,
      "▁dec": 1932,
      "▁devast": 1933,
      "▁delete": 1934,
      "raid": 1935,
      "▁beautifully": 1936,
      "pectfully": 1937,
      "ice:": 1938,
      "▁wouldn't": 1939,
      "irit": 1940,
      "▁29": 1941,
      "▁2nd": 1942,
      "▁200": 1943,
      "▁worth": 1944,
      "▁near": 1945,
      "▁allows": 1946,
      "amaged": 1947,
      "▁18": 1948,
      "▁197": 1949,
      "▁conf": 1950,
      "▁concept": 1951,
      "▁constru": 1952,
      "▁knew": 1953,
      "▁img": 1954,
      "▁works": 1955,
      "▁worker": 1956,
      "▁worked": 1957,
      "▁street": 1958,
      "▁reviews": 1959,
      "usual": 1960,
      "▁computer": 1961,
      "▁produce": 1962,
      "ically": 1963,
      "icles": 1964,
      "▁at&t": 1965,
      "▁i’d": 1966,
      "▁364": 1967,
      "ress": 1968,
      "▁super": 1969,
      "▁sudd": 1970,
      "▁sunday": 1971,
      "artphone": 1972,
      "artment": 1973,
      "▁sender": 1974,
      "▁mailed": 1975,
      "▁purpose": 1976,
      "▁employ": 1977,
      "▁smartphone": 1978,
      "▁tim": 1979,
      "▁tip": 1980,
      "▁adam": 1981,
      "▁adjust": 1982,
      "▁whose": 1983,
      "▁who’s": 1984,
      "▁god": 1985,
      "▁567": 1986,
      "▁5911": 1987,
      "eak": 1988,
      "▁i'll": 1989,
      "▁i've": 1990,
      "▁around": 1991,
      "▁app:": 1992,
      "▁appears": 1993,
      "izes": 1994,
      "▁timely": 1995,
      "table": 1996,
      "▁letter": 1997,
      "▁wants": 1998,
      "▁amazing\r\n": 1999
    },
    "merges": [
      "▁ t",
      "▁ i",
      "▁ a",
      "▁t h",
      "▁ w",
      "r e",
      "▁ s",
      "▁ m",
      "e r",
      "▁ o",
      "▁th e",
      "n d",
      "e d",
      "i n",
      "o u",
      "▁ b",
      "▁i t",
      "▁ f",
      "▁ p",
      "a n",
      "▁ h",
      "▁ c",
      "▁ y",
      "o r",
      "▁t o",
      "a s",
      "▁ l",
      "i s",
      "▁ d",
      "▁y ou",
      "▁a nd",
      "a t",
      "▁ re",
      "e n",
      "i t",
      "l l",
      "in g",
      "▁m y",
      "▁ g",
      "o n",
      "c e",
      "o m",
      "▁ n",
      "o t",
      "▁f or",
      "▁b e",
      "\r \n",
      "e m",
      "u t",
      "s t",
      "v e",
      "▁th an",
      "a r",
      "▁o r",
      "c t",
      "▁than k",
      "▁i s",
      "l y",
      "p p",
      "▁l o",
      "a y",
      "en t",
      "▁w as",
      "c h",
      "i f",
      "▁or d",
      "▁o n",
      "l e",
      "▁o f",
      "▁i n",
      "o w",
      "▁th is",
      "▁ e",
      "▁w h",
      "▁it em",
      "▁n ot",
      "v ed",
      "it h",
      "▁h a",
      "v er",
      "▁ j",
      "e s",
      "▁s o",
      "▁f r",
      "▁w ith",
      "▁a m",
      "▁th at",
      "▁ord er",
      "i e",
      "u r",
      "i d",
      "u st",
      "a l",
      "ce i",
      "▁re cei",
      "e t",
      "▁fr om",
      "t ed",
      "▁s e",
      "▁s h",
      "▁h e",
      "u l",
      "u re",
      "▁you r",
      "ver y",
      "e re",
      "k e",
      "on e",
      "r o",
      "▁recei ved",
      "i ll",
      "▁ \r\n",
      "l d",
      "s e",
      "u ch",
      "g h",
      "o k",
      "t h",
      "▁w ill",
      "as e",
      "a ll",
      "▁j ust",
      "pp o",
      "r i",
      "▁w e",
      "▁s ent",
      "▁l i",
      "▁b ut",
      "▁ha ve",
      "▁d o",
      "▁d is",
      "▁ u",
      "▁m e",
      "c k",
      "▁m uch",
      "ou ld",
      "▁p i",
      "▁c an",
      "i l",
      "m e",
      "▁ k",
      "▁c h",
      "▁lo ok",
      "▁ very",
      "a d",
      "a ppo",
      "▁dis appo",
      "▁disappo in",
      "▁a n",
      "a il",
      "a g",
      "if t",
      "o o",
      "▁c om",
      "▁g ift",
      "▁e x",
      "▁disappoin ted",
      "▁lo ve",
      "’ s",
      "▁a s",
      "▁p ro",
      "ct ure",
      "▁pi cture",
      "gh t",
      "d ay",
      "p h",
      "a ut",
      "i on",
      "▁be aut",
      "ere d",
      "e ly",
      "is t",
      "▁d e",
      "r a",
      "▁wh at",
      "▁beaut if",
      "p e",
      "▁a b",
      "▁h ow",
      "q u",
      "▁beautif ul",
      "i ce",
      "a in",
      "▁w ould",
      "o l",
      "▁ord ered",
      "i r",
      "▁w an",
      "ag e",
      "▁ 2",
      "▁a g",
      "▁w or",
      "▁n e",
      "ph one",
      "v ie",
      "vie w",
      "▁a re",
      "▁i phone",
      "▁a ll",
      "▁thank s",
      "▁li ke",
      "a m",
      "▁o ut",
      "▁d id",
      "all y",
      "▁on e",
      "▁ha pp",
      "o re",
      "s ed",
      "▁ 1",
      "▁c on",
      "▁k n",
      "▁iphone \r\n",
      "▁i m",
      "an y",
      "▁ qu",
      "ot h",
      "es s",
      "▁ag ain",
      "▁happ y",
      "d u",
      "▁wor k",
      "▁kn ow",
      "a nd",
      "b er",
      "’ t",
      "re at",
      "▁s t",
      "▁re view",
      "it y",
      "r ist",
      "u s",
      "▁p er",
      "▁h i",
      "▁to day",
      "▁g et",
      "▁com p",
      "▁pro du",
      "a u",
      "i c",
      "o nd",
      "▁a t",
      "▁b ase",
      "a ck",
      "▁i ’",
      "▁the y",
      "▁p le",
      "▁h er",
      "▁re c",
      "ar d",
      "▁produ ct",
      "n t",
      "▁ 3",
      "re s",
      "▁s u",
      "▁p h",
      "ar t",
      "▁a l",
      "om e",
      "▁se e",
      "▁ch rist",
      "▁o ur",
      "▁se nd",
      "e ar",
      "i ve",
      "▁m ail",
      "▁p ur",
      "▁g reat",
      "ie nd",
      "oo d",
      "▁comp any",
      "m as",
      "r y",
      "▁i f",
      "▁the m",
      "▁it ’s",
      "as t",
      "at e",
      "▁wh en",
      "al ity",
      "o s",
      "s ol",
      "▁ em",
      "▁s m",
      "▁g ood",
      "▁sh e",
      "▁look s",
      "a z",
      "l a",
      "▁t i",
      "▁a d",
      "▁wh o",
      "▁qu ality",
      "oth er",
      "▁i’ m",
      "▁ple ase",
      "▁christ mas",
      "▁pur ch",
      "b le",
      "▁g o",
      "ut ely",
      "ur n",
      "▁u p",
      "▁ab sol",
      "▁ph ot",
      "▁absol utely",
      "a ke",
      "c i",
      "e ct",
      "i g",
      "i ed",
      "u m",
      "▁ 5",
      "▁h as",
      "ll o",
      "▁n o",
      "▁am az",
      "▁wan ted",
      "' t",
      "e a",
      "▁i '",
      "▁a r",
      "▁a pp",
      "▁s a",
      "▁s ay",
      "e st",
      "i z",
      "p t",
      "t er",
      "▁w r",
      "▁he llo",
      "▁ti me",
      "▁go ing",
      "t a",
      "▁ en",
      "▁m ess",
      "▁the re",
      "ou t",
      "▁l et",
      "▁fr iend",
      "▁wan t",
      "▁sm all",
      "▁phot o",
      "f ied",
      "v ing",
      "▁a w",
      "▁s at",
      "is fied",
      "it e",
      "▁j o",
      "ie ce",
      "▁li ght",
      "▁amaz ing",
      "▁mess age",
      "' s",
      "f in",
      "n ’t",
      "p en",
      "u n",
      "v en",
      "v ice",
      "▁w ay",
      "▁s er",
      "▁m ore",
      "▁b ack",
      "▁p iece",
      "▁d ay",
      "▁re s",
      "▁re ally",
      "ar g",
      "▁de fin",
      "▁i' m",
      "▁sat isfied",
      "a re",
      "▁c ust",
      "as ed",
      "it ely",
      "om er",
      "▁lo ved",
      "▁sh i",
      "▁sh ow",
      "▁em ail",
      "▁ser vice",
      "▁defin itely",
      "▁cust omer",
      "a h",
      "a me",
      "f ul",
      "i ly",
      "l o",
      "o st",
      "▁ r",
      "▁t e",
      "▁s in",
      "ct ed",
      "▁e very",
      "▁ab out",
      "▁sin ce",
      "a k",
      "f ect",
      "i m",
      "i nd",
      "i ch",
      "u y",
      "▁ 7",
      "▁t w",
      "▁w if",
      "re d",
      "▁m em",
      "▁the se",
      "▁f a",
      "▁h is",
      "▁l arg",
      "▁re f",
      "if f",
      "▁we ll",
      "▁an y",
      "▁ne ed",
      "▁im age",
      "▁per fect",
      "au se",
      "▁ar ri",
      "▁wif e",
      "0 0",
      "b e",
      "c ause",
      "l p",
      "s on",
      "▁s pe",
      "▁o pen",
      "▁f ir",
      "or t",
      "▁n ow",
      "▁be cause",
      "▁lo st",
      "▁he art",
      "▁he lp",
      "ion s",
      "ear s",
      "▁fir st",
      "e w",
      "h ing",
      "▁ 9",
      "▁s ome",
      "▁o th",
      "▁b o",
      "▁p as",
      "▁g ot",
      "pp ed",
      "▁ha d",
      "ad e",
      "▁ex pe",
      "▁mem or",
      "▁oth er",
      "m ent",
      "n ing",
      "o p",
      "v id",
      "▁ &",
      "▁ 8",
      "▁s ure",
      "ou s",
      "▁b r",
      "▁c ould",
      "▁g ive",
      "▁g uy",
      "▁on ly",
      "▁do g",
      "▁u s",
      "me nd",
      "ght er",
      "au ghter",
      "res ent",
      "▁purch ase",
      "iz e",
      "▁en g",
      "ah oo",
      "▁arri ved",
      "e l",
      "l i",
      "s o",
      "▁ 4",
      "▁ ke",
      "▁w ere",
      "▁m ay",
      "▁m ade",
      "▁f am",
      "an t",
      "▁c or",
      "▁l ast",
      "▁l ea",
      "▁d iff",
      "▁re t",
      "it t",
      "om mend",
      "▁order ing",
      "▁look ing",
      "▁ex ce",
      "▁2 0",
      "▁ne w",
      "▁rec ommend",
      "▁tw o",
      "▁guy s",
      "▁eng ra",
      "▁fam ily",
      "u nd",
      "u ll",
      "▁ v",
      "▁t urn",
      "▁w ond",
      "re ly",
      "ou ght",
      "▁b y",
      "▁p a",
      "▁p l",
      "▁p os",
      "▁p resent",
      "at h",
      "▁re g",
      "▁g ra",
      "▁n ice",
      "▁an other",
      "▁ad d",
      "▁open ed",
      "▁pas sed",
      "▁wond er",
      "b and",
      "c er",
      "e ver",
      "f ore",
      "i a",
      "i ble",
      "n 't",
      "re ci",
      "▁s uch",
      "▁m om",
      "ou gh",
      "▁p la",
      "▁h us",
      "▁d aughter",
      "on g",
      "ar y",
      "▁e ven",
      "▁wh ich",
      "▁item s",
      "ul t",
      "▁do es",
      "▁u n",
      "▁con ta",
      "▁su ppo",
      "▁app reci",
      "▁since rely",
      "▁ref und",
      "▁lea ve",
      "▁ret urn",
      "▁hus band",
      "2 0",
      "a ch",
      "l f",
      "▁a f",
      "▁w a",
      "▁s p",
      "▁s ize",
      "▁m at",
      "▁m ake",
      "in e",
      "in k",
      "▁b l",
      "▁p re",
      "▁d on",
      "▁re p",
      "▁n um",
      "▁be en",
      "▁be fore",
      "em ber",
      "pp ing",
      "le s",
      "▁of f",
      "▁al so",
      "▁aw ay",
      "▁res p",
      "▁larg er",
      "▁cor re",
      "▁turn ed",
      "▁wonder ful",
      "b s",
      "c ed",
      "f or",
      "i ver",
      "m it",
      "p er",
      "w ard",
      "x t",
      "▁ 6",
      "ed i",
      "ou nt",
      "▁b ri",
      "▁b ir",
      "▁it 's",
      "▁p o",
      "▁c ame",
      "▁y ahoo",
      "▁l e",
      "is h",
      "▁d one",
      "at ion",
      "it ed",
      "▁g i",
      "om et",
      "▁be st",
      "ent ly",
      "le ar",
      "▁recei ve",
      "th day",
      "▁an n",
      "▁per son",
      "▁wr ong",
      "▁jo b",
      "▁shi pping",
      "▁diff ere",
      "▁gra nd",
      "▁add res",
      "▁conta ct",
      "▁num ber",
      "iver s",
      "▁bir thday",
      "c ond",
      "e p",
      "p ad",
      "r is",
      "u e",
      "w er",
      "▁ #",
      "▁ $",
      "▁i pad",
      "▁s on",
      "▁m o",
      "▁m or",
      "▁the n",
      "▁b oth",
      "▁b us",
      "▁p ri",
      "at ed",
      "▁re m",
      "▁for ward",
      "▁or ig",
      "▁in c",
      "ri ed",
      "▁look ed",
      "▁love s",
      "ion al",
      "▁de l",
      "▁how ever",
      "▁hi m",
      "la ce",
      "ci al",
      "▁te ll",
      "▁bo x",
      "▁memor y",
      "ath er",
      "▁reg ard",
      "▁suppo sed",
      "▁af ter",
      "▁rep lace",
      "▁resp on",
      "▁ann ivers",
      "▁mor ning",
      "▁orig in",
      "▁annivers ary",
      "a ve",
      "b l",
      "c c",
      "i le",
      "i es",
      "i ck",
      "m ail",
      "s ible",
      "t e",
      "t ter",
      "▁ “",
      "▁t r",
      "▁t ears",
      "▁th ink",
      "re e",
      "▁s ist",
      "▁s omet",
      "▁p r",
      "▁c ou",
      "▁c lear",
      "▁to wer",
      "as s",
      "▁d ate",
      "at ely",
      "▁re qu",
      "it ing",
      "ll ent",
      "▁be tter",
      "es ome",
      "▁se cond",
      "th ing",
      "▁we bs",
      "▁pi c",
      "▁as k",
      "▁picture s",
      "▁con cer",
      "▁qu ick",
      "▁rec ently",
      "▁send ing",
      "▁purch ased",
      "▁sa id",
      "▁friend s",
      "▁aw esome",
      "▁day s",
      "▁every one",
      "▁fa ce",
      "▁spe cial",
      "▁expe cted",
      "▁exce llent",
      "▁engra ved",
      "ull y",
      "▁pa id",
      "▁pla ced",
      "▁corre ct",
      "▁differe nt",
      "▁origin al",
      "▁sist er",
      "▁somet hing",
      "▁requ est",
      "▁webs ite",
      "8 8",
      "e op",
      "f f",
      "o se",
      "o pe",
      "r iend",
      "u d",
      "▁ 00",
      "▁s c",
      "▁s or",
      "▁m ar",
      "er r",
      "er day",
      "▁the ir",
      "in ess",
      "ou nd",
      "▁b ig",
      "▁it s",
      "▁f in",
      "▁f ew",
      "▁p eop",
      "▁h ope",
      "▁c l",
      "▁c o",
      "▁c u",
      "▁c ried",
      "▁y et",
      "▁y ear",
      "▁y est",
      "▁to p",
      "▁l a",
      "is e",
      "▁d a",
      "▁and ro",
      "▁re ct",
      "▁g r",
      "st and",
      "ar k",
      "▁so on",
      "▁that ’s",
      "id e",
      "id \r\n",
      "▁do ing",
      "▁com e",
      "▁gift s",
      "▁ex p",
      "▁pro vid",
      "▁pro bl",
      "▁ab le",
      "▁ag o",
      "am es",
      "▁1 1",
      "▁at ta",
      "▁3 d",
      "ive red",
      "▁sa w",
      "ak ing",
      "▁expe ct",
      "▁ke ep",
      "▁pos sible",
      "▁appreci ate",
      "▁wa it",
      "▁don ’t",
      "▁addres s",
      "▁bus iness",
      "▁del ivered",
      "▁regard s",
      "▁respon se",
      "▁concer n",
      "▁sor ry",
      "▁peop le",
      "▁yest erday",
      "▁andro id\r\n",
      "▁probl em",
      "▁atta ch",
      "4 3",
      "6 8",
      "9 7",
      "a ble",
      "b mit",
      "c ited",
      "f t",
      "i p",
      "i ent",
      "l ed",
      "m an",
      "m ost",
      "n o",
      "t ing",
      "▁ 0",
      "▁ |",
      "❤ ️",
      "▁a le",
      "▁a ol",
      "▁th ree",
      "▁w ar",
      "▁m other",
      "nd er",
      "in t",
      "▁b lo",
      "▁f e",
      "▁f ather",
      "▁p ut",
      "▁p ack",
      "an ce",
      "▁h ard",
      "▁c ro",
      "▁c ol",
      "▁y es",
      "▁y ears",
      "▁l itt",
      "at ing",
      "▁g ave",
      "on t",
      "▁n ame",
      "ut ure",
      "▁is s",
      "le y",
      "ow n",
      "▁e ar",
      "▁e ach",
      "▁wh y",
      "▁wh ere",
      "▁sh a",
      "▁sh ould",
      "se lf",
      "▁can ’t",
      "▁can 't",
      "ad y",
      "▁ex t",
      "▁ex cited",
      "▁did n't",
      "▁1 0",
      "▁ple ased",
      "ast ic",
      "▁r ot",
      "▁every thing",
      "▁larg e",
      "▁some one",
      "ant astic",
      "▁pre view",
      "for m",
      "edi um",
      "▁gi ving",
      "▁grand m",
      "▁ipad \r\n",
      "▁blo ck",
      "▁litt le",
      "6 3",
      "6 4",
      "; \r\n",
      "a le",
      "b ile",
      "e k",
      "l ud",
      "m y",
      "n er",
      "n ot",
      "p ris",
      "s s",
      "y ond",
      "▁ ri",
      "▁a p",
      "▁th ought",
      "▁w ed",
      "re me",
      "▁s ur",
      "▁m r",
      "▁m ust",
      "▁m one",
      "▁m ist",
      "▁m ich",
      "▁m edium",
      "er \r\n",
      "▁o ver",
      "▁b re",
      "▁f i",
      "▁f o",
      "▁f uture",
      "▁f antastic",
      "▁p are",
      "an g",
      "an s",
      "▁c all",
      "▁to o",
      "is ed",
      "▁d es",
      "▁you \r\n",
      "at ions",
      "en s",
      "▁g l",
      "▁g ir",
      "ot t",
      "▁be ing",
      "▁be yond",
      "pp ort",
      "ow s",
      "▁not hing",
      "ver al",
      "▁so oo",
      "▁se en",
      "▁se veral",
      "▁he ad",
      "th ew",
      "ri ble",
      "▁we ek",
      "▁dis c",
      "▁u nder",
      "ck ed",
      "▁can not",
      "▁k im",
      "▁com \r\n",
      "▁did n’t",
      "▁con t",
      "▁im p",
      "▁im ag",
      "▁st and",
      "▁hi gh",
      "nt s",
      "▁su bmit",
      "▁al most",
      "▁ad v",
      "▁up s",
      "▁wr iting",
      "▁shi pped",
      "▁show s",
      "lo ok",
      "▁te xt",
      "▁memor ies",
      "▁could n’t",
      "▁may be",
      "▁20 20",
      "▁mat thew",
      "▁bl ack",
      "▁po or",
      "▁le ft",
      "▁mo bile",
      "▁pri ce",
      "▁inc lud",
      "▁replace ment",
      "▁cu be",
      "▁col or",
      "▁ext reme",
      "▁sur pris",
      "▁mone y",
      "▁pare nts",
      "▁extreme ly",
      "1 7",
      "1 9",
      "2 2",
      "3 1",
      "4 0",
      "5 9",
      "6 9",
      "8 2",
      "8 9",
      "@ y",
      "a b",
      "a p",
      "a x",
      "a ct",
      "c ome",
      "d ing",
      "e ll",
      "f ully",
      "g e",
      "i al",
      "i ght",
      "i ous",
      "n e",
      "u ly",
      "u al",
      "u ally",
      "w h",
      "y f",
      "y ou",
      "▁ \"",
      "▁ ﻿",
      "▁ ro",
      "▁ ra",
      "▁ ❤️",
      "▁t ry",
      "▁a cc",
      "▁th ing",
      "re n",
      "re ady",
      "▁s ide",
      "▁m er",
      "▁m is",
      "▁m art",
      "▁m ost",
      "▁m aking",
      "▁o pt",
      "ou th",
      "▁b are",
      "▁b ought",
      "▁b ott",
      "▁it self",
      "▁f it",
      "▁f ore",
      "▁p art",
      "▁h or",
      "▁h op",
      "▁c reat",
      "▁c li",
      "▁to t",
      "▁d et",
      "▁d ad",
      "▁d im",
      "▁re d",
      "▁re ad",
      "▁re ach",
      "en n",
      "en ce",
      "it ion",
      "it ive",
      "ll y",
      "ce ss",
      "om ised",
      "ot e",
      "if y",
      "if ic",
      "▁in t",
      "▁e ith",
      "▁wh om",
      "▁not ice",
      "▁j un",
      "▁j ames",
      "▁am ount",
      "▁order s",
      "▁se pt",
      "▁me an",
      "▁k ind",
      "▁as s",
      "▁de li",
      "▁ne xt",
      "▁out look",
      "▁out come",
      "▁st un",
      "▁rec ip",
      "▁3 0",
      "res sed",
      "▁ph one",
      "▁al ready",
      "ry an",
      "▁res ult",
      "▁fa ct",
      "▁ke lly",
      "▁engra ving",
      "▁pos itive",
      "▁present ed",
      "▁does n’t",
      "▁sp ent",
      "les s",
      "▁bri an",
      "▁bri ck",
      "ish ed",
      "▁rem ember",
      "▁after no",
      "▁pic s",
      "▁la w",
      "▁da vid",
      "▁provid e",
      "▁keep s",
      "▁ale x",
      "▁mist ake",
      "▁mich a",
      "▁gl ass",
      "▁under stand",
      "▁imp ressed",
      "▁includ ed",
      "@y ahoo",
      "▁bare ly",
      "▁bott om",
      "▁hop ing",
      "▁det ail",
      "▁dim ens",
      "▁eith er",
      "▁deli very",
      "▁stun ning",
      "▁recip ient",
      "▁afterno on",
      ". .",
      "1 1",
      "2 1",
      "2 5",
      "2 6",
      "3 0",
      "4 1",
      "4 5",
      "5 4",
      "6 7",
      "7 7",
      "> \r\n",
      "@ h",
      "c ific",
      "i ence",
      "j ect",
      "l ie",
      "m edi",
      "n g",
      "n ess",
      "o ph",
      "o ice",
      "p ar",
      "p le",
      "s ing",
      "u es",
      "u nt",
      "w ise",
      "▁ x",
      "▁ >\r\n",
      "▁t re",
      "▁t ra",
      "▁t ake",
      "▁t iff",
      "▁i d",
      "▁a ct",
      "▁w ra",
      "▁w ind",
      "▁s w",
      "▁s et",
      "▁s ad",
      "▁s ite",
      "▁s im",
      "▁m an",
      "▁m on",
      "▁m any",
      "▁f ind",
      "▁p ra",
      "an ie",
      "▁c ond",
      "▁c are",
      "▁c ell",
      "or k",
      "▁l it",
      "▁l ot",
      "▁d ue",
      "▁d ark",
      "▁d anie",
      "at es",
      "▁re al",
      "it ch",
      "▁g re",
      "▁g one",
      "▁n or",
      "ot mail",
      "ar r",
      "▁in form",
      "▁e l",
      "▁j pe",
      "▁fr ont",
      "▁with out",
      "id ay",
      "▁se le",
      "▁se par",
      "▁sh ort",
      "se ph",
      "th ough",
      "ri pt",
      "▁u se",
      "▁u sed",
      "▁u nt",
      "▁ch e",
      "▁ch i",
      "▁ch oo",
      "▁ch ose",
      "▁pro cess",
      "▁de ce",
      "▁wor d",
      "▁ne ver",
      "▁all en",
      "▁1 4",
      "▁im medi",
      "ber ly",
      "▁st ar",
      "▁st ay",
      "▁st ill",
      "▁per man",
      "ic ult",
      "▁i’ ll",
      "▁su pport",
      "▁al though",
      "▁christ oph",
      "▁sm ith",
      "▁purch as",
      "▁phot os",
      "▁5 3",
      "▁no v",
      "ea red",
      "▁app eared",
      "▁sa me",
      "▁say s",
      "▁say ing",
      "▁wr ote",
      "▁en ough",
      "▁jo seph",
      "▁light s",
      "▁shi p",
      "▁show ed",
      "▁r us",
      "▁7 0",
      "▁tw ice",
      "▁spe cific",
      "▁bo yf",
      "▁other wise",
      "▁4 4",
      "▁diff icult",
      "▁exce pt",
      "▁pl an",
      "lf riend",
      "▁po int",
      "▁gi ven",
      "▁$ 1",
      "▁tr uly",
      "▁pr omised",
      "▁cou r",
      "▁fin ally",
      "▁fin ished",
      "▁rect ify",
      "▁expect ing",
      "▁expect ations",
      "▁attach ed",
      "▁pack age",
      "▁iss ue",
      "▁sha pe",
      "▁grandm other",
      "▁ri ght",
      "▁wed ding",
      "▁gir lfriend",
      "▁disc ount",
      "▁kim berly",
      "▁imag es",
      "▁high ly",
      "▁surpris ed",
      "▁mer ry",
      "▁opt ions",
      "▁hor rible",
      "▁tot ally",
      "▁int o",
      "▁jun e",
      "▁sept ember",
      "▁keeps ake",
      "▁micha el",
      "▁dimens ional",
      "@h otmail",
      "▁tiff any",
      "▁act ually",
      "▁wind ows",
      "▁cond ition",
      "▁jpe g",
      "▁unt il",
      "▁immedi ately",
      "▁christoph er",
      "▁boyf riend",
      "/ c",
      "2 8",
      "2 9",
      "2 is",
      "3 9",
      "5 3",
      "5 7",
      "6 0",
      "8 4",
      "8 7",
      "@ g",
      "a f",
      "a ce",
      "b o",
      "b or",
      "b ul",
      "b ri",
      "b ject",
      "c y",
      "c ing",
      "c ent",
      "c ript",
      "d d",
      "d aughter",
      "f e",
      "f ort",
      "g er",
      "h e",
      "h n",
      "h ind",
      "h ap",
      "i b",
      "i re",
      "i am",
      "k en",
      "l t",
      "l ain",
      "n y",
      "n ed",
      "n ce",
      "n ect",
      "o g",
      "o ber",
      "p les",
      "r u",
      "s \r\n",
      "s un",
      "t on",
      "t ment",
      "u z",
      "v in",
      "v is",
      "v ious",
      "w n",
      "y ch",
      "y es",
      "z y",
      "’ ll",
      "▁ ent",
      "▁ ver",
      "▁ err",
      "▁ ryan",
      "▁t ri",
      "▁t am",
      "▁i os",
      "▁a unt",
      "▁th om",
      "▁w ish",
      "▁s us",
      "▁m in",
      "▁m all",
      "er t",
      "er al",
      "er ial",
      "▁o ct",
      "▁o ld",
      "nd ed",
      "in a",
      "in cent",
      "ou r",
      "▁b en",
      "▁b ro",
      "▁b uy",
      "▁f em",
      "▁f ig",
      "▁f uz",
      "▁p s",
      "▁p ay",
      "▁p age",
      "▁p ost",
      "▁h ome",
      "▁c ent",
      "▁c ase",
      "▁c oo",
      "▁c ra",
      "▁c ost",
      "▁c 2is",
      "▁c ert",
      "or d",
      "▁to :",
      "▁to ok",
      "as on",
      "▁l ed",
      "▁l is",
      "▁l ear",
      "▁l ate",
      "▁l ink",
      "at ch",
      "at form",
      "it s",
      "ll ow",
      "▁g on",
      "ce pt",
      "▁n ames",
      "▁be lie",
      "▁be hind",
      "st ru",
      "ct ice",
      "▁lo c",
      "ent s",
      "▁in te",
      "▁e as",
      "▁e ver",
      "▁e yes",
      "▁wh ile",
      "▁not ic",
      "▁j ess",
      "▁fr iday",
      "▁with in",
      "▁that 's",
      "ie ved",
      "ur ing",
      "id s",
      "al k",
      "al th",
      "▁recei pt",
      "et h",
      "▁sh ar",
      "▁he alth",
      "ul ar",
      "ure d",
      "▁will iam",
      "▁we st",
      "▁li nd",
      "▁me l",
      "▁much \r\n",
      "▁k ath",
      "▁k ids",
      "▁ch arg",
      "▁ch oice",
      "▁disappoin tment",
      "▁an s",
      "ag ed",
      "▁ex am",
      "▁ex pen",
      "▁picture d",
      "▁de p",
      "▁de ar",
      "▁de al",
      "ol og",
      "▁2 1",
      "▁wor ld",
      "▁1 2",
      "▁1 5",
      "▁1 lt",
      "▁con s",
      "▁con nect",
      "▁qu est",
      "ber g",
      "▁st e",
      "▁per hap",
      "▁get ting",
      "ic a",
      "▁at t",
      "▁rec ieved",
      "▁product s",
      "▁su ite",
      "ate ful",
      "▁em ot",
      "▁em ily",
      "▁she ’s",
      "um in",
      "▁no se",
      "▁amaz ed",
      "▁ar t",
      "▁app ear",
      "▁sa fe",
      "iz ed",
      "▁wr ite",
      "▁small er",
      "▁jo y",
      "▁jo hn",
      "▁show n",
      "lo y",
      "ak es",
      "▁fa bul",
      "▁ref err",
      "▁spe ak",
      "▁some wh",
      "▁br ad",
      "▁br other",
      "▁br ought",
      "▁us af",
      "▁v is",
      "▁v incent",
      "▁pl atform",
      "▁reg ular",
      "▁pla ce",
      "▁suppo se",
      "▁appreci ated",
      "▁mat erial",
      "▁bl own",
      "▁pre vious",
      "▁don 't",
      "▁corre cted",
      "▁le g",
      "▁grand daughter",
      "▁addres sed",
      "▁son ’s",
      "▁cou ple",
      "▁clear ly",
      "▁tower s",
      "▁ask ed",
      "▁quick ly",
      "▁mar ia",
      "▁da vis",
      "▁rect ang",
      "▁gr ateful",
      "▁exp lain",
      "▁provid ed",
      "▁11 /",
      "▁fe el",
      "▁hard ly",
      "▁iss ues",
      "▁rot ating",
      "▁grandm a",
      "▁bre nd",
      "▁des cript",
      "▁sooo o",
      "▁week s",
      "▁cont in",
      "▁submit ted",
      "▁adv ise",
      "▁ups et",
      "ne y",
      "▁﻿ \r\n",
      "▁try ing",
      "▁mart in",
      "▁alex and",
      "▁tra ck",
      "▁id ea",
      "▁wra pped",
      "▁mon th",
      "▁pra ctice",
      "▁inform ation",
      "▁sele cted",
      "▁choo se",
      "▁purchas ing",
      "▁nov ember",
      "▁ship ment",
      "▁except ional",
      "@g mail",
      "▁err or",
      "▁tam my",
      "▁ios \r\n",
      "▁oct ober",
      "▁fem ale",
      "▁fig ure",
      "▁fuz zy",
      "▁c2is r",
      "▁lear n",
      "▁belie ve",
      "▁inte nded",
      "▁jess ica",
      "▁exam ples",
      "▁quest ions",
      "▁perhap s",
      "▁fabul ous",
      "▁somewh at",
      "▁rectang le",
      "▁descript ion",
      "! !",
      "& t",
      "/ or",
      "/ 20",
      "0 1",
      "0 8",
      "3 3",
      "3 6",
      "4 6",
      "4 68",
      "5 5",
      "5 8",
      "7 6",
      "9 2",
      "9 11",
      "a a",
      "a c",
      "a is",
      "a \r\n",
      "a gh",
      "b r",
      "b ly",
      "b es",
      "b ur",
      "c é",
      "c le",
      "c us",
      "c lear",
      "d y",
      "d ate",
      "e z",
      "e ch",
      "f o",
      "g g",
      "g r",
      "g in",
      "h ley",
      "i k",
      "i er",
      "i ke",
      "j ust",
      "j am",
      "j and",
      "j ia",
      "k in",
      "k et",
      "l s",
      "l or",
      "l ow",
      "l im",
      "l ine",
      "m a",
      "m ed",
      "m on",
      "m ber",
      "m outh",
      "n a",
      "n es",
      "n th",
      "o y",
      "o ing",
      "o sed",
      "o pped",
      "o cked",
      "p g",
      "p ic",
      "p ose",
      "p loy",
      "r ough",
      "r atch",
      "s a",
      "s h",
      "s ay",
      "s ion",
      "s ive",
      "s ide",
      "t y",
      "t own",
      "t ney",
      "u ed",
      "u ce",
      "u ck",
      "u ation",
      "v ent",
      "v ast",
      "w ay",
      "w ith",
      "w ered",
      "w ork",
      "x l",
      "y l",
      "y le",
      "y nth",
      "ا ل",
      "ع ل",
      "ق َ",
      "ْ ر",
      "▁ ت",
      "▁ ”",
      "▁ 👍",
      "▁ view",
      "▁ ال",
      "▁ عل",
      "▁ قَ",
      "▁t er",
      "▁t it",
      "▁t ay",
      "▁t est",
      "▁t ried",
      "▁t ree",
      "▁t ma",
      "▁th ough",
      "▁th rough",
      "▁w on",
      "▁w ent",
      "▁w ow",
      "▁w id",
      "▁w alk",
      "re w",
      "re et",
      "▁s d",
      "▁s ar",
      "▁s id",
      "▁s ir",
      "▁s am",
      "▁s outh",
      "▁m f",
      "▁m h",
      "▁m ent",
      "▁m err",
      "▁m ale",
      "er s",
      "er ally",
      "er ish",
      "▁o cc",
      "▁o pport",
      "▁o bject",
      "▁o wn",
      "nd ay",
      "nd ered",
      "ed ed",
      "in ed",
      "▁b at",
      "▁b ased",
      "▁b ak",
      "▁b ull",
      "▁b ab",
      "▁b ryan",
      "▁it ’ll",
      "▁f ast",
      "▁f el",
      "▁f ull",
      "▁f ine",
      "▁f ully",
      "▁f our",
      "▁p at",
      "▁p it",
      "▁p et",
      "▁p ort",
      "▁p ark",
      "▁p ng",
      "an k",
      "an cé",
      "▁h ar",
      "▁h es",
      "▁h um",
      "▁c as",
      "▁c at",
      "▁c ut",
      "▁c ard",
      "▁c ry",
      "▁c lo",
      "▁c red",
      "▁c ris",
      "▁c ynth",
      "or re",
      "as ure",
      "▁l if",
      "▁l ake",
      "▁l ine",
      "▁l ady",
      "▁l ord",
      "▁l umin",
      "is ite",
      "▁d ied",
      "▁d uring",
      "▁you ng",
      "▁and /or",
      "at ure",
      "▁re st",
      "▁re ality",
      "▁re sol",
      "▁re ndered",
      "en ed",
      "en eral",
      "ll e",
      "ing s",
      "▁my self",
      "▁g u",
      "▁g al",
      "▁g eneral",
      "on y",
      "ce led",
      "om an",
      "▁n one",
      "ot s",
      "▁be ard",
      "em o",
      "em p",
      "em ent",
      "ut er",
      "ve s",
      "ar ity",
      "ar ound",
      "▁or ient",
      "ct ly",
      "ct fully",
      "▁thank you",
      "▁is n’t",
      "▁lo l",
      "ent e",
      "ent ial",
      "▁was n’t",
      "if er",
      "if ied",
      "le te",
      "▁in fo",
      "▁e t",
      "▁e ll",
      "▁e ff",
      "▁e vent",
      "▁wh ite",
      "▁not e",
      "▁not ch",
      "▁ha ving",
      "▁ha ven",
      "▁j im",
      "▁j enn",
      "▁j pg",
      "es \r\n",
      "▁am and",
      "ur t",
      "id er",
      "▁recei ving",
      "▁sh ad",
      "▁sh are",
      "▁he y",
      "▁he ’s",
      "ld s",
      "ld ren",
      "ok ed",
      "th ony",
      "ri a",
      "▁li ve",
      "▁li mit",
      "▁but ton",
      "▁do or",
      "▁me ant",
      "▁me jia",
      "ck ”",
      "▁can celed",
      "▁k rist",
      "▁k ais",
      "▁ch os",
      "▁ch ea",
      "▁ch ance",
      "▁ch erish",
      "▁an thony",
      "ag er",
      "▁gift ing",
      "▁ex qu",
      "▁ex per",
      "▁ex act",
      "▁love ly",
      "▁as ap",
      "▁as hley",
      "▁beaut y",
      "▁de c",
      "▁de vast",
      "▁de lete",
      "ra id",
      "▁beautif ully",
      "pe ctfully",
      "ice :",
      "▁would n't",
      "ir it",
      "▁2 9",
      "▁2 nd",
      "▁2 00",
      "▁wor th",
      "▁ne ar",
      "▁all ows",
      "am aged",
      "▁1 8",
      "▁1 97",
      "▁con f",
      "▁con cept",
      "▁con stru",
      "▁kn ew",
      "▁im g",
      "▁work s",
      "▁work er",
      "▁work ed",
      "▁st reet",
      "▁review s",
      "us ual",
      "▁comp uter",
      "▁produ ce",
      "ic ally",
      "ic les",
      "▁at &t",
      "▁i’ d",
      "▁3 64",
      "res s",
      "▁su per",
      "▁su dd",
      "▁su nday",
      "art phone",
      "art ment",
      "▁send er",
      "▁mail ed",
      "▁pur pose",
      "▁em ploy",
      "▁sm artphone",
      "▁ti m",
      "▁ti p",
      "▁ad am",
      "▁ad just",
      "▁who se",
      "▁who ’s",
      "▁go d",
      "▁5 67",
      "▁5 911",
      "ea k",
      "▁i' ll",
      "▁i' ve",
      "▁ar ound",
      "▁app :",
      "▁app ears",
      "iz es",
      "▁time ly",
      "ta ble",
      "▁let ter",
      "▁want s",
      "▁amazing \r\n"
    ]
  }
}