#version: 0.2
▁ t
▁ a
▁t h
▁ i
e r
▁ s
▁ w
▁th e
▁ b
▁ o
i n
r e
▁ m
n d
▁ f
▁ c
▁ h
o u
a t
i s
o r
▁ p
o n
in g
▁ d
e s
e n
▁t o
e d
▁a nd
▁ l
l l
a s
 

▁i t
▁ g
i t
▁ n
a n
a r
▁o f
▁i n
▁ re
▁th is
▁i s
o t
i c
▁ e
o o
l e
v e
o m
u t
u s
▁ 

▁o n
▁ y
▁b e
v er
a d
a l
l y
▁f or
▁w h
▁y ou
c t
▁s t
e t
o w
oo k
g h
i on
▁th at
l d
c h
▁w as
a y
en t
▁n ot
▁h a
s t
r o
it h
i d
t er
▁w ith
m e
k e
▁b ook
▁a n
▁b ut
c e
a ll
▁m o
r i
t h
' s
▁ u
▁m y
s e
▁l i
r a
' t
▁ j
▁ha ve
▁s h
▁a s
u r
c k
i e
▁c h
i r
ou ld
er e
▁s e
gh t
▁a re
▁a l
▁h e
▁s o
ver y
▁w or
▁w e
us t
i ll
▁d o
p p
b le
▁p ro
▁e x
▁n e
▁ "
▁on e
i l
all y
re at
es t
oo d
u l
▁c om
▁ k
▁ us
er s
▁a ll
▁d e
▁ r
▁m e
▁a t
u m
▁o r
p e
▁g reat
on e
ou t
is t
▁re ad
g e
▁f r
▁i f
v ie
▁s u
i m
om e
▁the y
▁a b
▁ very
an t
q u
es s
▁l o
▁g ood
▁m a
▁li ke
▁p l
a m
u n
▁ v
▁c an
on g
▁o ut
▁j ust
▁c on
▁c o
▁fr om
▁a m
▁n o
▁w ould
n 't
▁g et
ou nd
ic e
a in
at ion
as t
i ve
a ck
ar d
e m
▁wor k
ar t
i f
e l
▁ab out
▁t i
▁u p
▁wh at
▁an y
▁u n
a me
▁h as
▁b u
ou gh
▁d is
▁p o
in d
▁t r
at e
▁i '
▁w ill
v en
e ar
i es
▁s ome
▁mo re
u re
▁h ad
p le
a nd
h er
▁th ere
a p
▁re c
▁ en
▁wh en
▁you r
▁ qu
▁ 1
u ct
▁ti me
▁it 's
▁b y
▁g o
on 't
i g
or t
in t
▁wh o
▁f e
o l
e ct
a ct
▁d id
ou ght
▁o th
▁on ly
it y
▁th an
a ble
▁h ow
it t
it e
▁m an
▁mo vie
ou s
in e
▁h is
▁pro d
▁p re
o re
a re
▁l e
▁bu y
▁w r
or y
▁re ally
▁d on't
▁c l
▁a d
▁the m
▁do es
▁a f
▁h er
▁be c
p l
▁we ll
a k
▁ 2
▁p r
▁m u
▁to o
▁oth er
a g
p t
▁k n
i ght
in k
us e
▁prod uct
ic h
▁t e
▁o ver
▁s c
▁f ir
▁in t
▁e ven
id e
▁be t
ic k
▁l ook
▁mu ch
▁fir st
m ent
a use
▁a r
nd er
▁the se
▁af ter
a b
h ing
s s
▁lo ve
▁a g
▁c ould
f ul
vie w
o y
▁e very
▁y ear
▁us e
▁sh e
v ed
s o
▁bec ause
a ge
t e
▁w ant
u d
is h
▁c d
▁w ere
f f
as e
▁s a
▁f a
ay s
n t
i re
ow n
▁i m
▁of f
▁al b
▁b est
▁be en
e p
▁p er
▁t w
▁ch ar
▁wh ich
▁b l
▁a ct
at ch
▁alb um
▁h o
ou r
▁bet ter
u e
▁th ink
▁s p
as s
a z
▁b ack
▁ne w
v es
▁the ir
▁m us
p er
ur n
pp o
ad e
▁s ong
▁al so
▁pl ay
▁st ory
▁kn ow
r y
▁mus ic
a ch
▁b ought
▁s er
▁com p
me nd
▁in ter
ion s
i z
ot her
c i
▁th ing
▁the n
▁p e
▁w ay
▁p ur
▁n ow
▁rec om
▁a w
▁ ro
itt le
▁re view
▁recom mend
▁mo st
▁ ke
one y
▁g u
▁l ittle
f er
ve l
▁f l
▁th r
▁ne ed
or m
▁g ot
▁d es
l f
▁se e
v ing
▁i' m
▁ 3
i le
▁man y
▁m oney
▁s ound
▁o ld
an s
▁con t
i p
▁int o
d er
▁f un
i gh
al ity
▁e as
ic t
o d
▁am az
▁b ad
u ll
▁ma ke
▁ne ver
▁sh ould
at ed
i ous
en ce
▁f il
ppo int
o se
▁it s
▁dis a
as ed
▁f ind
▁pur ch
▁tw o
▁in st
en s
▁st ill
▁s pe
a ce
ul t
▁e nd
▁disa ppoint
0 0
o g
ver s
▁d if
▁ ri
p h
o s
▁p art
▁e ver
f e
ic al
an ce
▁m ade
▁char act
g in
om et
pe ct
t ing
▁pe o
c c
▁t ra
re e
▁peo ple
▁d v
▁w atch
▁ag ain
▁book s
▁b r
▁ma k
▁h igh
ut h
ar y
or d
▁dv d
at er
▁s ay
▁ex ce
▁thr ough
w n
▁g r
▁s m
ar s
▁t a
j oy
▁p ut
▁s omet
▁ch e
▁d own
▁year s
▁l ong
▁en joy
f orm
▁a pp
▁l ist
▁p h
▁ ra
▁i' ve
▁s et
c o
▁t ri
▁ 5
▁m on
i ld
▁wor th
se lf
▁qu ality
▁h ard
▁g ame
▁se em
b er
▁re al
▁l ot
▁us ed
▁m ay
▁sh ow
o p
▁did n't
▁fil m
th ing
ot h
▁f ound
▁b o
f ore
▁read ing
e ver
f t
▁in c
an g
▁u nder
▁an other
▁j o
a c
▁s l
▁s ame
▁tr y
▁he l
i ly
ble m
▁th ought
▁s im
▁pro blem
u ally
▁a uth
▁li fe
▁inter est
is e
▁be fore
▁st art
im es
▁you '
▁f o
▁ha pp
or s
l es
it ion
i al
▁hel p
t y
▁wh ile
▁ 4
▁fe w
▁fe el
u b
m o
▁can 't
▁song s
er t
▁c le
▁f in
l ess
▁im p
a u
ar k
as on
▁pr ice
n ing
at ter
▁w o
a il
it ing
▁o wn
▁l ast
▁somet hing
▁does n't
e nd
x t
▁o ur
▁re s
▁or der
at ing
▁dif fer
ic s
▁eas y
f ect
re ss
▁s in
▁be l
▁re t
ation s
▁in s
▁n ice
▁ke ep
oo l
▁work s
c es
▁amaz on
▁ha nd
k s
d e
▁c ou
▁m in
u al
▁wo nder
l i
▁ri ght
w e
▁b ig
▁ ent
g et
b e
▁exce ll
▁m ust
▁how ever
re d
▁list en
▁g ive
▁ ed
▁th ose
▁o p
▁wh y
i ble
▁excell ent
▁go ing
▁be ing
▁auth or
▁look ing
▁ex pect
▁sin ce
ut e
▁h im
▁mon th
▁c ar
▁wh ere
▁h ere
ig n
▁p ers
▁st r
g g
▁d ay
▁charact ers
a ve
▁g i
▁was te
▁m is
p s
▁e l
▁w ar
▁en ough
▁de f
▁not hing
▁g l
a v
▁ vers
▁st u
▁com ple
▁ad d
ent s
▁f ar
i an
▁ch ild
▁f an
▁any one
▁po or
at h
▁differ ent
▁disappoint ed
▁t imes
▁at t
▁co ll
i o
▁t er
▁ser ies
▁cl ass
▁mak es
i x
ri end
▁e m
itt en
▁ta ke
▁de c
▁th ough
▁ret urn
▁with out
▁g ra
▁su ch
▁ex t
▁s ing
ck s
▁o ri
▁sm all
ri ble
ure s
au gh
▁wr itten
▁t urn
▁ &
▁fa v
ow er
▁ch r
▁b it
i a
i v
▁re ce
▁ $
▁a cc
re n
▁h or
st and
▁ '
w h
as h
▁per fect
▁w a
▁su re
▁t ak
▁pre t
▁pers on
▁c r
▁p le
▁it em
re ad
▁e ar
at her
ing s
▁b oth
▁ori gin
▁purch ased
▁v o
n y
ate ly
e ad
▁s ur
▁ar ound
n e
▁p ict
▁def in
▁re l
w ays
▁g en
v ice
c ri
▁l et
▁bel ie
y s
▁review s
iz e
▁f riend
▁fav or
on t
ab ly
▁pret ty
pp ed
▁com e
▁su b
ert ain
▁s k
▁t al
▁b or
▁con s
▁us ing
▁in form
▁l ess
▁k id
▁k ind
an ge
▁ es
▁li ght
▁c all
▁we e
▁re m
ag es
▁f act
▁act ually
▁rec ord
▁aw ay
▁wor ld
co nd
▁thing s
a ut
f ort
▁b and
it s
▁interest ing
▁v ide
▁comple te
▁po int
▁f am
▁al ways
▁i nd
on s
▁p ie
at ive
▁vers ion
▁chr ist
▁l ear
▁se cond
ast ic
▁re pl
▁e ach
k ed
c ed
▁ar t
▁he ad
▁s y
ll ow
▁dis c
▁c ra
▁h ist
▁any thing
al s
mo st
▁ 6
▁b ra
ot t
▁st ars
▁te ll
▁c ame
▁st ar
▁to p
en se
▁c are
▁rece i
ul ar
▁lo ved
▁s on
▁i de
▁ex per
▁wonder ful
i ence
▁co ver
▁che ap
▁seem s
▁tri ed
▁be aut
▁al most
▁no vel
▁under stand
▁d ri
▁co l
▁c am
▁a v
▁d ra
▁t y
ct ion
l ud
▁origin al
▁d et
ect ion
▁f ull
▁p ack
i b
p r
▁b ro
▁wor d
▁month s
▁pl ot
d ay
g er
▁qu ite
▁o b
▁e ff
▁e v
pt ion
▁ z
pp ing
▁b atter
▁y et
▁des cri
▁sa id
▁h um
▁re le
▁bo x
▁on ce
▁ab s
ou nt
▁b as
▁o k
▁wr iting
▁vide o
▁re g
▁re ason
▁d one
w ard
▁re p
▁high ly
▁purch ase
▁se ver
ou se
m an
n er
▁sh ort
▁inc lud
▁ex p
oo m
er ic
▁op en
as ter
w are
▁get ting
v ious
▁r un
▁m et
▁mis s
▁el se
▁ho ld
▁st and
▁st ud
▁ne xt
▁se en
▁p ower
o ck
▁1 9
▁s ch
▁inst ead
▁st y
it ch
▁d i
f ic
l ed
▁ha ving
th e
▁who le
▁inform ation
▁bor ing
▁every thing
▁su pp
▁d r
or ies
▁sc re
▁m ight
ra ct
▁p a
▁pro b
▁wor st
▁f ine
▁un t
▁be gin
▁you' re
▁beaut if
▁want ed
▁1 0
j ect
it ed
▁s w
▁favor ite
▁c or
▁qu ick
▁d ays
▁belie ve
▁sever al
e e
▁ 8
k ing
▁so l
▁charact er
▁th ree
▁may be
▁h ome
▁w ish
u es
▁f it
▁li ve
▁ho pe
▁pre s
▁ 9
▁tr ue
▁h our
▁try ing
▁b re
▁wr ong
▁a c
▁ex pl
▁mo v
▁recei ved
▁buy ing
▁that 's
▁h al
m er
▁jo b
ci al
at es
▁m ar
▁c reat
▁prob ably
ic ally
ent ion
▁mov ies
▁re f
▁is n't
▁he ard
▁work ed
▁defin ite
▁w om
▁w ater
it er
▁he ar
▁lear n
▁le ast
ter s
▁co p
if t
▁ex c
un k
▁some one
▁a ble
▁oth ers
▁to t
at ure
ci ally
▁amaz ing
▁ro ck
▁unt il
us h
▁sc en
▁cle ar
▁su per
ith er
▁w on't
is ed
i er
▁se ll
▁to get
ut es
▁could n't
▁toget her
▁fo llow
▁p ick
▁stu ff
▁order ed
am es
b o
▁en g
▁ag o
▁happ y
▁definite ly
s h
er a
▁per form
▁d ire
▁kid s
ar ch
a w
n ess
▁c ut
▁es pe
▁c ase
read y
▁g ir
▁al th
r uct
▁ 7
▁fam ily
▁hal f
▁too k
▁am eric
▁abs ol
▁cle an
t en
▁al ready
od y
▁te ch
▁espe cially
▁alth ough
▁des ign
▁pl ace
▁look s
▁fun ny
st er
▁w ent
▁con c
▁re st
▁repl ace
▁m ind
▁st e
id er
g r
ull y
▁ex am
id es
▁pict ure
l ish
▁enjoy ed
▁in v
▁pie ce
▁e le
▁start ed
▁min utes
s 

▁t it
u g
u ck
re t
▁hist ory
▁l ar
▁g ift
▁absol ute
▁happ en
n ot
▁pro v
ra m
▁beautif ul
ur ing
ri ll
▁coll ection
▁sa w
▁g ave
▁c ap
augh ter
▁was n't
▁l ine
▁sty le
▁le ft
▁tr ans
▁child ren
▁v al
▁com es
b s
▁li ked
▁n ight
▁un it
we en
▁p ages
▁get s
n g
▁e t
id ed
c y
▁st ore
ens ive
▁co st
▁comp an
▁for m
▁n um
▁problem s
▁fin ish
▁s ize
▁bet ween
a h
in es
a ke
▁work ing
ow s
▁s ide
ment s
u p
m as
▁i' d
▁ view
▁ter rible
▁gir l
▁b ott
▁pro g
▁so ft
▁b ab
ot e
es ome
▁det ail
▁every one
▁is s
▁ma g
▁mak ing
▁my self
et s
▁h u
▁ad v
ent ly
▁p ain
▁p ay
e ll
▁con f
re me
▁f all
ir d
▁b oy
p ly
▁aw esome
▁bl ack
▁go d
▁r ather
▁m ark
at s
▁class ic
▁vo ice
▁e ither
▁sa ve
▁over all
iz ed
ol og
▁ho p
▁me m
▁m ed
▁de p
on es
▁f ant
▁sh i
▁t v
▁sim ply
in s
▁supp ort
▁f ree
▁2 00
c ess
▁po p
l ing
i ed
▁cou ple
l ic
▁f ast
▁he art
▁hor rible
▁mo d
are nt
▁se ason
fic ult
▁et c
▁p ast
▁p ass
▁dif ficult
u c
▁ma in
▁c ard
▁ph ot
▁dire ct
▁com m
ce pt
▁de al
▁me an
▁inst all
l ine
ust r
▁f re
an k
▁c our
▁p ub
▁st ories
▁l ow
el t
▁c ook
ing 

▁ide a
▁d aughter
▁do g
▁sur pr
▁you' ll
▁che ck
▁p age
▁ple ase
▁st ra
if e
e w
st em
▁comp ut
▁ext reme
▁m ess
▁tak es
▁christ mas
▁complete ly
▁cou nt
▁2 0
▁l ack
are d
▁pl astic
▁expect ed
▁g ar
▁e p
▁st ay
▁sch ool
ire d
▁sound s
▁sh o
is m
▁play er
▁cam era
▁gu ess
t s
il ity
▁m ater
▁ent ertain
▁sy stem
▁c ool
▁sim ple
▁al ong
▁in f
ist s
▁bre ak
▁fin ally
▁com pl
▁ph one
▁s ent
wh ere
▁gen er
▁cop y
▁tech n
▁h ouse
a ir
▁batter y
▁ x
u ly
▁l y
▁mater ial
fort un
▁" the
▁st ick
b r
▁an n
▁str ong
▁absolute ly
▁ch ap
▁ser vice
▁tra ck
um p
ap er
▁you ng
▁read er
ion al
▁watch ing
re am
t on
▁s n
▁te xt
▁b ar
f ully
▁un fortun
▁pl an
▁wa it
▁need ed
▁col or
ra ph
▁te ach
▁g re
▁cons ider
▁lo ves
▁ent ire
▁con n
ust om
▁f ans
▁eas ily
▁s ad
▁c ertain
▁ er
▁exper ience
▁ar ri
s ed
w ay
▁s ou
ro ss
it ive
▁eff ect
▁spe ak
▁go es
t ed
▁would n't
▁ma ch
▁can not
ain s
▁i r
if ic
▁s at
▁cont ro
d d
▁fa il
▁compan y
▁ch o
▁play ing
▁a p
▁sl ow
▁y es
▁show s
▁w al
▁hour s
r ic
i qu
m ed
▁a ud
▁c ustom
▁st op
▁to y
▁re d
▁ch ang
▁le vel
▁bra nd
▁p ort
▁m om
▁lo st
r or
m ber
▁bab y
g an
▁qu est
▁f elt
▁friend s
▁need s
▁tr uly
▁w ind
▁" s
▁act ion
▁su ppo
▁pr int
▁on es
▁d ist
▁wee k
▁i' ll
▁tit le
▁m r
▁word s
▁prog ram
▁ex act
z z
at t
▁r om
▁ser ious
▁e y
▁t ast
▁h ar
▁call ed
▁to day
▁he av
▁comput er
▁b ag
▁p ri
▁n ame
▁h ot
▁extreme ly
▁do ing
re s
▁think ing
▁cour se
▁c ur
ou ch
▁recommend ed
u me
▁m ix
▁wee ks
l o
vel op
▁p ot
l ight
▁spe nd
▁pres ent
h n
▁s ays
s y
gg est
▁v ol
▁d uring
▁f ig
▁su ggest
▁it self
in ess
▁m id
▁cont in
▁s it
▁gi ven
▁pro f
a le
▁l augh
▁imp ort
c al
▁your self
▁co ff
▁they '
u nd
n a
▁con st
▁f our
▁wr ite
i en
ict ion
▁there 's
▁po ss
o nd
▁n on
▁inst ruct
▁p ar
▁as s
▁co nd
▁ha ir
▁l ater
▁unfortun ately
il ar
▁gi ves
ist ic
▁cl ose
▁d ont
el ess
▁f ill
▁st ep
ap s
▁ ve
▁ty pe
▁k ill
▁re fer
▁c ent
▁p ract
b ook
h ip
b and
▁ne ar
▁d ou
▁r oom
▁de velop
▁r ad
▁av ail
ne y
▁s ense
▁pre vious
▁st o
og raph
▁a ir
▁play ed
▁tra cks
▁b us
▁pict ures
o int
▁lar ge
▁imp ress
▁v is
▁part s
▁long er
▁re me
▁m aster
▁jo hn
▁scre en
▁i ll
k es
ver t
▁s le
▁b i
▁po s
i ent
▁v ar
▁re qu
▁americ an
▁s or
▁mod el
ro d
ou d
▁tot ally
▁se x
▁to ol
▁ch ange
ot s
ic es
▁part ic
▁m or
s on
▁spe cial
▁re se
▁of ten
▁m atter
▁se lf
▁pr om
▁le ad
▁b ased
0 's
▁gu y
▁with in
▁book 

▁to ld
▁sing le
i me
▁pr in
▁quick ly
▁coff ee
▁gu it
▁de li
▁mo ve
m ing
▁bro ke
▁rele ase
▁p aper
▁mach ine
re ct
▁op in
▁h us
▁d ark
▁reme mber
ri ght
an e
▁" b
▁t est
i et
▁act ing
em pt
ter n
▁im ag
▁be h
▁j unk
it es
▁t ouch
▁hu ge
▁d u
▁than k
▁listen ing
▁met al
▁ly r
▁avail able
▁ha ven
▁album s
u gg
▁h on
▁wh ite
ant ly
▁shi pping
▁hus band
▁ty p
▁aw ful
▁end ing
▁m en
is s
or k
▁m ot
▁fa ir
▁res ult
ac ed
▁" h
en g
▁seem ed
▁ob vious
m a
▁lot s
▁haven 't
▁gl ad
▁ext ra
am p
um ent
▁po l
is od
▁ke pt
k en
▁un less
▁arri ved
▁g ames
▁somet imes
▁dec ided
▁ep isod
ut ion
ic ed
▁use ful
p id
▁heav y
it ies
▁a ge
▁r id
▁interest ed
n ed
▁wom en
▁sor ry
m m
▁disappoint ment
▁" c
▁m ention
▁com fort
b ed
▁look ed
▁f ood
l and
▁s we
▁so on
in ed
▁product s
▁se nd
▁ :
m s
▁fig ure
▁de ep
▁1 2
▁se c
▁b all
▁gu ide
▁d ig
▁replace ment
at ic
▁tal ent
m b
▁fant astic
▁w in
▁sub ject
▁s ign
▁gra nd
▁exact ly
▁pl us
ore d
▁num ber
▁fe at
n o
▁ins ide
▁gr ou
▁partic ular
▁do ll
▁i d
▁ann oy
▁custom er
▁ed ition
▁compl ain
▁inc red
▁h it
as ing
▁l a
▁guit ar
pl ay
▁contro l
▁rese arch
is f
▁s us
▁return ed
pl es
▁scen es
ar r
▁for ward
▁wom an
j or
un ch
▁val ue
▁disappoint ing
▁soft ware
▁p ull
▁p an
▁poor ly
▁opin ion
▁add ition
▁ke y
▁f ive
▁suppo sed
▁t re
▁m ine
▁" m
it al
▁app ear
▁we ar
▁rad io
l er
▁o h
o id
ll y
▁att empt
▁s me
▁3 0
an ces
▁ear ly
us ed
▁de ad
▁be at
olog y
ul ous
▁lyr ics
▁s um
▁ad vert
▁app ro
▁dis s
at or
▁exp ensive
▁begin ning
us s
▁m ist
h aps
▁1 5
d le
▁sm o
▁w ife
▁ele ct
▁me l
c ing
g ed
▁help ful
▁happen ed
▁per haps
▁p arent
oo se
pp y
e x
um b
ation al
d y
▁ma jor
▁conn ect
▁my ster
▁pr ot
▁gu ys
iqu e
▁$ 1
ll ing
▁ad m
pp er
▁l ang
▁stu pid
▁c ast
▁l iter
▁wor se
or n
▁we ak
▁f ore
▁bott om
▁he 's
▁b urn
▁ins p
▁h ate
▁n or
▁pre ss
▁exce pt
b ody
is ing
y ing
▁import ant
▁c al
c om
▁than ks
▁cor rect
s w
▁certain ly
▁re mo
▁batter ies
▁" f
el s
▁" d
th er
i or
▁t un
ow ing
▁an im
▁m il
▁perform ance
▁eff ort
▁int rod
▁hand s
▁person al
▁bec ome
▁turn ed
▁j ack
as es
b b
▁entertain ing
se l
▁hum or
in y
▁h ol
▁tak ing
▁d ry
▁l uck
▁bus iness
▁le a
▁g e
▁fa ce
▁lang u
r ay
▁ag ree
▁d am
▁cap t
▁m ic
▁descri ption
▁h y
▁gra ph
▁set ting
ap oint
le y
▁mark et
s ide
▁miss ing
* *
▁c able
t ra
▁bas ic
w ise
▁pa id
er ed
m on
o ss
▁pie ces
itt ing
▁we ight
▁sto pped
▁hon est
▁us ually
▁s am
▁us eless
▁imp ro
▁sle ep
▁l ab
▁d ro
▁dec ent
▁they' re
ag ed
ri b
▁feat ures
g y
▁ap art
▁iss ues
▁sme ll
▁f ut
▁ins ight
▁em ot
i ans
n et
▁com ing
▁exam ple
▁sp ent
▁c a
ag ing
▁n orm
bo ard
▁stand ard
▁eng lish
▁count ry
▁an sw
c le
▁record ing
▁gar b
▁dis co
▁bu ild
▁b le
▁chap ter
▁t reat
▁c u
▁grou p
▁m other
▁c at
▁sell er
▁watch ed
wh at
ent ial
▁kn ew
us ing
in ing
▁d ue
▁her o
e f
in ation
ib ly
▁po st
▁hist or
▁sp ir
▁se arch
▁it 

a im
in a
▁w ire
re nt
▁sh a
▁res p
▁b ed
▁annoy ing
▁bro ken
k y
▁hum an
▁r ich
▁b other
re w
▁wr iter
ip s
▁fr ont
▁prof ess
▁dri ve
▁spe c
▁tra vel
▁garb age
▁tr ou
er ing
▁tot al
▁ide as
▁le ave
▁sh ar
▁con cept
▁ta pe
▁sp ace
▁d ial
▁aud io
▁sim ilar
▁sat isf
▁1 00
▁tast e
▁other wise
▁p et
▁w all
▁langu age
▁pro per
▁sol id
▁p u
cc ess
▁old er
▁de v
g n
al th
j ust
▁vol ume
▁includ ed
▁le g
▁th ird
er 

▁de ath
▁av oid
▁cond ition
▁li br
▁c ute
▁c art
▁any way
re ci
▁w ood
le ct
▁l oud
r ant
i ves
en ces
▁e qu
▁s al
med i
▁b en
▁dra w
▁mo der
▁d a
▁hand le
▁an t
▁great est
▁fo ot
▁f iction
r on
an n
▁sw itch
▁ple ased
▁scen e
▁kn own
▁h ook
▁g one
ur al
▁o cc
▁keep s
is es
▁com b
as ure
▁f ix
is ter
▁o per
▁s ort
ad ing
ir t
▁pro cess
▁hop ing
▁want s
a x
▁v ac
▁we '
▁again st
▁gi ving
▁am ount
ie ld
▁f ra
▁f ire
gr ound
▁" t
u ced
▁expl ain
▁fut ure
▁stra ight
▁fl o
▁bl ue
▁us es
▁" p
▁iss ue
▁b ody
▁rele ased
ap t
▁tw ice
▁ro ll
▁auth ors
z y
m ore
▁do c
▁comfort able
▁p at
sel ves
▁v i
▁1 /
▁app reci
b ack
▁r ating
▁s ens
▁ad ult
▁film s
▁instruct ions
▁feel ing
▁m ult
▁n one
▁br ing
▁c ult
▁ne g
▁tak en
▁beh ind
▁enjoy able
le t
▁rec ently
▁fe ature
▁fo c
▁wa iting
▁ ess
ill y
▁cl os
▁g ri
▁d an
▁libr ary
m y
▁mid dle
g es
er c
▁a ut
▁li m
u f
▁ad vice
▁lo cal
▁fr ustr
h e
▁su ccess
▁see ing
▁ 0
ip es
▁ok ay
▁com ed
li ke
▁d ream
▁att ention
▁on line
i od
▁r ay
▁en c
▁li ves
▁cont act
ak ing
▁ti ght
our ce
▁m ount
ri ed
▁p en
▁sou l
▁ 00
▁5 0
▁m s
▁tr ash
▁th in
▁b rill
is on
ac es
▁reg ular
u ce
▁for get
id ent
▁pack age
▁ref und
▁th rill
▁say ing
▁includ ing
er o
▁t em
▁" g
▁n et
▁al one
▁be ware
▁are n't
▁surpr ised
▁ [
▁r u
▁cra p
it or
▁tr uth
▁per iod
h o
ed 

▁run ning
s et
▁be y
ograph y
▁w ow
▁perfect ly
▁k ing
▁end ed
v is
▁so ld
▁adv ent
▁vo c
ur ate
et her
▁work out
▁scre w
▁dou b
▁rel ations
▁re nt
▁se qu
b ers
▁c atch
▁y e
▁cont ent
▁act ual
▁not e
ver ed
▁sc r
er y
▁finish ed
▁review ers
▁fl at
▁pol it
▁r ub
▁exper ien
▁christ ian
ur y
▁m atch
▁product ion
es e
▁sl ight
▁cur rent
▁refer ence
▁t en
▁brill i
t o
▁des er
ud e
▁c red
▁moder n
s "
▁or gan
▁c ord
▁lear ning
▁r ate
▁b ase
▁sh ame
v in
pt ions
▁money 

b y
▁de vice
▁im medi
▁exc ited
▁read ers
▁wr ote
as c
uf act
▁s qu
▁clear ly
w ork
z e
▁through out
▁him self
▁p ad
▁f ight
ak es
▁ch ance
▁cl aim
▁i p
▁ill ustr
5 0
1 0
▁fe ll
▁swe et
c on
▁spir it
a 's
▁cont ain
un g
▁d ate
il t
▁bey ond
▁char ge
▁cr it
▁li ving
▁t able
▁ey es
▁b are
oo oo
v able
i um
ou n
▁coll ect
s c
▁att ach
▁j our
▁are a
▁al ot
▁m ur
▁des p
▁war rant
▁cho ice
▁man ufact
er 's
▁re pe
ent y
as y
▁pro ject
te nd
▁gener al
▁tri p
o ve
▁me ans
▁no ise
▁ma c
o c
▁expect ing
▁pre d
w ood
▁n arr
▁s il
▁bl u
▁sk in
r ing
▁relations hip
▁fl aw
▁he ll
▁myster y
▁tal k
▁poss ible
▁mo ving
▁most ly
▁bas ically
▁m ill
m in
▁chang ed
▁an g
▁ac ross
r ow
▁quest ions
▁obvious ly
p ar
▁m i
▁b ible
▁inv est
▁un ique
▁we b
▁d ance
▁f ur
▁phot os
▁gl ass
▁f ab
▁dial og
▁tr ad
▁u l
▁de fect
▁m ich
et h
▁te en
▁know s
▁parent s
▁pa ir
▁trou ble
▁ph il
▁ad just
▁l aw
▁dep th
▁music al
▁dig ital
ure d
▁them selves
▁fun ction
▁near ly
uct ion
et ic
▁back ground
oo f
▁se at
on y
▁l ate
▁c ry
iv id
em ent
▁pub lish
▁int ell
g ing
▁graph ics
▁sing ing
▁pur p
▁product 

g u
it ions
▁rom ance
▁ ver
ph ones
▁act ors
▁car ry
▁inv ol
▁all ow
▁rem ind
ant s
▁imp oss
▁mess age
▁up d
ill s
ad es
d ing
▁hor ror
▁mult i
▁m ad
▁kind le
▁ est
lo ad
az z
▁sound tra
b ing
▁n at
▁art ist
▁differ ence
▁pl ays
▁some what
er ous
▁rec ipes
ver age
▁app e
h ead
▁com ment
▁tal king
▁qu e
▁shar p
▁de l
0 s
▁fil ter
▁gre en
▁stu ck
ic ulous
▁son y
▁immedi ately
▁go ld
▁effect s
▁acc ess
▁ch all
▁ex erc
▁quest ion
▁d av
▁incred ible
▁he alth
▁th er
ir th
▁put ting
▁learn ed
led ge
▁s ix
▁purch asing
▁detail s
▁histor ical
▁pick ed
▁impress ed
▁co vers
▁insp ir
▁st ri
▁comp ared
▁you' ve
▁imposs ible
or ge
▁l ay
b el
▁sus p
▁f its
▁st ur
r id
▁p ure
▁doc ument
▁1 8
▁wh e
▁up on
▁power ful
il i
▁we bs
▁sc ience
▁girl s
ome nd
pe nd
▁doub t
▁spe ed
▁d est
ck et
▁wind ows
▁exam ples
▁s and
▁warrant y
▁h ur
▁g un
▁c ir
▁r ange
▁f ather
▁c up
▁ev ent
▁conc ert
▁sc ri
is hing
▁band s
▁she 's
▁feel s
▁bec om
▁$ 2
▁b al
▁th or
▁to m
▁chap ters
▁serious ly
▁li kes
an ced
▁su ff
▁diss apoint
▁reg ard
▁cont ains
▁fe et
▁vi ol
▁man ual
▁" w
▁coll e
▁b ri
▁du ra
▁advert ised
▁ma il
i k
▁fill ed
▁in ch
▁j e
▁pos itive
▁19 9
▁out side
▁st re
▁acc ount
▁smo oth
l us
▁h its
▁lo s
▁war m
et y
▁l ad
▁item s
▁co ld
▁d ull
▁fre sh
li er
▁su n
▁novel s
▁do or
▁comed y
▁k itch
ren ch
▁start s
▁p c
▁prin ter
▁rel ig
▁turn s
▁ ut
p or
▁h ang
n ers
am s
▁soundtra ck
▁scri pt
▁was h
▁p sy
▁episod es
▁su ck
▁but ton
▁f ol
▁pl ain
▁le ak
▁a verage
▁brilli ant
▁f em
▁wh ether
▁ip od
▁l at
▁d ie
▁any more
▁neg ative
▁" l
▁ear th
▁w ays
▁pre fer
▁pl ug
▁cd s
▁b irth
▁f asc
ri es
▁listen ed
▁pub lic
▁voc als
l s
▁ab ove
▁wal k
▁form at
▁c ause
▁eas ier
▁app arent
▁ed uc
▁kitch en
▁di ed
b all
▁mist ake
▁t im
▁stud y
▁prov ides
▁sit u
▁ra re
▁result s
▁scr atch
▁open ed
▁ey e
ic a
ink s
▁psy ch
▁bec ame
▁rem ote
▁fl ash
▁understand ing
▁pred ict
▁desp ite
▁help ed
▁sk ip
▁su cks
▁know ledge
ie ce
▁acc urate
▁se ction
▁var ious
▁comm on
▁fail ed
▁rid iculous
▁lo g
▁bare ly
▁stud ents
▁tell s
▁mic ro
e c
r oom
▁what 's
▁re ach
▁de b
▁s ite
▁review er
▁l ines
▁ *
am ed
t a
▁m ouse
▁m c
▁b ass
▁was ted
▁b att
▁un like
▁point s
▁stur dy
▁br it
▁sp o
▁fr ank
▁tr ust
▁lo ad
▁g er
▁thor ough
▁fair ly
▁min ute
▁lea ves
▁br ought
▁foc us
▁b ul
▁mean ing
▁as k
▁ind e
▁imag ine
▁descri bed
▁real ize
▁1 1
▁requ ire
▁p ath
ward s
▁l and
r ors
in ating
▁episod e
▁p s
▁" i
▁gr ound
f ace
▁mem ory
▁bott le
▁j azz
u ed
▁b ill
▁bl ood
▁m art
▁r h
▁webs ite
v ent
▁ir on
▁exc iting
o b
▁c ity
▁repl aced
ab les
▁help s
m p
i ally
▁ex ist
▁ri p
▁mot or
▁j ud
▁res pect
▁sh ip
▁bo ard
▁thr ow
▁pl aces
▁p ush
▁comm un
▁fur ther
▁un f
▁un i
stand ing
▁inf o
r it
▁vers ions
▁own ed
▁head phones
▁not iced
▁ta le
▁th ick
▁f i
▁good 

▁colle ge
eng th
▁cam p
▁conc er
ber t
ick s
▁down load
▁t ar
a el
▁cra ck
▁he at
▁read y
▁small er
▁happ ens
▁en er
▁proper ly
▁return ing
▁l ens
▁lo ck
▁inst r
▁d on
▁p ump
▁l ength
▁fe ed
▁b on
▁lo c
▁e at
▁inter net
▁c ri
en ing
▁boy s
▁develop ment
▁last ed
▁fant asy
▁impro ve
▁contin ue
▁em ail
▁defect ive
u um
▁sh el
▁sh ock
▁ro b
▁l oose
i i
ic ated
▁what ever
▁flo or
t ime
▁dis play
▁ear lier
om b
▁ro ad
▁c y
y 

▁sum mer
▁m at
▁sh ot
▁start ing
▁1/ 2
▁dr um
▁de light
▁br other
▁design ed
▁appro ach
▁w ide
▁un re
r u
if ied
▁add ed
▁m er
▁particular ly
▁inf l
▁dis h
▁1 3
▁sec ret
▁b right
▁movie 

▁fl av
▁c ant
▁b ur
▁appreci ate
▁re v
▁mention ed
▁const ruct
▁fin al
▁americ a
▁prov ide
▁cra zy
▁as pect
og n
▁purp ose
▁norm al
ol ution
▁cheap er
apt op
▁off er
▁r an
▁ac cept
▁ad ap
ili ar
▁f ly
n s
▁open ing
▁ed ge
▁l aptop
▁str ugg
ur ch
u ff
▁ #
▁mor ning
▁b unch
▁to wn
ll er
if y
▁d im
▁af f
▁s ick
▁tw ist
c a
▁b ow
▁slight ly
▁vac uum
▁exce ption
▁fa ith
▁i gn
▁comp ar
▁sing er
iz ing
▁an al
▁consider ing
▁st ate
▁sub st
▁fore ver
▁trans l
at a
▁set s
▁gen re
bel ie
▁p al
▁appear s
▁pl enty
▁pack aging
▁not ice
▁includ e
▁inform ative
▁bu ilt
ra ge
▁for g
▁off ice
▁hear ing
er v
t le
▁dialog ue
▁h d
h a
▁mag ic
▁profess ional
▁as se
▁ph ys
▁j ap
▁prot ect
u ro
▁ter ri
▁r ing
▁o il
c re
ph one
▁z ero
le x
▁lar ger
t im
ant ic
▁ne cess
▁j ames
▁author 's
▁li f
▁d ang
▁install ed
▁ti red
▁out standing
▁us ual
▁t ear
▁got ten
▁te a
▁adm it
▁lab el
c ent
▁j ump
▁acc om
▁cd 's
▁sha pe
▁read 

▁super b
▁dvd s
▁met h
▁susp ense
▁br own
▁ev ents
▁part y
▁b ored
▁4 0
pect ive
▁j u
▁pre p
▁jap an
▁play ers
▁effect ive
▁pop ular
g s
▁publish ed
▁advent ure
▁reg ret
▁us b
▁cou n
▁t ur
▁mich ael
▁shi pped
▁mag az
▁rec ogn
nd s
▁t ub
▁fact s
▁introd uction
▁j oy
▁gr ow
▁s ister
ag er
▁c ross
▁n ut
▁pre m
bo x
▁al tern
▁end s
▁cir c
al ing
▁st at
▁dura ble
im ent
▁dav id
▁speak ers
▁tell ing
▁satisf ied
▁ev il
▁creat ive
▁bu d
▁pract ice
▁1 6
▁er rors
▁hold s
▁f ool
ke y
oo p
▁typ ical
▁find ing
▁i ce
iz ation
▁fa ult
▁ch urch
▁trad ition
▁cl ub
▁sho ot
▁creat e
▁mur der
ab ility
▁me et
▁comple x
▁stud ent
▁dep ress
▁h un
▁ind ivid
ct ions
▁id ent
p iece
▁mo ves
▁j ew
o ld
▁ab ility
it ter
i us
▁predict able
▁kn ife
a a
▁str ange
▁m ass
▁f ing
▁art ists
▁prod uced
▁war ning
▁const antly
▁record ed
▁hard ly
▁st ock
g ar
▁disc uss
▁fasc inating
▁complain t
d en
▁b reat
▁sp an
▁am ong
▁but t
u it
▁st ere
g est
▁sho es
▁intell ig
▁l in
▁te le
▁any where
h h
▁favor ites
" 

▁l id
▁phot o
▁em b
▁ro le
▁bu cks
▁doll ars
▁1 4
▁person ally
▁expl an
▁bl ade
▁detail ed
▁ul tim
ci ous
▁fl ow
▁s illy
▁sur v
▁d en
▁ple as
▁surpr ise
if f
▁da ily
▁apparent ly
▁2 5
▁jo ke
▁sh are
▁meth od
▁occ as
▁st ates
▁" 

▁eng ine
▁disappointed 

▁bl ues
▁col ors
▁rep air
▁vide os
▁br ings
▁that s
iet y
▁w ild
▁answ er
v al
▁m p
e y
▁br ush
▁un s
h ood
▁as ked
▁pract ical
▁wr it
▁fall s
▁" th
▁sy n
▁key board
▁conf using
▁dog s
▁remo ve
▁ra p
▁sa fe
▁o dd
▁s itting
▁deli very
▁mis le
▁p atter
p ri
▁t ap
▁care ful
▁rece ive
▁techn ical
c er
▁ra nd
▁requ ired
▁cent ury
▁conn ection
ul a
au ght
▁so ci
▁an ge
▁19 8
▁k it
▁co de
▁manufact ur
ra p
on 's
▁follow ing
▁exp ress
h ow
▁f at
▁int ri
▁out d
o ff
▁incred ibly
▁h ilar
r ated
▁im age
▁o ption
▁else where
an cy
▁includ es
▁sh ut
▁lo se
▁sh op
▁honest ly
▁un belie
in '
▁invol ved
▁gr ind
▁d ad
▁d y
▁miss ed
as k
▁sc ary
▁t on
▁ha m
▁ar m
▁dr ink
▁re li
▁he ld
▁fam iliar
▁mom ent
▁jour ney
▁j am
▁fl im
▁great 

▁off ers
▁f ield
▁story line
▁r ated
▁f rench
▁care er
▁mom ents
▁c and
▁r ou
g o
▁wire less
n am
▁c re
▁n ature
ugg ed
c l
f or
▁l ame
▁do ct
▁p ark
▁fem ale
▁j es
▁list ed
▁qu iet
▁new s
▁worth less
▁int end
▁cult ure
▁d ust
▁l ower
▁" a
ens ion
▁dis g
▁rep et
us es
ish ed
▁ener gy
▁ma x
p ort
n al
▁inter view
▁want ing
▁high er
▁on to
y 's
▁cons ist
▁tun es
▁re ality
▁comp il
▁dou ble
▁9 9
o so
iv ity
▁se par
c ol
▁card s
▁wr ites
▁s ource
▁de m
w r
▁fre qu
▁elect ron
▁not es
▁we ird
▁b es
▁s pl
▁u r
▁hilar ious
▁read s
▁birth day
▁clean ing
▁chall eng
re h
▁real ized
i pe
▁dis k
en cy
▁did nt
▁becom es
▁mel od
▁beautif ully
▁comp are
ou th
▁ch air
▁f al
in o
▁adap ter
▁c e
▁us er
▁d iv
▁cover ed
▁second s
▁in g
▁the me
▁w es
▁pub l
▁pers pective
▁be gan
▁dra g
▁char ger
▁ /
▁direct or
▁sh own
▁creat ed
▁be ats
▁record ings
▁full y
▁expect ations
▁b ath
▁ho lly
▁nat ural
a 

▁cred it
▁polit ical
▁writ ers
▁sell ing
i est
▁poss ibly
▁ge orge
▁re ve
▁lim ited
▁individ ual
▁r ide
▁present ed
▁t our
▁talent ed
▁f u
▁sequ el
▁in k
▁pa ul
i pp
▁rec ent
▁prov ided
i ents
on na
▁h ip
▁flim sy
▁illustr ations
▁de g
▁rep ort
▁t ough
▁im m
is her
▁l u
▁" st
▁me ant
▁magaz ine
▁ag es
▁" re
ar m
▁com pe
▁p unk
▁gr ade
act ion
▁v an
▁up gr
▁ex tend
ver se
▁e uro
▁for ce
▁se lect
▁cent er
▁j er
▁quality 

w or
▁perform ances
▁k ick
ch an
▁2 nd
▁to ys
▁tra ining
▁her self
▁nice ly
▁batt le
▁y og
▁ob s
ret ch
▁p ill
▁chang es
en ed
▁st ated
▁disappoint ing

▁tri es
h s
▁multi ple
▁$ 3
▁f ear
▁bi ke
▁in it
▁aud ience
▁cl ock
▁real istic
p et
vis ion
▁m ath
▁var iety
▁t iny
▁follow ed
▁stre et
▁terri fic
▁order ing
▁tra in
▁f ash
▁dire ction
▁d ar
▁cl oth
we ll
▁direct ions
ac ing
res ent
▁d umb
▁port ray
▁sm art
▁ro cks
▁big ger
▁app lic
▁keep ing
▁frustr ating
▁develop ed
iqu es
m es
▁ne ither
▁mp 3
▁v ict
▁hook ed
▁like ly
▁mon itor
▁ch oose
▁store s
▁hope fully
' ve
id ence
▁big gest
▁teach er
▁thorough ly
▁ch ina
▁master piece
▁ar ch
▁pot ential
▁time 

▁st ren
▁flav or
1 1
▁vo cal
▁s ides
▁hol es
r d
▁19 7
um ents
en 't
▁ch ann
▁fol ks
▁add ress
▁e ars
▁sc ore
▁figure d
▁b ird
▁coun ter
▁tool s
ib ility
id ing
u ra
▁ind ust
▁t ed
▁rh y
g th
▁p ian
ul es
▁m ent
is k
▁sa le
▁l ed
▁love ly
▁trans fer
▁a st
▁h p
▁event ually
▁spec ific
▁att ract
▁w er
▁j im
▁stud io
▁g ard
▁prod uc
le ction
▁u nd
▁sp ot
l og
▁every day
▁ye ah
▁light s
▁bra in
▁aw are
all ow
p ut
▁sol o
▁a head
▁er ror
▁mak er
on se
▁rec omend
in ary
or able
ir ty
▁elect ric
▁ste el
▁fash ion
oth ers
▁h om
▁ era
▁a ch
▁o pp
▁min or
▁for t
▁mo ved
ur s
▁w est
itt y
▁ger man
▁rom antic
▁inde ed
▁n ames
▁r ound
ll ed
▁m al
▁dra ma
iz es
▁experien ced
▁po cket
▁ar r
▁rub ber
▁liter ally
rib ly
▁d ata
▁b er
▁sc ient
ot es
▁h i
in em
am ing
▁fra me
▁review 

▁hu nd
qu e
▁instr ument
▁gr ad
▁me chan
▁cook ing
▁adult s
▁b read
▁ter ms
▁com mer
▁ti ps
ch ar
▁2 4
▁im ages
▁rou ter
▁lack ing
▁press ure
▁lack s
ing ly
▁rel ax
▁whe el
▁hund red
▁suppo se
ro y
▁descri ptions
an a
▁sim pl
▁in ex
▁turn ing
▁g em
▁sad ly
▁m outh
▁c aught
▁p ow
am ent
▁defin ately
▁entertain ment
▁beaut y
▁med io
▁pos ition
▁bo ot
▁bad ly
o on
▁begin ner
▁ch em
▁stren gth
▁c ream
▁fo ld
▁as h
▁fall ing
▁phil oso
▁holly wood
▁emot ion
▁deser ves
▁comp os
▁th rew
▁disc s
is ion
' ll
▁the ory
▁h ated
▁c ell
un e
▁for ced
▁mo de
en n
▁cra ft
▁n ail
▁infl u
▁cart rid
▁vis ual
▁cons um
▁resp onse
▁pass ion
▁c as
▁jes us
▁typ es
▁prog ress
▁to w
▁qu it
▁res ource
▁art ic
▁misle ading
▁b an
g a
▁lat est
▁rec ie
▁some where
iv al
▁t one
▁uni vers
▁ro bert
▁top ic
▁sc an
▁will i
▁li ved
▁techn iques
▁we' ve
▁num bers
▁has n't
or der
▁man age
y "
▁mag n
ar a
re st
▁dis ney
▁en v
▁v s
▁man ner
▁m ood
c ome
▁cr u
ot ic
▁butt ons
▁fab ulous
ar ily
▁dr ug
w w
▁l ink
▁show ing
▁disco vered
▁ ]
▁bro ad
▁r ush
▁sp ray
▁upd ate
▁price 

▁em pt
▁liter ature
▁surpr ising
▁lo ss
s es
▁so cial
▁sp ort
▁v hs
▁run s
c r
e 's
▁con vin
▁ob ject
▁pe ace
▁soci ety
▁show ed
▁te am
l in
▁hand y
▁rem ain
▁c ats
▁com ments
▁st retch
▁cop ies
▁r out
▁y a
▁ra in
▁he y
ous ly
▁euro pe
▁tra il
▁shel f
▁ho le
▁gen ius
▁ess ential
u able
▁work 

▁i i
▁sp in
▁sound ed
▁can on
▁the at
▁reason s
▁pri m
▁1 st
▁wes tern
▁chang ing
▁st ain
c d
pri ate
▁d in
▁claim s
▁un com
▁har ry
▁sa ved
▁y ork
▁philoso ph
▁necess ary
6 0
o ver
▁cont r
/ d
ag ue
▁b oo
▁un us
▁best 

▁te nd
▁music ians
▁you' d
▁bes ides
▁comp reh
▁asse mb
um es
itt ed
▁" y
r as
ate g
▁know ing
▁det er
▁sou th
▁dis p
▁v amp
▁bri ef
1 2
▁emot ional
▁mem ories
▁pain t
p an
▁let 's
▁conc lus
▁wer en't
▁manufactur er
▁dissapoint ed
ak er
▁des k
▁breat h
▁st un
▁you n
▁bel ow
▁fl ick
▁p ed
▁document ary
▁span ish
a f
▁min i
▁1 7
▁med ia
▁po et
▁buy er
▁japan ese
▁put s
▁dro p
b a
▁to wards
▁some how
▁it al
▁comp at
▁pri or
▁enc ou
▁cle ver
▁ex ec
▁tradition al
▁level s
▁tar get
▁dis apoint
u x
▁inc or
et t
▁sur face
i pped
▁in no
i 's
f l
▁cut s
▁anim als
▁cut ting
▁un able
▁mix ed
▁ar g
▁there fore
▁youn ger
▁le ge
▁fal se
▁d ress
▁p ound
▁comp et
▁st or
▁f ish
▁p ra
▁hy pe
▁inc re
▁con ven
▁mem bers
▁cl im
▁adv anced
▁pu zz
▁descri be
▁fam ous
our ces
▁x p
▁bon us
▁att ack
▁teach ing
▁w /
z en
▁disg ust
▁sk ills
▁ut ter
▁origin ally
▁bl ock
an 's
▁st age
▁wear ing
ag on
▁" n
▁sol ution
et te
▁v irt
▁medio cre
▁tr ick
▁ma le
i pping
▁al i
▁begin ners
▁be ar
so ft
▁di et
▁hop es
▁wind ow
▁ne ck
k in
▁are as
▁bel t
▁concept s
▁p in
▁fail s
▁unbelie vable
ra id
▁cost s
h ere
▁con vers
▁pack ed
▁bud get
▁f ro
▁all ows
▁hur t
▁dist ur
▁ant i
▁num erous
▁ch ick
▁inter p
▁ple asure
▁yog a
ers 

▁build ing
▁rel ate
▁season s
ut ed
in ter
▁de ce
▁lea ving
▁ind ic
▁8 0's
▁ben ef
▁does nt
id ay
▁w ars
2 0
r ound
▁intri gu
▁vamp ire
▁st one
▁in a
▁v ill
olog ical
▁deli vered
▁ 's
▁head set
▁friend ly
▁speak er
▁r ough
▁c iv
▁hold ing
▁" wh
▁record s
▁sign al
▁p il
▁j an
▁rand om
▁pian o
▁think s
▁min im
▁g rill
▁de pend
▁intend ed
▁every where
▁top ics
▁doct or
▁w ed
▁su it
▁situ ation
▁repe ated
b or
a ven
▁o pt
an na
▁dvd 's
▁l ou
u ght
▁th om
▁l as
▁experien ces
▁fir m
▁c ars
▁exp os
▁sp ring
▁techn ology
▁ing red
▁l ord
▁af raid
▁y r
ard s
▁kind a
▁compil ation
▁act or
x ic
▁exerc ise
▁answ ers
▁brit ish
▁construct ion
s p
▁app ly
▁tem per
▁se al
▁al ive
▁cr ash
▁pain ful
▁norm ally
▁be ach
▁who se
▁th us
▁inc om
▁9 0
▁rep resent
▁strong ly
▁pro p
▁w it
ed s
al d
im p
▁p ink
▁o ppo
▁cl ich
▁should n't
▁prem ise
▁id i
ir ing
▁compe lling
r al
es y
▁bu ck
▁ste am
▁de lic
▁dang erous
▁show er
▁less on
▁lad y
▁spirit ual
▁3 rd
▁sk ill
ar ies
m ble
▁n amed
▁m ir
▁cook book
r ation
▁pay ing
▁pr oof
▁direct ly
▁b at
▁wonder ing
▁pl aced
b l
▁any body
▁gener ally
ol ic
▁le e
▁dam aged
▁extend ed
▁addition al
▁check ed
r is
▁disco ver
▁co re
▁rel ative
o v
ll s
it ary
▁altern ative
▁n y
▁acc ord
▁ir rit
k er
i ra
dd en
▁c ro
▁prom pt
▁contact ed
▁m ary
▁aut om
▁kill er
▁h ill
▁pr iced
▁k en
▁me asure
▁d ut
▁st ation
▁an th
▁as ide
▁ref lect
it ude
▁cl ar
▁sign ific
we ight
▁is land
▁sw ing
sh ip
▁viol ence
m i
▁call s
ho st
▁ele ments
ers on
ir on
▁ed itor
▁gr owing
▁fil es
▁mo on
it ation
▁fa ke
▁bag s
ines e
▁n av
d om
▁o m
▁sub t
ak ed
st al
▁se lection
▁ve nd
▁thought s
▁g host
▁sc i
▁step s
▁we' re
ll a
ant ed
▁6 0
▁ins ult
▁str uct
▁e ating
▁cl ip
▁class ics
▁ref res
▁ent h
▁c ab
▁catch y
▁lo ver
▁bu ff
▁sum m
▁consider ed
▁s an
▁win ter
4 0
▁c ath
▁cl ick
less ly
▁search ing
▁app le
▁af ric
▁gra b
▁" e
l a
▁cu ri
▁spend ing
▁li ber
▁so ap
▁step h
▁cont em
o 's
▁pre gn
▁deb ut
▁g ain
▁belie vable
▁find s
▁correct ly
ad s
▁su dden
fort able
▁kill ed
▁exerc ises
/ c
▁pr ay
▁wal king
▁dri ving
ne w
▁or ch
▁f le
ul ation
▁t or
▁o ptions
▁ch inese
▁to dd
▁cr ow
▁let s
▁c ash
e en
▁sm ith
▁tele vision
il ing
▁pl ugged
um ps
▁sh allow
in st
▁det ect
▁tun e
/ s
▁h at
▁m att
▁contin u
▁super ior
▁ed iting
con om
▁he aven
▁pet er
▁equ ip
p ensive
▁c inem
▁w et
▁vo ices
▁c ases
▁u g
il ities
▁off ered
▁fr an
▁ex ch
▁gre w
h ic
▁entire ly
▁rem ark
▁imag ination
▁path etic
▁contin ues
log y
▁h es
▁was hing
▁ins ert
m os
▁gener ation
▁w ont
▁kn ock
▁de mon
▁relig ious
p o
▁resp ons
▁ble nd
er g
▁dra wn
▁reason able
▁bo b
▁thr u
▁dro pped
▁setting s
▁mil k
▁thr own
▁sur round
▁head s
ac y
▁phot ograph
v ant
▁break s
▁stra p
▁refer ences
▁reli able
▁worth y
▁ri pped
▁ha un
▁" ch
▁dest roy
▁high light
▁hor se
▁will ing
▁bu ll
▁intellig ent
▁lo ving
▁env iron
▁attach ed
▁dec ide
▁the ater
▁t ill
▁ra w
▁sn ow
▁print ed
▁eng aging
▁st ro
ort un
' d
▁ma int
▁n ic
▁plan et
▁d om
▁bor n
▁indust ry
▁pro s
on ic
▁bl ow
▁sho e
ie f
▁amaz ed
▁ch ose
▁19 6
▁inex pensive
▁com ic
▁r ules
▁che w
▁le ather
▁g as
▁send ing
▁ever 

▁had n't
▁pro se
▁feel ings
ur ity
▁ q
ad o
▁bu dd
▁leg s
▁current ly
▁hop ed
▁sil ver
▁ass um
▁fight ing
▁f aster
▁cd 

▁remo ved
▁equip ment
▁situ ations
▁less ons
▁up set
▁civ il
a i
▁g onna
z er
▁rich ard
▁stor age
▁e conom
▁ho se
▁200 0
▁net work
▁ne igh
c ore
▁text book
▁ele ment
▁inspir ing
ad a
▁appe al
▁bl ank
c ra
▁enc oun
▁remind s
▁go ver
▁act iv
▁expl ains
▁luck y
▁can ce
▁publ isher
ent ed
▁p or
it a
▁s ar
▁now here
▁interp ret
▁p ace
▁stere o
st r
▁opp ortun
▁up s
▁mil itary
▁uncom fortable
▁tw ists
b es
▁deli ver
▁previous ly
▁const ant
▁repet itive
▁sc ale
▁mot iv
▁d iction
▁impress ive
▁anal ys
▁t ree
y p
▁wor ry
▁require s
e k
st ic
▁comp act
il s
h am
▁rec c
▁sa ving
ore s
8 0
▁wor n
▁tri m
b oy
▁d ated
▁af fect
▁ted ious
▁wonder fully
and s
▁move ment
▁concer ned
▁br others
▁spe ct
▁aspect s
+ +
▁model s
▁relig ion
▁e gg
ist ry
▁refres hing
▁m cc
▁bott les
00 0
▁sal es
▁appro priate
i os
▁w ra
▁p un
▁recc omend
▁st atic
▁che esy
▁" j
▁child hood
▁laugh ing
▁bl ades
▁rem ix
▁sec ure
▁char ged
▁view ing
▁g ent
▁ach ie
▁crit ic
▁complain ts
▁un its
▁micro soft
er "
▁comb ination
▁am b
▁pull ed
▁stand s
▁touch ing
ott en
▁chann el
▁w w
▁m ere
▁ra z
wh ile
ther n
v o
▁orch est
▁sch ol
▁ra ck
▁ =
▁install ation
▁empt y
ad ed
▁s ke
▁beh av
▁r ice
▁comment ary
y al
▁d irty
▁jo e
▁de ck
▁thrill er
us ion
▁lo vers
▁prod uce
▁add ict
▁char l
▁off ic
▁cri me
▁belie f
▁attempt s
▁lege nd
es 

▁bar b
o or
▁r y
▁or d
▁c ass
▁main ly
▁w ol
▁sens itive
▁es p
▁ste ve
▁pass ed
▁o ven
▁imp act
▁f if
▁app li
ot ed
▁compl icated
▁sc ott
▁form ula
▁enjoy ing
at o
▁bl ur
: 1
gh ter
▁fab ric
▁mart in
▁just ice
▁l am
o pe
▁t ank
▁b ib
is p
ci ent
▁anim al
▁se ctions
▁g ay
▁so ph
▁for mer
t t
▁rel ated
▁qu al
▁wa ited
▁v ia
▁conf used
art s
▁j ones
▁upgr ade
▁relationship s
▁health y
▁j ul
at ives
▁insp ired
▁me ets
▁gra mm
il ed
▁w ise
▁recie ved
▁explan ation
id ge
▁transl ation
▁rare ly
en ge
s le
▁junk 

▁screw s
▁break ing
▁commer cial
id s
▁sound ing
▁c ables
▁allow ed
▁ ;
▁ru ined
▁buy 

▁analys is
▁al arm
▁aff ord
▁sa f
m ark
▁poet ry
▁sl ide
▁sp r
oo s
▁environ ment
▁gover n
▁we ather
▁r ot
ous y
▁burn ed
▁but ter
▁val uable
▁hard ware
ill e
▁plan ning
▁int ense
▁em p
▁disappointment 

b re
▁every body
ub e
▁connect ed
▁n ons
▁sh ots
▁f und
▁subst ance
ive ly
▁ingred ients
▁me at
▁ph r
▁e ight
▁oper a
▁mon ster
▁set up
▁bas k
iz z
ad em
st on
▁mil es
▁bo nd
▁th read
▁sex ual
▁sh ad
art ment
▁add s
▁sus pect
▁con v
▁regard ing
ion ally
▁pres ents
▁doll ar
be at
ot hing
ason ic
▁me 

▁ug ly
▁v ib
▁dam age
▁gard en
ic ing
▁acc ident
▁r ust
▁sp ark
▁l es
▁let ter
▁hero ine
▁ye llow
▁har mon
▁explain ed
▁for th
▁bit s
▁improve ment
l ook
▁success ful
▁one 's
▁treat ment
▁rele ases
▁dim ens
▁sc ar
▁new er
▁smell s
▁tri logy
▁ca used
▁organ ized
▁my th
▁us a
▁tear s
por ary
c ast
▁inch es
▁bow l
k n
▁instruct ion
t v
w as
▁tit les
le ep
▁who 's
▁b ol
re l
k a
r om
▁ph ones
▁r uss
▁compreh ensive
▁st ays
▁educ ational
▁cheap ly
▁subt it
▁mar ri
ing "
▁ro d
▁commun ic
id den
▁accord ing
▁standard s
▁compat ible
▁foot age
▁cre ep
▁cloth es
i ved
▁class ical
▁g ro
▁point less
▁dri ver
▁fix ed
▁re de
r ical
▁que en
▁ed ited
▁med ium
▁resp ond
▁ac adem
▁control s
▁present ation
▁vis it
▁p aced
u ri
▁conclus ion
an o
ap ers
ru pt
▁cho col
▁li es
▁ultim ate
▁p itch
▁compar ison
▁fing er
as p
▁j ane
▁pri v
▁che ese
▁tri b
▁bal ance
▁deser ve
▁prov o
▁bor row
▁market ing
ch es
▁man aged
▁bl ess
▁o d
▁th ous
▁o s
▁let ters
at ors
▁care fully
▁album 

▁hy p
▁tast es
▁00 0
e gr
▁ra ce
▁emot ions
▁creat ing
▁v ir
▁depress ing
▁pleas ant
▁prin ci
us hing
i pper
▁" sh
▁impress ion
u nder
en e
▁pill ow
▁electron ic
▁w il
▁as king
▁b a
▁mill ion
▁su gar
▁challeng ing
▁dra m
▁bre w
ro p
▁frequ ently
▁ha ll
▁gra ce
▁ant ic
▁accom pl
es h
▁an ten
ve y
▁ti p
▁insight ful
▁ad apt
▁port able
▁w is
▁sub s
▁diction ary
▁ +
pl oy
▁mist akes
▁ha w
▁gar age
▁unre al
▁l inks
▁po lic
▁g ear
/ or
ut ions
un t
c ul
▁z omb
in ated
d own
▁ange l
a ur
▁under st
▁arr ange
▁crack ed
▁when ever
ie 's
▁clos ed
▁custom ers
▁f ile
▁exper t
▁jud ge
▁sy m
▁deter m
▁repe at
▁po em
m en
▁we l
▁children 's
nd a
ro s
▁anim ation
▁vend or
▁fun n
▁slow ly
▁over view
▁o '
▁c ow
▁b ang
▁d er
▁spec if
▁se ven
▁abs or
▁bab ies
▁deal ing
▁s ized
▁great ly
▁delight ful
▁d ub
▁hard er
▁rec ipe
▁ter m
▁thom as
▁aut o
f riend
▁pan asonic
▁tap es
u ces
▁she ets
▁sl ip
▁3 d
▁tal ks
▁bas ics
▁bl ah
▁l ousy
ber g
ars h
▁perform ed
▁ke ys
▁fail ure
▁enjoy s
▁gri p
▁4 5
▁char m
▁p ool
▁ma p
▁2 1
▁research ed
▁cu ps
▁graph ic
▁l itter
▁thrill ed
▁g am
▁jour nal
▁emb arr
▁attract ive
ill a
▁narr ative
▁to ward
▁te eth
▁t all
▁di am
▁bl and
/ p
▁$ 5
▁he ck
▁8 0
h ouse
▁med ical
k ward
▁program ming
▁ne at
▁gr own
▁$1 0
ent ially
▁w itch
▁g y
um bs
▁add ing
▁st ress
▁fort un
y le
▁they' ve
▁sing s
▁mir ror
▁stun ning
▁distur bing
▁d irt
▁expected 

▁kn ives
▁bad 

▁chocol ate
ist a
▁bask et
▁$2 0
▁r isk
▁x box
▁rhy th
▁h int
▁incor rect
▁g orge
▁dan cing
▁better 

▁rem aster
▁b ush
▁en em
at isf
▁story 

▁" in
r r
▁b iz
▁conven ient
3 0
h ile
▁wed ding
▁je ff
▁ad e
▁gent le
▁se a
b ble
▁ang ry
▁intrigu ing
te xt
▁frustr ated
▁temper ature
▁has sle
▁ vel
▁as leep
▁sa v
▁dri ll
▁sex y
▁dam n
in ct
▁over ly
▁ext ras
op s
▁gr oo
▁ter ribly
▁nor th
▁brand s
▁li ft
▁100 %
▁relative ly
▁e ase
▁des ire
▁mo b
▁pre vent
▁separ ate
▁aw hile
▁car pet
▁7 0's
or ing
▁sty les
ed "
▁pre c
lf riend
ri e
▁no body
▁liter ary
▁st ink
▁cor n
▁gl o
▁project s
▁e ast
▁ma ps
▁ev idence
us i
▁ad o
▁ve hic
▁outd ated
ess ion
se y
▁pot ter
▁to ss
▁cont rib
▁system s
▁un c
▁exc use
f ord
▁requ est
▁chall enge
▁what so
▁f lex
▁suggest ed
▁becom ing
▁opportun ity
▁g oo
▁str ing
▁bas is
▁n u
▁prep ared
▁s ight
ic ient
▁fin est
▁w on
▁pol ice
l ict
▁t ort
▁sk y
▁wh om
▁gen u
▁cho ices
▁m oo
is y
▁r ow
▁h en
l an
re es
▁call ing
▁capt iv
▁marri age
▁de fe
▁e th
▁recogn ize
▁govern ment
▁an ime
▁rece ption
▁material s
▁sho pping
▁insight s
ain t
▁di ag
▁am ate
c ies
and a
▁re char
▁speak ing
▁h ung
▁begin s
▁bi ography
▁rede em
▁res ist
▁r ings
▁wee ke
▁descri bes
▁cart oon
▁and /or
▁glass es
se qu
▁dvd 

▁supp ly
▁antic ip
▁g ang
▁sing ers
▁prom ise
▁happen ing
▁frank ly
▁gorge ous
▁aw kward
▁ang le
i ers
▁whatso ever
▁j on
▁polit ics
p oint
▁provo king
▁a lex
** **
▁anten na
▁pen ny
▁invest ment
▁impro ved
▁encoun ter
and er
▁l p
▁yes ter
▁tal es
▁fl u
▁ta x
▁fil ters
▁wa ke
ro g
▁un a
▁gir lfriend
▁li e
▁t ab
▁lo l
▁she et
▁chr is
▁prom ised
▁s oooo
▁cl ips
n ight
▁w anna
▁lead s
▁des per
in al
▁jo kes
▁nons ense
▁mem orable
ar ant
▁print ing
l ock
▁win ner
▁saf ety
▁sh ap
▁hang ing
▁comput ers
▁sh irt
▁l uc
▁j ar
▁te x
▁mar ried
▁hol iday
ch o
ific ation
g i
▁ch ain
▁vis ion
▁worth while
▁med ic
▁shock ed
▁bl ind
▁strugg le
▁bel ong
▁ultim ately
▁p our
▁ta ught
▁tr uck
▁scient ific
▁adv ise
▁d um
en om
▁phys ical
▁one 

g ain
▁b ent
▁this 

▁p unch
▁sport s
m are
▁sn ap
▁clos er
ca pe
▁un ex
▁tre asure
▁cam er
▁an ne
▁cartrid ge
▁to aster
▁recommend ation
▁trans m
▁compan ies
▁view s
zz zz
g ic
g le
▁t ons
▁d ed
▁"y ou
▁conf lict
qu ate
en 's
▁was ting
e in
▁genu ine
▁an cient
▁prot ection
▁enth usi
▁ital ian
st ers
▁fav our
▁e ll
▁stain less
▁s ink
▁picture d
ou l
▁pal m
▁philosoph y
an y
▁ind ian
▁ina cc
▁" what
▁boring 

▁paper back
▁beat les
v i
▁interview s
▁cra ppy
▁w ine
▁today 's
ast y
▁pl ant
▁m as
f ull
▁some body
▁v iny
▁dec ision
▁grou ps
▁deep ly
▁z e
▁he ight
▁ab use
▁dis aster
▁b in
▁al t
f ield
▁m ild
▁ch ic
▁pack aged
▁advent ures
▁phot ography
k ins
▁americ ans
▁fing ers
▁war ned
▁g ate
▁curi ous
▁music 

▁l em
▁cont ents
▁sc ent
▁benef it
▁d ave
▁los ing
▁book 's
im s
▁b um
▁dist ract
▁s ources
all ed
▁gu est
▁supp le
▁program s
▁h idden
▁teach es
▁exper iment
▁stick s
▁" o
▁sure ly
▁ent er
▁upd ated
▁fact ory
▁d read
▁ra m
▁burn ing
▁discuss ion
▁clean er
▁l au
▁par ag
s pe
so ci
▁grand son
▁sleep ing
in et
▁forg otten
▁be ll
▁ro se
▁sp ots
▁read able
w ar
▁contem porary
▁rem ains
▁behav ior
▁delic ious
or ter
▁g al
▁drag on
▁crit ical
▁them es
▁bo at
▁sec urity
▁dist ort
ach e
ol a
▁dut y
▁introd uced
▁ret ail
man 's
▁ed it
▁hard core
▁steph en
▁laugh ed
▁be nd
▁cath olic
▁ce le
▁eng land
▁suck ed
▁again 

▁go re
▁pick ing
▁amate ur
▁help ing
▁surprising ly
at ically
▁c ateg
▁k iss
on n
▁repl acing
▁fol k
▁recei ver
u ality
x ious
ent ic
ps on
▁stop s
▁contain ed
en er
▁s ant
▁g ross
▁pri me
a fe
▁accom pan
p ack
s ome
▁night mare
m et
▁stay ed
or ation
ch e
▁whe els
▁gift s
▁major ity
▁need less
▁u k
▁dream s
b an
▁w ore
▁yester day
▁" se
▁reve al
▁ep ic
▁embarr ass
d a
en a
ie l
n es
▁b omb
as hing
▁hold er
▁regard less
l or
▁raz or
▁2 2
▁person ality
/ 10
▁s i
▁last s
if orn
▁commun ity
▁b ound
▁gu arant
▁sub tle
▁met all
▁c ake
▁mi ke
▁leak s
▁st om
▁con text
u le
▁we ap
▁ball s
▁b ars
▁s om
▁o z
▁ther m
o cks
▁reg ion
▁viny l
▁light weight
▁in ner
▁parag raph
▁char ging
▁un w
▁jew el
▁jack son
▁mem ber
▁appe ared
ot ing
is co
$ $
▁trou b
▁en light
▁sam ple
is ters
ple te
▁init ially
▁a ust
▁mi ra
t op
▁al ien
▁educ ation
▁ri ff
▁vac ation
mp ath
▁trans form
▁li qu
▁un ha
▁gl ue
ap h
wh el
▁y ard
d ed
t ain
▁act ress
▁wash ed
m art
re g
▁got ta
▁l ind
▁applic ation
im ate
▁bar gain
▁me xic
▁tub e
▁rent ed
▁un ne
gg ed
▁weeke nd
▁intell ect
▁dri vers
▁t ag
▁squ are
▁utter ly
▁ter ror
▁deep er
▁mar vel
▁deg ree
▁fo x
▁in e
▁port ion
▁br uce
▁inspir ation
▁g ree
▁over pr
▁as soci
▁invest ig
▁g ig
▁sudden ly
▁explan ations
▁dev ices
▁ar ms
ce ed
▁uni verse
▁su ction
▁cand y
un ction
▁kill ing
▁conc ise
▁time ly
▁ther ap
▁en h
▁g ps
▁ble nder
▁disa pp
▁" no
▁specif ically
▁int egr
able 

▁fam il
▁sm ile
▁st a
▁melod ies
▁subs cri
▁char ming
▁cele br
▁to ast
▁stere ot
▁p atch
▁th umbs
▁3 5
▁hand les
pp ers
▁n ational
▁tw enty
▁l cd
▁in fer
▁here 's
▁fun ctions
▁av id
▁you th
ar ian
▁tr ay
omet er
▁boy friend
▁gold en
▁box es
▁dy nam
▁t ang
▁inter n
▁exch ange
▁assemb ly
▁kind s
▁re b
▁st ream
▁ch uck
▁im pl
▁thr owing
iss ion
▁pl ate
▁exc it
▁p ear
▁d un
▁sp are
▁manage ment
iforn ia
▁w itty
ill ing
▁7 0
▁fl ight
▁game 

▁unha ppy
▁fe llow
▁fly ing
l ers
ut s
▁lead ing
um in
▁val ues
▁mo ld
▁un e
▁cor por
▁re nd
▁t ick
▁pra ise
▁sou thern
▁hes it
▁sur f
▁9 5
▁v ivid
▁overpr iced
▁tim er
▁l amp
os h
▁n ative
g ers
▁polic y
▁k o
▁auth entic
▁every time
ck ets
u ate
▁fra g
▁do zen
j o
ur t
▁ser ve
▁n ick
▁cu is
▁virt ually
▁fre ed
▁l it
▁haun ting
▁techn ique
▁em ploy
▁f er
l am
in 't
▁g all
id a
▁m ature
c les
▁fl uff
▁ru le
▁comp on
▁swe at
▁willi am
▁mount ain
▁wis dom
s '
▁deli vers
▁ph enom
▁test ed
▁moo re
▁patter ns
▁ve get
ag o
▁pl at
▁bath room
▁tre mend
▁3 00
▁bus y
▁d ies
▁recei ving
▁st iff
zz y
▁ide al
▁di aper
/ f
▁class es
l ist
l os
or a
▁am using
▁ro lling
augh ters
▁ra c
▁at mos
▁v ista
et ime
▁capt ure
ac ular
ro ll
▁tit led
▁c aut
▁att itude
▁care s
▁a in't
▁mo ist
▁equ ally
▁contro ller
te en
▁cor ner
▁mot ion
▁method s
ang ed
▁turn er
▁direct ed
▁advert ising
▁h ous
▁rev olution
▁ac ou
il es
g ue
▁sal t
▁not ed
▁b ind
▁stud ies
▁cal cul
▁syn th
▁i ve
▁d s
▁b oun
▁su ng
▁p ul
▁to oth
▁b illy
d ie
▁200 3
▁remind ed
▁ca uses
▁maint ain
▁mechan ism
al "
est ing
▁hundred s
▁st inks
▁contain er
▁humor ous
▁unus ual
▁fl ip
▁struct ure
▁carry ing
▁signific ant
▁exp and
▁oppo s
▁plan e
▁inde pend
▁lead ers
▁us ers
▁bo ss
▁v in
▁rep ut
air s
▁willi ams
▁no isy
ul ate
▁din ner
▁ch er
▁collect or
if ting
u ary
▁gen eric
in 's
▁minim al
▁c ub
▁so re
▁explain ing
▁fre ak
▁sent ence
▁al right
▁act ions
▁cal ifornia
▁sol ve
▁occas ionally
ul f
▁pr ices
▁remark able
v y
▁list ing
▁tre k
▁game play
▁t ie
bb y
▁var i
▁subtit les
▁v ent
▁stra ps
▁cour t
▁dis ag
▁irrit ating
▁pres ident
e es
▁" r
▁res olution
▁ass ume
▁tex as
▁famil ies
ur d
▁time less
▁univers al
▁sam s
▁per f
▁arri ve
b i
▁card board
▁disapoint ed
ar n
▁follow s
▁h oo
▁es cape
▁shoot ing
▁ed ges
▁lim it
▁dri ves
▁mere ly
a ppoint
▁neigh bor
▁" be
▁pr oud
▁adv ant
▁s d
▁ ~
k i
▁function al
▁res ol
▁chick en
▁stri p
▁stand ing
▁o l
▁h ide
▁bul b
▁four th
▁bu gs
▁disgust ing
▁pro ve
▁song wr
▁suggest ions
nd on
▁color ful
▁encou rage
e ch
▁ul tra
▁d j
▁ar my
▁de mo
▁not ch
tern al
▁effort s
▁rem ake
m ans
▁photograph s
▁unne cess
e ly
▁po lish
▁ag g
▁instr uments
▁s ag
g b
▁re h
▁"b l
▁bl own
▁"h ow
▁ha llow
l on
l ines
▁profess or
▁fa c
st ream
▁achie ve
nd ay
▁mag ical
▁b og
g l
▁200 4
▁de le
▁es c
▁res et
r s
▁pro ves
▁sp read
▁pad s
e g
▁" lo
▁amazon 's
▁str ings
▁int ro
▁fo am
▁series 

▁john ny
▁r ang
▁unreal istic
▁load ed
▁flaw s
▁pre ach
▁w at
▁so le
▁laugh s
▁satisf ying
▁sc ared
iz er
▁hum id
▁bre ast
▁go spe
/ 5
▁w ing
▁li ghter
l ical
▁y o
az y
th is
▁" it
▁w rap
et ch
b al
▁prompt ly
v ille
a pe
z ing
▁sy mpath
▁great er
▁ch amp
▁$ 4
▁deg rees
▁st orm
▁se g
ag ers
b it
▁drum s
▁spl it
▁em ph
▁te ens
a pped
▁s en
▁5 00
t w
▁de als
▁un cle
pect ed
cra ft
▁a id
▁check ing
o le
ustr al
▁ri ver
▁at l
▁asse mble
▁s izes
▁open er
▁exception al
▁chem ical
▁e b
▁rec all
▁prot agon
▁inter act
▁capt ures
pr int
▁4 th
a us
▁puzz le
▁to ile
▁compan ion
▁afric an
▁s ab
▁intellig ence
▁over rated
▁freed om
a "
▁ha ck
▁200 5
h ol
▁plot s
▁excit ement
▁mor al
▁dis m
▁o ct
▁bl ast
▁conf ir
ri ved
ac ity
▁use 

▁food s
▁miss ion
st ore
▁a im
▁b b
▁narr ow
▁ho st
▁aw ard
um my
▁dram atic
▁lif etime
▁un kn
was her
co ver
▁ho ly
▁a ustral
▁magn ific
▁c rew
in ist
▁dep ict
n n
▁appreci ated
& b
▁myster ies
▁base ball
▁j av
ash ed
▁ass ist
▁frustr ation
b ur
▁inst ant
▁o sc
et er
i ven
▁n ik
▁pound s
▁we alth
▁sl im
fic ial
▁e ager
▁prep are
d o
▁ro ots
▁all 

▁fool ed
▁n er
ab eth
▁f red
▁lat in
▁ser ved
▁pain ting
▁teen age
▁mach ines
▁p ac
▁sc are
▁artic les
r ist
ra ce
▁chem istry
▁cr isp
▁man 's
▁extra ord
se ll
▁arrange ments
▁foc used
▁over whel
▁aw some
▁n a
▁fin an
ins p
▁re in
▁ske pt
▁creat es
▁f ed
▁trib ute
▁v it
▁d ud
▁cons erv
▁ps 2
oo o
▁br ut
▁h ub
▁el iz
▁encou ra
▁gi ant
▁spect acular
an ks
▁prof ound
▁le w
▁p it
▁fun 

▁cas ual
▁wood en
▁bul ky
▁rele vant
▁ali ke
▁crow d
▁touch ed
▁c it
▁p ants
▁r at
▁prin ce
▁mark s
be ll
▁ar th
▁men u
▁init ial
ri l
▁ 't
▁dist ance
▁bi ased
▁todd ler
▁mess ages
▁difficult y
▁la id
▁subject s
▁d aughters
y er
▁d ian
▁supposed ly
▁cou rage
▁support ing
in art
▁un pl
▁w rest
▁n asty
▁b od
▁patter n
▁c ong
▁scratch es
▁contin ued
▁gr anted
▁he ater
▁k er
▁su c
▁viol ent
▁u gh
▁ext ensive
▁ind ex
▁off ering
▁sit es
▁cl ay
▁music ian
▁excellent 

▁dish washer
▁luck ily
▁ord inary
pl ace
▁# 1
et o
▁pick s
u ous
▁w ides
▁sl o
▁lo ndon
▁un p
▁ob sc
▁gy m
▁prin cess
▁sams ung
▁aw a
▁d ick
▁stereot yp
is c
▁act ed
▁own er
en ced
▁exc ess
▁mic row
▁" new
▁out put
▁gun s
▁stom ach
▁even ing
▁review ed
c ro
w al
▁pract ically
▁construct ed
▁forg ot
▁hallow een
▁hor ri
▁emph as
re p
▁las er
▁guit ars
out s
▁ash amed
▁' the
▁t ension
▁bl ame
ch ool
▁pre view
▁qu ir
▁appear ance
▁sle e
▁myster ious
▁occ ur
cre en
▁b un
▁pr ison
▁half way
ol es
▁fair y
p ass
▁cl ue
▁pe el
▁in put
▁cost ume
▁diss appoint
▁orchest ra
/ m
▁glo ves
▁pull ing
▁cartrid ges
/ b
▁consum er
f o
▁is nt
▁rout ine
▁art s
▁sh red
▁wa ist
im ents
▁links ys
▁fl ag
▁fig ures
▁good ness
▁dep artment
oy d
▁liqu id
▁wr ist
a pp
▁de ar
a e
it z
▁list s
a ves
▁creep y
▁ir ish
▁kid ding
▁"th is
▁bird s
▁f urn
▁f m
▁fin ishing
▁acou stic
r ate
▁mar ch
▁bring ing
▁r ick
▁ble w
▁install ing
▁su pr
▁d ying
▁pre par
▁inno v
▁ment al
▁god 's
▁des ired
▁do ors
as m
▁un inter
ord s
▁pow ers
▁clar ity
▁hor ribly
▁rhyth m
▁grind er
▁$1 00
▁dimens ional
▁teach ers
▁opin ions
7 0
▁v iet
um s
▁d ump
▁instrument al
▁ev olution
▁h ay
▁scratch ed
▁toile t
▁wire s
ph ere
p her
▁you "
ak en
▁fact or
▁z oom
▁200 7
ut or
▁nail s
▁br ad
o f
▁service 

▁comb ined
if ying
▁imag in
▁dev il
▁v ast
▁k ar
▁nut s
▁h ood
▁s its
▁underst ood
▁view er
▁return s
▁inspir ational
▁un ited
▁drug s
▁t ack
▁terrible 

▁wel come
▁dish es
▁ess entially
▁or ange
▁wra pped
▁car ol
▁t ony
▁smo ke
▁ign ore
ar ing
y n
▁gospe l
▁matt ress
st ick
▁loc ation
r ick
▁ham mer
▁it 'll
▁cass ette
▁fun k
▁up l
▁speak s
c an
▁sent ences
▁" k
▁travel ing
ic y
▁spe ll
▁vehic le
▁influ ence
▁bed room
▁fore ign
in i
▁no se
▁str ate
▁pleas antly
ce nd
ess ed
▁redeem ing
re y
et tle
▁son 's
▁gl oss
▁produc ers
▁re nder
▁high est
▁cent ral
▁advert is
▁eliz abeth
▁fund ament
▁l one
▁equ al
▁ser v
▁relax ing
/ h
▁t ent
al og
▁dec or
▁accept able
▁$ 50
▁abs urd
▁su p
▁jack et
▁gl or
o "
▁liber al
▁unkn own
▁inter face
▁ign or
▁main stream
▁est ab
▁b ank
▁cuis inart
▁bo ots
▁tal ked
▁n urs
▁poem s
▁tri ps
▁end less
▁gu ard
▁b oom
▁f ict
▁hon or
▁est e
▁portray ed
▁in j
▁p ans
▁disag ree
is er
▁exce l
▁fortun ately
▁chr onic
▁adv ance
▁cover age
▁strate gy
▁we igh
▁as p
▁n ine
▁ch os
if ier
▁univers ity
ing e
▁supple ment
▁ eric
▁tem p
▁mis er
▁gar min
▁draw back
▁camer as
▁classic 

are n
▁a ug
▁p ig
▁amazing ly
▁200 6
▁drink ing
▁pregn ant
▁o x
▁ma nd
n is
▁sh er
▁dry er
▁qu otes
ho ld
▁bal anced
▁christ ians
▁man ages
▁p ir
▁ele g
▁log ic
▁we' ll
▁clean ed
▁tr ade
▁cover ing
n ie
▁fr uit
▁conc ent
▁bit ter
▁unfortun ate
▁diam ond
▁awesome 

▁inacc urate
▁v ague
▁act s
▁strong er
▁" de
▁attach ment
▁cry stal
▁cap able
▁gramm ar
▁idi ot
▁melod ic
▁grand d
▁pu ppy
▁sar ah
▁jew ish
▁illustr ated
▁vict or
▁metall ica
ar ter
▁"m y
▁a qu
at ory
▁u pper
▁19 5
▁ade quate
us ter
▁200 2
▁zomb ie
n at
▁chic ago
ar re
▁to ler
▁st er
▁me g
▁unex pected
▁instruct or
▁sh ave
▁appli ed
▁dis e
▁mag net
▁200 1
▁russ ian
▁res c
▁circ um
▁advant age
▁$3 0
▁treat ed
▁summ ary
▁n ation
ent ious
▁favour ite
▁qu ant
▁he ating
▁tra ged
t able
ist ics
em ents
▁who ever
o 

▁surv ive
ri x
▁horrible 

ing er
▁sh orter
▁creat ivity
▁convers ation
▁spo il
▁bat man
r ison
▁stars 

▁ju ice
v a
▁suit able
▁ca using
▁nav ig
▁so cks
▁trail er
m l
▁infer ior
▁descri bing
▁b ay
at ly
▁comp ass
▁pow der
▁7 5
▁w id
▁p ic
▁over look
▁9 0's
▁simpl istic
▁wor ried
▁str ang
▁appro x
▁ti res
▁contr ast
▁dis ks
▁light ing
▁me "
▁sh ake
ro ck
▁fl or
▁6 0's
▁publ ishing
ire s
▁cord less
▁sp y
h op
o x
▁wol f
▁gu id
▁demon str
▁inst ance
▁ser ial
▁cult ural
▁sh akes
▁ho sp
a id
▁re ar
▁f itting
▁comp ress
o ons
▁c ott
▁j un
▁back pack
▁download ed
▁unnecess ary
▁un insp
▁pre tend
▁h arsh
▁capt ured
▁wides creen
▁bri an
▁microw ave
▁t ask
▁mel ody
▁reason ably
▁3 /
▁stud ying
▁dem and
▁lew is
d s
▁rid ing
▁gr ass
onn ect
▁suff er
▁no vice
▁g au
▁prop ag
▁lad ies
▁crit ics
▁us age
▁occas ional
▁ser ver
▁t ay
▁chos en
▁t am
▁par is
▁c ave
v ia
▁creat ion
g on
ite ch
▁ti re
▁sy mb
▁sh r
▁gu ides
▁el vis
▁act ive
▁inter nal
▁ra ised
▁comm and
▁ident ify
▁intern ational
▁draw ing
▁le aking
▁secret s
▁film ed
ul ated
if ul
▁k ettle
▁remember ed
▁inform ed
ul ary
▁j ord
▁st an
▁happ ier
▁rel ief
▁twist ed
c orn
▁princi ples
▁h oney
▁car ri
▁dec ade
▁3 2
▁co s
▁oper ate
so le
▁cont rived
▁appe aling
▁dri vel
▁cy cle
▁see king
▁europe an
▁d re
▁off ensive
▁g el
▁dra in
▁be g
ur ally
▁vol umes
▁incom plete
▁h ors
▁matter s
▁st ones
▁shad ow
it ure
▁bother ed
▁ch or
▁r &b
▁sam ples
▁micro phone
▁b ree
▁fall en
▁bu zz
▁consist ent
▁a ra
▁phenom en
ch ild
▁ra mb
▁own ers
▁art work
ur b
▁watch es
▁destroy ed
ber ry
▁mr s
▁caut ion
▁m ort
▁at tend
▁b ore
▁priv ate
a ult
▁electron ics
▁ke lly
▁captiv ating
▁dri ven
▁mob ile
ut ter
▁sub m
▁se w
▁t in
▁l bs
▁story te
▁coll ar
▁ch i
▁trans port
▁garbage 

▁funn iest
▁b one
▁p ile
ura cy
▁oppos ite
ess ions
▁let ting
▁squ ee
▁riff s
p ed
▁conf ig
▁ke vin
▁gr ish
th y
▁prov iding
▁ru in
▁ro s
▁sym ph
b orn
▁rest aur
▁g ee
▁p orn
▁con ver
▁fill er
▁inst antly
▁sa ke
▁br ook
▁hun ter
▁well 

▁sol utions
▁scen ery
es "
▁ser ving
▁ear ned
▁scan ner
▁char les
▁ball ads
▁hook s
eto oth
▁p ix
▁voc ab
min al
▁th reat
▁sw im
▁sing les
▁organ ization
▁me mo
▁stick y
▁gree k
▁rechar ge
h el
▁see k
▁ne ph
▁ac qu
▁st itch
▁j ay
▁st ations
▁activ ities
▁finan cial
it ute
▁interpret ation
▁wo nd
▁night s
l ies
w in
▁math em
i ving
l im
▁feat uring
▁ins ane
▁enjoy ment
▁feature d
▁bib lical
▁book store
▁attempt ed
if er
▁e c
▁g h
▁do s
▁gr asp
▁import antly
▁consist ently
▁fe e
▁log itech
▁m ile
▁str ateg
▁detect ive
▁lem on
▁r ere
▁mind s
▁dist rib
▁gri pping
▁blu etooth
▁rec o
▁pregn ancy
▁back up
▁scre aming
▁re vel
in ate
▁any ways
ia h
▁draw ings
pt ive
▁t orn
▁intellect ual
os es
▁s ed
▁listen er
▁se am
▁r us
▁son ic
/ 2
▁a x
▁an ger
▁j ason
▁critic ism
▁gr ay
▁awful 

▁inv ent
▁f right
▁d are
▁ch a
▁ro les
▁b ark
▁dec ades
f all
or row
▁flaw ed
▁c age
▁o w
▁ass ign
▁thought ful
▁al co
ers "
▁oper ation
▁phys ics
▁cond uct
b ish
▁go lf
▁applic ations
f unction
▁up beat
▁tr ite
▁ch ip
c ons
▁roll er
▁fa ces
▁defin et
ch ant
▁hand ling
▁ship ment
9 9
▁rec y
▁c ush
▁reg ister
▁ww ii
▁jo int
▁brit ney
▁convin ced
o e
▁b ump
▁post ed
▁te nds
▁rating s
▁christian ity
n ow
▁artic le
c ase
▁vir gin
b ow
▁b atch
▁stro ller
▁pur ple
▁l azy
▁far m
▁techn o
▁fan cy
▁sto ve
▁magnific ent
▁grish am
int end
▁wa x
▁cond itions
▁foot ball
z es
ear ing
▁trim mer
▁ra cing
▁leg al
▁go al
▁ag re
▁sk ipping
▁sh amp
▁hum ans
▁bl ows
▁s isters
▁co ach
▁cap acity
▁ser ves
▁bu bble
▁frag ile
b ud
▁atmos phere
▁uninter esting
▁cry ing
▁highlight s
▁workout s
at ical
▁tra gic
▁typ os
▁co ast
com ing
▁test s
gg ing
▁man ip
▁com bo
▁hen ry
▁kn ight
▁class room
▁ra bb
▁mind ed
▁entertain ed
▁accompl ish
son 's
▁where 's
▁ind ia
▁theat re
t r
il ty
▁al ph
▁st ack
▁sh ine
▁neph ew
▁rush ed
▁guess ing
▁they' ll
▁disp os
▁tra p
▁war n
▁tow el
▁was nt
▁c ous
▁job s
ill ed
▁pret entious
▁heav ier
st ein
▁incre ase
▁p y
▁switch ed
▁spe ech
▁des ert
▁mak ers
▁sk im
▁pass ing
▁c el
▁sou p
▁r ise
▁el im
▁p ity
▁tay lor
▁re action
▁inc ons
▁wal mart
am a
▁"g ood
▁he aling
l ass
▁bu g
▁after no
▁teen ager
▁fo nd
▁protagon ist
▁estab lish
▁thous ands
e 

▁life 

▁g ad
▁prim ary
▁pr ote
▁child 's
b ra
▁j a
▁co le
▁w ave
▁extraord inary
▁ch am
i w
p a
▁cl ancy
▁8 0s
▁vel cro
en ess
▁20 th
▁m tv
▁access ible
▁jim my
▁j ess
g ia
ont in
▁sens or
▁sell s
▁t act
oo per
▁eb ay
▁w rench
▁r p
▁reput ation
o ph
▁ste w
▁sh ir
▁fran c
▁s ons
▁dro ps
▁mix er
▁win ning
▁f ram
▁col ored
▁form s
b ility
▁ch arts
▁biz arre
▁th ier
▁categ ory
▁ro ber
▁cont ract
▁can cer
▁w iz
▁en s
▁br idge
▁max im
▁hand ed
▁pop corn
▁unus able
▁ri ve
▁h itch
▁c ert
▁no ve
▁b ust
▁exec ution
▁lo yal
gg y
▁profess ion
▁for ces
▁she er
▁right s
▁suff ering
▁l ic
▁schol ar
▁pl ans
▁hom es
▁chann els
▁los es
▁lack ed
▁fun ky
▁scre am
▁y uck
▁acc uracy
▁rub bish
▁adjust able
a ver
▁re ven
▁int ent
z a
▁prim arily
▁r on
▁pe pper
▁char ges
▁9 8
▁fict ional
h es
▁o ce
on ed
▁furn iture
▁upl ifting
▁offic ial
th eless
▁stick ing
fer ence
▁so othing
▁d c
▁con ce
▁grandd aughter
al es
i ac
▁d ual
▁n ap
▁comple t
▁design s
▁repeated ly
▁me as
▁is lam
▁de ll
▁memo ir
▁w ick
▁sat ur
▁wit ness
all ing
▁d ent
u ch
▁buy ers
▁int ention
▁al ice
g ent
▁mix ing
ag ger
▁craft ed
▁"c om
att le
▁would 've
▁2 3
▁book let
▁1/ 4
in c
▁re ward
y y
▁cl ark
▁skept ical
▁hero es
▁clich e
▁found ation
▁pear l
▁mo s
▁cl a
▁own ing
▁d at
ob i
atisf ied
▁circum st
▁bl ocks
uc ing
▁for d
▁bl ink
▁4 00
▁op ens
▁narr ator
▁re ly
▁connect ions
▁" un
▁h itting
▁anim ated
▁doll s
▁od or
▁lin er
▁pil ot
▁m ask
▁z one
▁19 4
▁car b
▁le an
▁subst ant
▁for 

▁n ich
▁no stal
▁touch es
▁cle ans
▁li p
▁origin als
▁ `
▁comb at
▁mon t
▁batt les
▁pot ty
▁"h e
▁cl int
▁p ushing
▁so f
▁regular ly
▁out s
▁connect or
▁wh it
▁you 

▁account s
▁public ation
▁ed itions
▁match es
▁tremend ous
▁pro ven
▁she ll
gg er
▁off 

▁cap ital
▁push ed
▁academ ic
▁g ather
▁seem ingly
iven ess
▁jav a
▁stat ement
u k
co p
▁pull s
▁tri al
▁ex ternal
▁di apers
▁portray al
▁c ried
▁expl ore
▁could nt
▁leak ed
▁mix es
▁anal og
ipp ers
▁jer ry
▁daughter 's
▁res ources
▁belief s
▁gr ate
▁rep rod
ir l
▁wall s
i ently
it ect
▁im ple
▁se es
▁se pt
▁3 60
▁ent ry
▁strugg ling
▁convin cing
▁t empt
▁borrow ed
▁should er
▁per man
▁cons cious
▁lead er
▁dar n
▁sha ver
▁ch ips
▁rob in
▁dread ful
▁vocab ulary
▁a h
▁f est
▁suggest ion
i ke
▁hosp ital
▁corpor ate
▁text ure
▁troub les
▁' c
▁hors es
ri al
▁outd oor
▁ref used
▁old s
▁dist inct
▁cook er
▁re act
▁po ckets
▁wish ed
▁heav ily
▁weap ons
▁over d
▁5 th
ll e
▁" we
▁pen c
▁unf or
oint ed
▁medic ine
est yle
▁sa ves
▁tre nd
▁fault y
▁m ut
▁pl ants
oo ps
▁cook ies
▁ad orable
▁v ul
▁ar c
▁afterno on
il ton
▁sc ope
▁prec ise
m other
▁ch est
o ors
▁syn c
▁never theless
▁deser ved
▁guarant ee
▁laugh able
▁incons ist
▁cor ny
le g
▁shamp oo
▁dis like
▁al as
▁up 

res p
▁concer n
▁strugg les
▁l atter
▁an ec
▁we ars
ress o
▁j enn
▁all owing
▁jump ing
▁al an
▁th umb
▁super ficial
▁ne il
▁grow th
▁assum ed
▁anec d
j a
▁art istic
▁gl ob
** *
▁mart ial
▁n intend
▁me al
▁item 

▁se mi
▁arch itect
▁egg s
▁traged y
▁thank fully
▁tw in
▁mad onna
ath ers
▁squ ir
om s
▁ste ven
▁tal ents
▁gre ed
▁remo ving
▁val id
▁qual ities
▁enem y
9 0
▁h mm
▁remaster ed
▁head ache
▁pl ates
▁spend s
▁osc ar
v est
▁rep ub
▁tre es
▁the ories
▁$1 5
▁focus es
▁g il
▁meaning ful
▁charl ie
▁produc er
▁am p
▁ro yal
og ether
▁cap s
▁t ong
▁n ud
▁clos et
▁h ence
▁l ect
▁lou is
▁rom an
▁non eth
▁distract ing
▁l unch
▁film 

▁f id
iz ations
is ions
mo nd
p aper
▁arri val
▁sign s
▁access ories
▁g ary
ak ers
▁port ra
▁puzz les
▁wal ked
▁symb ol
▁bor der
▁l an
▁pack s
▁dece mber
▁be ast
▁pur s
▁attempt ing
b u
▁gad get
ion e
▁goo gle
at ics
▁sil ent
▁ob tain
▁ir re
▁import ance
▁n in
▁le on
▁noneth eless
bb les
▁ad am
ag an
▁n az
u el
▁po pped
▁rec order
▁cook ie
▁k im
▁imple ment
▁ext ension
▁a th
es is
▁sk ipped
▁ta il
▁esc ap
▁une ven
▁sl ower
ed ia
▁l is
▁ess ays
if i
▁hun t
▁gau ge
▁engine ering
▁friend ship
▁cart oons
▁slo ppy
▁sin c
ed ing
▁pu pp
▁quir ky
▁c ents
cri pt
ac cept
▁j ose
▁ear bud
▁obs erv
▁close ly
▁phr ases
▁cat alog
aa aa
▁recei pt
▁sw ord
▁stay ing
▁gre y
▁value 

▁schol ars
▁pass ages
1 5
▁wonder ed
▁pr on
▁ste al
▁autom atic
▁perf ume
▁" v
ak s
▁reading s
▁develop ing
▁dest ruct
▁email ed
▁su nday
▁shar ing
r ont
▁ha z
▁fr ance
for ce
▁c ure
▁apart ment
▁ev ol
▁z ipper
▁w ound
▁vit am
▁tom orrow
▁ra ve
▁expos ed
▁conf idence
▁wa ff
▁low est
▁aug ust
ic ide
▁hd mi
▁st ir
▁li l
▁pre cious
▁point ed
▁gl ory
▁w ack
▁pro ved
▁disc ount
▁wood s
e "
▁inf ant
▁gre g
g as
▁meet ing
▁vict im
▁int u
▁dise ase
d on
▁z en
▁har ris
▁nik on
▁defin ition
▁ph ill
▁cott on
al k
▁oppo sed
▁ident ical
on ge
▁therm ometer
▁dav is
▁viet nam
▁desk top
m ies
▁2 8
▁w ig
ra el
▁do l
▁6 4
▁it "
▁out rage
▁out let
▁"t r
k ind
▁j et
▁vers at
▁lay out
▁annoy ed
▁ali ens
▁st ap
▁cl iff
▁b ach
▁me llow
▁cons p
▁ap o
ch ing
▁ded icated
▁car p
▁st able
▁to sh
▁hot el
ic it
or ig
com mend
▁cinem at
▁e cho
xt ure
▁print s
▁vol t
▁feed er
▁dura bility
▁d or
▁ch ase
▁fill ing
▁lab els
▁select ions
▁ra ise
er al
▁shel ves
▁d ash
▁disc onnect
o ke
▁down side
▁washing ton
▁lab or
▁fra gr
▁inno cent
▁f ulf
▁last ing
▁encounter ed
▁opt im
l ings
▁differ ences
▁human ity
a ired
▁fashion ed
▁tr icks
▁car ried
▁dr unk
▁afford able
▁reven ge
r ition
ug s
▁surv ival
▁l oos
▁war ri
▁sequ ence
▁l ud
▁cra w
▁challeng es
▁sh ift
▁mount ing
▁k ay
▁search ed
▁nat urally
▁sinc ere
▁pro ph
ic er
▁purchase 

▁bl ond
▁j une
▁ind ul
oooo oooo
▁co at
▁what s
▁dri ed
▁s ne
▁pat ience
▁and rew
▁co aster
▁note book
▁rent al
' m
▁je an
▁tort ure
▁prote in
▁ch art
▁review ing
▁report s
▁2 6
▁j r
▁100 0
▁an xious
▁cir cle
d r
▁cru el
▁al ter
▁al umin
▁" all
▁prom ising
atter ed
▁feed back
▁soph istic
u ation
▁j osh
▁li king
▁perfect ion
▁ri g
▁b ones
▁min us
▁ess ence
▁cl og
▁cr ush
▁rober ts
hh hh
▁jord an
un es
▁soon er
▁s ig
aw ay
her ent
▁music ally
▁our selves
▁part ner
▁suc ceed
▁br at
▁hun ting
▁e g
▁pray er
▁f ame
▁d oom
▁rev ol
▁elect rical
ab et
▁unre li
▁a ck
▁p oo
ens ity
▁har m
▁sh ared
▁met aph
▁surpr ises
ing u
▁r um
▁teen agers
▁con sequ
▁sa cri
ci als
▁fl oyd
olog ist
▁shock ing
▁n as
▁under ground
▁diag ram
▁oper ating
▁suspense ful
▁delight ed
wor ks
▁autom atically
ra ction
▁anal y
ress ive
ear s
▁qu ote
▁love "
▁land sc
▁price y
▁dev oted
▁fan 

▁mar gin
▁squ e
▁e ld
os ed
▁eleg ant
ra h
▁g im
▁gen e
▁respons ible
▁sch ed
▁treat s
mans hip
▁disc ontin
▁exp ense
▁mar io
▁be lly
▁off end
▁rele asing
▁necess arily
▁gr at
▁theat rical
▁depend ing
ic ity
▁sol ved
▁" le
▁aw e
n el
▁v en
▁writing s
▁t an
▁b os
▁f ri
▁test ament
▁stra w
▁swe ep
▁individual s
▁view ed
▁cred its
▁' b
/ w
▁l ake
▁star ter
▁desper ate
▁j umps
ar i
▁alt ogether
▁jo in
▁sp ider
▁plug s
▁nintend o
pr oof
▁how ard
▁hor n
▁true ly
▁cab inet
▁k at
▁ag ent
og rap
▁power ed
▁ya wn
▁i e
▁cl oud
▁wh ist
▁dissapoint ment
▁yr s
▁bra z
▁un accept
▁keep er
▁psych ology
▁w and
▁log ical
▁mu dd
▁$ 7
▁qu art
▁my st
▁defin itive
▁assemb led
▁flo ors
id en
ib a
▁camp ing
▁inv al
an ity
▁rem in
▁sant a
▁bra ve
▁ther es
▁nut rition
▁is rael
▁marvel ous
▁co ating
▁dis j
▁d ys
z ed
▁d ur
ic "
▁sa uce
od e
▁' n
▁groo ve
▁po ke
ha ust
▁k ir
ab or
▁ab and
▁mon sters
▁fact ual
▁test ing
▁draw er
▁" get
▁purp oses
▁purch ases
▁acc ent
▁john son
▁to ps
6 5
▁out 

qu is
b its
▁head phone
▁stat us
▁cons ult
▁thous and
▁pres ence
▁wond ers
f ly
▁songwr iting
▁at ro
▁lyr ical
ch er
1 3
▁be ans
▁cool er
▁bul bs
▁reach ed
▁repub lic
▁" ex
▁depress ion
ay ed
▁suggest s
▁15 0
▁count ries
▁dang er
▁stuff 

▁gr ows
medi ate
▁" on
▁oce an
h ill
▁firm ware
▁subscri ption
v ation
▁200 8
1 00
▁po le
igh ter
▁pack ing
▁alumin um
if ies
▁m es
ugg ing
▁o t
g ie
▁german y
▁f isher
▁dif f
▁short ly
▁par a
▁dark ness
▁propag anda
▁motor ola
▁scen ar
▁ @
f y
▁h ers
id ents
▁se vent
▁' em
▁select ed
▁lock ed
ic ious
▁ch ore
os ity
▁hell o
ot ion
▁independ ent
▁ver b
▁l atch
▁tr ance
▁sa il
▁screw ed
▁eng ross
▁po ign
▁v cr
j ud
▁m all
▁introd uct
▁incor por
▁c ale
i vers
c ery
▁transm itter
▁typ ically
▁flex ible
▁l oop
▁n ort
▁k ate
▁ben e
▁organ ic
▁wor ship
▁recogn ized
▁w ii
▁id ol
▁j uly
▁ex haust
gy pt
▁de an
d es
▁element ary
p arent
▁arg uments
▁sequ ences
▁would nt
▁comple ted
▁compar ing
▁jenn ifer
f ast
▁heart s
▁mess y
▁ok 

▁gr ant
▁t utor
▁f t
▁down 

▁afric a
▁fif th
f ather
▁ry an
en cies
▁descri ptive
art ed
ke l
▁circumst ances
▁brut al
um ph
▁be ck
ell e
▁collection 

▁sh ark
▁sa x
▁sag a
▁le ap
▁belie ved
▁people 's
▁$ 40
l ined
▁s ided
are t
▁sa ver
b ro
▁o un
▁cor ners
▁b aking
▁sn apped
▁po d
▁mount ed
▁our s
▁burn s
▁conserv ative
▁" if
▁guitar ist
▁div or
nat ural
▁capt ain
▁mill ions
▁cinemat ography
▁al ert
▁cut ter
ain e
y ou
▁out er
▁reveal ed
▁master s
▁reading 

▁circ uit
▁mass ive
▁unf old
▁be ef
▁e ve
▁do ck
▁20 10
▁sold iers
▁way ne
▁n om
im ately
▁dis ci
ot a
ast e
▁support ed
▁ex h
▁act ivity
▁f ont
▁c rib
▁to l
▁st ead
▁law s
w ind
▁disco very
▁shakes pe
▁gift ed
▁grand child
▁luc as
▁b /c
▁adjust ment
▁sp ice
us sed
▁world s
▁effective ly
▁t ables
in er
▁car afe
▁remote ly
▁e gypt
▁arg ument
ira cy
pl ays
▁alco hol
▁" me
▁te nder
▁br id
▁di ary
▁ap ril
▁p ets
umb led
▁down right
▁cam c
▁overwhel ming
▁sl ot
▁glob al
id ers
▁months 

▁cl othing
▁mu ff
▁o li
▁i v
▁rep ly
▁move ments
al y
▁se per
▁can n
▁women 's
ath y
▁progress ive
v d
▁k icks
▁expl o
▁bree ze
▁lo cks
▁trip od
re m
▁g ab
▁disj ointed
▁v a
▁ign ored
▁ro ot
▁l en
h y
▁aut obi
▁i ra
▁broad way
▁sell ers
▁doc uments
unk y
▁shap ed
▁d ude
▁min s
▁heart ed
▁dark er
▁stre ets
▁intri gue
om y
ct or
▁no ises
▁sn ack
▁produc ing
m ate
▁g ag
▁r ic
▁199 9
▁email s
▁sort s
i ge
▁n aked
▁tast y
▁all en
▁therap y
▁" al
▁che f
▁pain fully
re te
▁p izz
▁amazing 

▁c ad
▁cost umes
▁hor rid
▁sl ides
▁ange ls
▁tr ading
▁sol os
st ation
▁bas ement
▁g aming
▁ra ch
▁po etic
▁mod em
▁braz il
▁' m
▁19 3
▁belong s
▁s f
pl ic
▁cu z
▁wil son
▁they' d
▁flash light
us ive
▁us able
▁beware 

▁ra il
▁s ession
re al
▁2 7
▁po ps
i per
▁kill s
▁obsc ure
▁val ve
▁lone ly
▁dec isions
▁count less
▁dro pping
▁collect ions
▁grand mother
▁d rew
▁esp resso
re en
▁" one
▁ed die
or ic
▁fl ower
ri an
▁claim ed
▁imm ense
▁exp ired
▁pat ient
▁sty lish
▁ara b
ne ath
▁ps 3
▁sc rap
▁clim ax
▁prod uces
orig inal
▁inter mediate
▁pros :
▁austral ia
▁mess ed
ention al
▁god s
▁suff ered
▁communic ation
▁set 

▁mexic o
▁ch ill
▁un read
▁document ation
▁free ze
▁sh ed
▁j aw
▁sn ug
2 00
▁pro ced
▁install ment
▁school s
▁object ive
l ie
▁be ep
▁aff air
▁innov ative
st ar
▁sh ines
▁blank et
▁h t
▁l ap
▁sl ick
▁tri umph
▁perfect 

▁ve ter
▁mark ed
ul ations
ic ian
▁bar ry
▁ra pid
▁smo king
▁success fully
▁works 

▁mem or
▁spo ke
▁mon ot
▁emotion ally
▁uninsp ired
▁8 00
▁rus sell
/ g
o k
▁] 

▁mu g
▁str ict
▁fa uc
▁cit iz
▁tosh iba
▁t ad
▁gu ilty
▁pri est
▁hol mes
▁compass ion
ger y
▁ac id
▁phr ase
▁j en
▁creat ures
▁cast le
▁eas tern
▁col our
▁manufact ured
▁excel ent
▁ch ess
▁unaccept able
▁loc ations
▁the s
d ers
1 6
u its
▁pot ato
▁bind ing
▁th irty
▁d ough
▁bo ston
▁text s
v ity
▁r ca
▁feed ing
▁p am
ograp her
▁tr u
▁a a
▁remain ing
▁l ion
▁h ann
an ic
▁le ague
▁tw ins
▁hur ts
▁resc ue
▁nud ity
▁bi as
u ps
▁je ans
▁b io
▁pain ted
▁under neath
act ory
▁under rated
▁rend ition
▁' d
h an
▁dynam ic
ie ces
▁man ager
ab y
▁smooth ly
▁su ited
n ic
▁k ings
▁hum our
▁shakespe are
▁sc ra
▁air pl
▁complain ing
▁emp ire
▁g oof
▁hesit ate
▁inc on
▁exist ing
▁a ri
wor ld
re ck
/ /
▁e pson
ce ll
▁g ap
▁c elt
▁k ore
▁blood y
▁switch ing
▁sh all
▁view ers
▁rec commend
▁fa cing
▁sore ly
l aim
▁pre v
▁dec ides
▁o em
▁thrill ing
▁flor ida
▁"lo ve
v it
▁b s
▁co ck
▁ori ented
▁o ly
▁soul ful
▁happ iness
▁em erg
k able
▁mira cle
▁p ics
▁ter ry
▁e go
▁ton ight
▁sp a
▁fro zen
▁em er
▁invol ving
▁20 11
▁pan el
▁3 6
▁wal ks
▁neigh b
▁qu arter
ci a
▁med itation
▁satur day
▁g ut
aus ible
▁th ro
▁as ks
o ved
▁p ier
hes ive
▁ter min
▁bl owing
▁ado pt
int age
▁h ates
▁con vey
▁strateg ies
▁definet ly
▁ag ed
ib ilities
▁exp ans
▁associ ated
▁pr ide
▁" am
i ation
▁ind icated
▁cook ed
▁lif estyle
▁3/ 4
▁s ooo
▁" not
▁f og
▁complain ed
op her
▁clos ing
▁sh od
▁partic ip
▁imagin ative
▁stew art
▁cent ered
▁cast ing
▁compon ents
▁car ries
ant e
▁spo iled
▁fundament al
▁crap 

ak y
▁gl ued
▁flaw less
re ll
ou red
w all
▁res erv
▁house hold
▁contr ad
▁surround ing
▁adm itted
▁m ars
▁all erg
▁answ ered
▁un st
o ber
▁can ad
▁er otic
▁c ere
▁scr ub
▁origin ality
▁sus an
▁cinem a
▁spe lling
▁sta ff
▁toss ed
▁cush ion
▁w are
▁v ary
▁p ione
▁just ify
▁tur key
am i
id ays
▁convers ations
▁spo ken
▁anth ony
▁disc ussed
▁gem s
▁fr iday
▁g b
▁display ed
▁lin ux
▁wiz ard
▁d ow
it o
▁b tw
ur ately
▁narr ation
▁thick er
▁po ster
▁psych ological
▁ur ban
▁fu zzy
▁sim on
▁war ming
▁ly ing
▁pract ices
▁altern ate
▁$2 5
m ers
▁can s
ll ar
▁bl at
▁n iece
▁200 9
▁seal ed
▁minim um
▁press ed
st one
ul ating
▁sl ap
▁he al
▁de cept
▁phenomen al
▁remin is
▁hand led
l ow
▁note :
▁ro bb
the w
▁any time
re nd
le ts
▁tem po
▁happ ily
▁st ood
▁n ancy
▁" so
p ower
l ife
ur ance
▁r is
▁indust rial
▁i ii
ac le
▁part ies
▁" mo
▁perform ing
a ign
ve t
▁recommend ations
▁need ing
▁understand able
▁fragr ance
▁sent iment
▁jan uary
▁gro cery
ge ar
▁l ately
▁rese mb
▁serv ices
▁gift 

▁bel kin
▁e h
w ater
▁ball ad
▁belie ves
▁din os
▁dele ted
▁label ed
▁ <
▁sc oop
▁ar gu
▁' f
r ad
▁pre jud
▁ele v
▁concer ning
▁k orn
▁arth ur
▁st im
▁k ong
▁$ 6
▁accompl ished
▁s ang
▁perform s
▁frequ ent
/ t
▁christ opher
▁red uced
▁disg race
▁it unes
▁com ics
▁in se
▁f ishing
/ re
ple as
▁grad uate
it ious
▁4 8
▁lu ke
▁it ;
▁as ian
▁expl os
lo ading
▁po ly
book s
u u
▁reve als
t 's
▁prefer red
▁sc am
▁your s
▁craft s
▁budd y
▁b ite
▁agre ed
ar se
▁over come
▁b om
n 's
▁re gg
▁v intage
▁mat thew
c ut
▁bo ld
▁sophistic ated
▁fu el
▁car l
f ying
ut her
▁nich ol
/ off
▁can ada
▁mind less
▁kn ob
y r
▁out f
▁determ ined
an ie
▁oct ober
▁e a
▁back ing
▁cow boy
▁la unch
▁up "
▁p ills
▁pol ar
d ri
x x
▁lar ry
▁large ly
▁collect ing
▁manufact uring
▁leaders hip
▁g um
ww w
▁k ra
▁camc order
▁ru ins
▁ital y
▁t il
▁7 0s
▁che er
id o
▁publish ers
▁made 

▁ev ident
▁bul k
▁sub sequ
▁hol idays
▁che ated
▁p ant
▁j ung
▁20 12
an ia
▁car ing
se ud
▁passion ate
▁contr ary
▁oly mp
pl ed
1 4
▁cl in
▁nort on
▁carri er
▁bel oved
▁m erc
▁gr an
▁be er
▁dra gged
▁la wn
▁watch 

▁gl imp
▁prof it
▁new est
▁honest y
ud es
▁ref use
' nt
▁c ig
▁ro y
▁miss es
▁lens es
▁dissappoint ed
▁fort une
▁intu itive
▁poign ant
▁pad ding
▁obs essed
▁fl esh
▁rip off
▁conclus ions
▁dimens ions
it ors
▁bra ce
▁per cent
▁cr ank
▁prom ises
▁jump ed
c ence
th a
▁f are
▁st ol
▁imag ery
▁camp aign
▁br ows
▁ti ed
▁deck er
▁dig est
▁glimp se
▁loc ally
for ward
▁mild ly
ley 's
▁benef its
2 5
▁eff icient
▁fight s
▁s essions
▁defin it
▁broad cast
▁dian a
▁in fect
▁intrigu ed
b ird
▁ju ven
▁thread s
▁m esh
▁like able
▁inval uable
▁corn well
ather ine
▁sp ite
▁di verse
inst all
▁c s
▁over s
▁stat ements
▁viol in
▁misle ad
▁def ense
▁pair s
▁recy c
▁$ $$
t aking
▁trans ition
ch ed
▁down hill
▁ar rog
▁could 've
▁adapt ation
▁to mm
▁exist ence
▁b ry
▁somet ime
▁list ens
▁air port
▁overlook ed
▁c ooper
▁f ate
ra in
▁l l
▁"s p
▁g a
▁conf usion
▁engine er
▁personal ities
▁disp ens
▁fauc et
▁comp artment
▁do z
▁grate ful
▁inc ident
▁p seud
▁different ly
▁tutor ial
om a
▁sh iny
▁ra pe
▁legend ary
o ot
▁st ab
▁un pleas
▁gl owing
▁w ipe
is sed
▁r ome
▁friend 's
▁star ring
▁surv iv
it led
r ings
▁ha vent
▁inf in
▁fore st
▁drum mer
▁notice able
on a
▁plan ned
▁ident ity
▁dissapoint ing
ed ay
▁ap olog
▁dan iel
▁introd uce
▁tast ing
▁no pe
▁mother 's
▁ut il
▁enthusi ast
▁v all
▁chor us
▁di vers
▁bother 

▁symph ony
▁toy 

▁ast on
▁bol ts
▁stri ps
i at
▁ vert
▁h ind
▁earbud s
▁to d
▁int ensity
▁fa ced
▁remix es
/ 0
▁set t
▁acc urately
▁par all
▁ro ger
▁cru ise
▁ack now
▁" an
▁hoo ver
em ber
▁contro vers
▁a i
▁dr m
▁"m ust
▁process or
▁mi xture
▁f ried
▁j ams
▁draw s
▁enlight ening
▁wrest ling
▁wick ed
▁compl iment
▁s q
▁ham ilton
▁discontin ued
▁world 's
▁rere ad
▁jo an
▁dy lan
e ed
▁l ite
▁sever e
▁eager ly
▁m others
▁anecd otes
▁to e
bre aking
es ter
▁mist aken
om ic
▁lind a
▁emphas is
▁hard cover
▁r ude
▁da wn
i 

▁rent ing
▁lay er
ath an
▁ind oor
▁vis ually
▁del ux
▁st ale
ir st
▁vocal ist
▁tast ed
▁re e
▁object s
ul s
▁appreci ation
in ations
v ably
▁bur nt
▁ste llar
▁br ass
▁cous in
▁5 5
▁woman 's
r ous
▁eng age
▁disgust ed
▁l b
▁pri mer
▁vis ible
▁gener ous
▁further more
ival ent
▁sw ear
▁vampire s
▁comm it
▁ad ams
▁count ing
▁accident ally
▁inter ior
▁barb ie
▁incom p
▁br an
▁supp li
▁smell ed
▁sha ving
▁adm inist
▁pe e
▁cl amp
▁war ner
und ant
▁"d o
r at
ard ed
vel ope
▁res ort
▁cri minal
▁su icide
▁par ad
▁se an
▁amount s
▁function ality
d ge
▁dis plays
▁car ter
▁man ually
▁d ates
▁st ating
▁cr is
▁incre asing
▁ben ch
▁mill er
▁stud ied
▁neighbor hood
tt p
▁y ell
▁support s
un ks
▁ste er
▁diagram s
m ith
▁dis li
▁burn er
▁ex ists
ord ers
▁dum mies
h l
▁coff e
ler 's
▁crash es
▁nove mber
▁a unt
▁re print
▁celt ic
▁history 

▁magaz ines
te ch
▁con vert
▁ti ger
▁doz ens
▁r oof
▁shod dy
▁room s
▁"d on't
▁collect ors
res ents
or 's
br ush
o st
▁w ishing
▁advertised 

▁dad dy
▁k ud
▁child ish
▁tw el
▁jose ph
▁re n
▁bu nd
▁books 

wor king
▁unreli able
▁l aughter
▁leg acy
▁load s
▁exce ed
▁addition ally
▁u m
▁p apers
▁influ enced
▁plat form
r ict
▁make up
▁ins pect
▁op rah
▁$ 8
▁cal m
▁sucks 

▁insult ing
▁after wards
▁compet ition
▁m itch
▁sold ier
▁conc rete
▁expos ure
no ld
▁un b
▁dat ab
▁up side
▁restaur ant
r ays
i ro
ke ep
▁age nda
▁vib r
ers ome
▁lim p
▁portra it
▁ref urb
▁absol ut
▁script ure
c s
▁delic ate
▁harmon y
▁character 's
▁amateur ish
l um
▁u 2
▁re iss
l ig
▁' p
▁roll s
▁m use
ress ed
at ra
▁ti es
▁stick er
▁la ure
▁ny c
▁over night
▁w ired
▁and y
▁wh is
▁occ up
▁patter son
▁w oo
▁hor iz
▁recommended 

▁bra vo
▁fant as
▁track ing
▁bre ed
▁be ars
▁ignor ant
/ sh
▁spr ink
▁se ed
▁compl iments
ot te
▁ly n
` s
▁ve t
▁grandchild ren
▁ab ilities
▁paragraph s
▁ber n
▁stol en
▁jul ia
▁ear phones
▁compar able
▁depress ed
▁ast ound
▁consp iracy
ke e
▁compon ent
▁maxim um
▁direct ing
ton 's
▁h an
ly n
▁ro ss
▁s id
▁w ings
▁is ol
▁hand book
▁exec uted
▁lu cy
an cing
il ight
▁bull et
▁approx imately
▁storyte lling
ograph ical
▁suff ers
▁ur ge
▁clich es
▁tong ue
▁po ison
pp ro
▁motor cy
▁econom ic
▁pe an
▁neighb ors
▁care d
▁ch ances
ph y
▁enh ance
▁on /off
▁cons ists
▁be ating
▁back st
▁report ed
▁flu id
▁b &
▁h art
▁hung ry
▁outrage ous
▁al ign
▁penc il
▁dr own
▁design 

▁phil ips
▁emb ar
co pe
▁band 's
▁sept ember
▁ang les
co ck
▁fit ness
ro ad
▁gra iny
▁hint s
▁re ver
▁x mas
▁useless 

v ol
▁ >
▁upgr aded
▁re el
▁k od
▁slee ve
▁o ught
▁v oy
ly ing
▁fill s
▁less er
▁jun ior
▁versat ile
▁juven ile
ose x
▁deal er
el ic
▁break fast
▁hous ing
▁me als
▁th under
▁spin ning
▁f ence
▁gl itch
▁bra un
▁ill eg
▁ha bit
▁ment ions
▁ra ising
▁lot ion
▁conf ident
▁est ate
▁addict ive
ttp :
▁c er
▁budd h
▁contrad ict
▁mar ry
r ough
▁b ose
▁do se
▁im per
re et
▁cham ber
3 3
▁d oo
▁in h
▁bu bbles
▁sur gery
▁life "
▁ira q
▁rout e
um n
▁det ract
▁information 

▁som eday
▁tight en
at ures
▁cl ients
▁opt ical
▁rive ting
▁ev al
▁a er
k o
▁n ause
▁convin ce
▁ch op
▁kn ee
▁exc lus
▁absor b
w ord
▁assum ing
▁mus cle
▁sl ice
▁f ount
▁"b est
se mble
▁film m
▁ran ks
▁separ ately
▁ridiculous ly
in form
▁l ag
▁satisf action
▁wall et
▁barb ara
an ed
▁signific antly
▁flaw lessly
▁"it 's
ab ilities
ach es
▁rac ist
▁is h
▁baby 's
▁com 

▁col umb
▁fl ows
▁cor rupt
on 

▁gra ve
▁head ed
▁guest s
▁w ins
▁mu y
▁ret ire
▁rob ot
▁sa c
ail s
▁dis cri
▁red uce
▁subst itute
▁cr ude
▁ke ith
▁home work
▁cale nd
▁rabb it
▁th o
▁sp out
ee ee
▁connect ing
▁introduct ory
▁d ating
▁n ar
ren ce
▁twel ve
no xious
▁advertis ement
▁ro pe
▁news paper
▁fa x
▁super man
▁cook s
▁hur ry
▁should 've
oc ative
▁m b
▁p ens
▁"f or
▁distort ed
▁play station
m aster
▁in n
▁jess ica
▁funny 

▁enem ies
▁refund ed
▁diag n
▁# 2
▁books hel
▁ed ward
▁occas ions
▁vict ims
▁suff icient
▁' h
▁equ ivalent
▁chair s
▁contin ually
▁w ider
▁ma h
▁per ry
▁ins ist
▁unpleas ant
▁faith ful
▁re ject
b ie
or se
g en
▁dest ro
▁chr on
▁random ly
▁con sole
▁question able
▁attack s
ct ic
id ently
▁gener ations
▁flow ers
▁int ric
▁screen play
▁vill age
ation 

▁mar iah
▁weight s
▁en orm
▁unbelie vably
▁par an
▁jew s
▁tow er
▁p ap
▁r ank
▁sp aces
▁tra ve
▁simpl icity
▁50 %
▁ps p
▁haz ard
▁tri gger
▁langu ages
▁hy per
▁sc ot
▁boo st
▁hu h
▁ve gas
j i
▁bum mer
▁5 0's
▁learn s
y a
▁more 

▁ad ore
▁novel 

▁rep aired
▁straight forward
▁sh ips
r um
▁re bo
▁ob noxious
as ion
▁self ish
▁lou der
▁pil ates
▁cr ad
▁conc lud
▁hous es
▁insp ire
▁zomb ies
▁i phone
▁be et
▁d uck
▁i con
▁hu gh
▁er r
▁upd ates
om an
▁mat rix
▁request ed
▁s ir
▁period s
▁jack ie
▁lock ing
▁basket ball
▁you t
▁disci pl
▁cho ppy
▁ill ness
quis ite
▁i re
▁w ipes
nd o
▁"i 'm
▁bb c
▁anticip ated
▁t id
▁c ul
▁problem s

▁12 0
▁sof ter
▁comb ine
▁ch ains
▁6 00
▁techn ically
▁t as
▁s ple
▁sil ic
▁educ ated
▁cheap est
▁nurs ing
▁substant ial
▁sh uff
▁even ly
▁stri kes
▁cult ures
▁sp ine
▁dep ot
▁adm ire
▁su cc
▁boot leg
▁mechan ical
▁am y
▁mon key
▁nic er
i ors
▁str uck
▁vis iting
▁years 

▁real y
▁gl ove
▁guid ance
b urn
▁rp g
ien ces
▁wat ers
▁cra cks
r ich
u a
in n
▁book ;
▁se ats
▁1/ 3
▁incon ven
▁parent ing
a ving
▁war mer
▁musicians hip
▁unread able
▁pot s
▁rhy mes
▁v on
▁view point
▁stri ke
▁tim ing
▁" just
ott ed
▁back 

▁2 

▁inter action
▁m ice
▁recogn ition
▁g ord
▁let down
▁sk ips
▁jan et
▁research ing
v c
▁les b
er ve
ra w
▁st ains
▁satisf y
▁grind ing
▁con j
▁sil ence
▁c ities
▁sh ade
ab e
▁3 3
u ing
▁absor bed
▁by e
ol f
▁post age
▁s ate
ont z
▁ge ared
▁pizz a
ff ic
▁card io
▁leon ard
p ad
ul k
▁at e
▁pur se
▁tra ined
▁philosoph ical
▁cred ibility
▁n an
▁ext ent
▁determ ine
▁ref ill
▁charl otte
▁"o h
▁bod ies
▁" fe
▁inter m
ain ed
▁bud s
▁delux e
▁concer ns
▁address es
▁cab in
gg ie
▁ear rings
ne ll
um ble
▁ph ant
▁defe nd
▁per m
▁res id
▁access ory
▁edit ors
as er
▁embarrass ed
▁stan ley
i ber
gg ies
▁short s
▁profession als
gr ass
▁line :
▁m m
▁gr itty
▁cal ib
ens ible
▁car r
▁mel ted
▁king 's
▁addict ed
ll ers
▁$ 9
▁adv ised
▁uns atisf
▁re new
▁stri pped
▁out look
▁p d
▁listen ers
/ her
▁m arsh
▁ch an
▁tomm y
▁ra pper
▁pat rick
▁mass age
▁lis a
▁sh ield
▁fo ster
▁w att
▁cou l
▁breath taking
▁confir m
▁bos ch
▁c umb
j ection
▁be le
/ v
▁written 

▁ko ontz
▁dr inks
▁comb ines
▁t uck
▁and erson
▁k urt
t ies
▁f aint
▁bra cket
▁pos itions
▁poke mon
▁show 

▁airpl ane
▁t ro
▁fright ening
ttp: //
ing ton
▁un con
▁rep resents
▁port s
▁phys ically
▁ann ivers
▁leg it
▁vill ain
ud ge
▁mis rep
▁aust in
▁bow ls
▁de wal
▁wr ink
▁rec ip
li x
▁travel s
▁anth ology
ic ation
▁"g reat
▁p as
▁2 9
▁belie ving
▁express ion
▁weak ness
▁expans ion
f ire
▁ ****
▁war ped
▁grand ma
▁horri fic
▁to xic
▁score s
▁exec ut
a ust
▁mel t
▁kud os
▁begin ing
▁sl iding
▁hor rend
▁gri ef
▁miser able
▁yout ube
▁out come
▁r ud
▁americ a's
▁po pping
▁ess ay
▁adjust ed
▁stereotyp es
▁scholar ly
▁is :
▁sc iss
os is
▁ra ge
▁continu ing
▁regg ae
▁r ides
▁hand ful
▁cy n
▁nice 

▁j ig
y ard
▁gra in
▁stat istics
ad er
ir v
▁ad oles
▁defin ed
▁father 's
▁board s
▁he ats
f ers
▁cou ch
▁wonderful 

▁fl ies
▁pick y
▁scient ist
▁unfor get
b ath
▁over t
▁bol t
▁pack ages
▁gri ff
▁king dom
am ps
▁canad ian
▁6 th
▁compos er
▁scre ens
play er
▁foc using
▁ina ppro
▁real ism
1 9
▁be an
▁walk er
un ge
▁bed time
▁$ $
▁visual s
▁to es
▁cr unch
▁academ y
▁tw ilight
▁rem ed
▁pl ague
▁p ist
▁unpl ug
u ries
▁man "
▁second ly
▁am pl
▁rec on
▁back wards
▁pe ak
▁shap es
le ar
▁m int
ir ation
▁pl acing
▁attach ments
▁moist uri
▁l ane
▁new ly
▁hd tv
▁fran ch
▁tight ly
h and
▁invest ing
▁n ipp
▁mo ck
▁protect or
▁d m
▁slight est
▁excess ive
p ro
▁fl our
▁vers us
▁pri ze
▁pos es
▁pat ric
▁theat ers
▁br ick
b id
ow ed
▁re vis
▁e ag
▁new born
▁sol ar
▁reminis cent
▁w ann
▁ly ric
k ien
▁c ube
▁compe lled
▁chronic les
▁version 

▁reh ash
▁k r
▁st amp
▁mo z
▁prin ters
▁blur ry
▁peo ples
▁jewel ry
a ire
▁un im
▁le x
▁phot ographer
▁nav y
▁pat ri
▁emerg ency
▁rel uct
▁loc ated
▁cop ied
h ard
▁lo ading
▁strugg led
▁bo bby
▁integr ity
▁gim m
▁build s
▁199 8
ch a
▁and re
▁influ ences
ad d
▁landsc ape
ch y
▁aw ake
▁ce iling
▁tow els
▁rock ing
▁$2 00
▁gain ed
re sh
▁p ent
▁mar ine
▁resist ance
▁mexic an
▁w ard
▁p bs
▁em inem
▁decept ive
▁k ara
▁christ ina
▁disc ou
▁miss ions
▁lim its
▁' g
▁comfort ably
▁kitchen aid
▁ho llow
▁sp onge
it ual
▁down loading
▁perform er
▁fail ing
▁bet ray
▁thanks 

▁expl icit
▁press ing
▁spec ies
▁ch oos
▁tri ple
▁mail ed
▁se ams
▁ground s
▁apply ing
1 8
▁small 

▁dou gl
▁ha v
▁master ful
▁shir ts
▁an ch
▁store d
▁f usion
▁share s
▁rain bow
▁"s u
/ 3
▁time "
▁sat ire
▁lau ra
▁tr ump
▁dewal t
▁ref lection
▁enc los
o z
▁great ness
▁ge or
▁" let
▁annivers ary
zz le
▁pul p
▁diss atisfied
▁cance lled
▁phill ips
▁humid ifier
e it
h ar
▁p g
▁squee ze
▁vis ited
▁resol ved
▁irre le
▁the ology
▁p ouch
▁cr an
▁free zes
▁cons :
▁regard s
▁i an
▁cance l
▁tol kien
▁conven ience
▁dom in
▁n irv
▁happy 

▁brilli antly
s ing
▁" old
wr iter
z illa
▁cra m
▁cur t
▁van illa
oth y
m al
▁per ce
▁ex agger
▁ken ned
▁mid night
▁invol ve
▁tap ed
▁he nd
▁represent ed
▁alph abet
▁mar c
▁experien cing
▁photos hop
▁eld er
▁thr ows
▁ple asing
▁teach ings
▁warri or
▁kod ak
▁r uth
▁eng aged
▁fount ain
▁pa le
▁ire land
▁re form
▁k aren
▁require ments
pl ess
▁wish es
▁repe ating
▁90 %
▁f etch
▁re un
qu est
▁lege nds
▁reco very
▁" co
▁int imate
▁replace ments
▁g le
▁fra ud
▁unlike ly
▁sound 

▁prepar ation
▁ri pping
▁immense ly
▁was t
▁deal t
▁hands et
▁enth r
▁week ly
/ 11
▁aw ards
▁spo on
▁trick y
▁c ind
▁gen esis
▁imag ined
▁dis gu
▁alb eit
▁perman ent
▁ch ord
▁port rays
▁brilli ance
▁m ower
▁ch at
▁cr own
▁transl ated
▁observ ations
w est
ab led
▁spe ars
▁live ly
▁weap on
▁indic ate
▁ind ie
▁kn ees
▁high s
▁expl oration
▁bless ed
▁p ins
▁box ed
▁commer cials
▁ramb ling
▁w reck
at able
w ith
▁park er
▁b am
in ished
▁rec over
▁6 5
▁li ps
▁j ill
cl op
▁co des
▁s ib
▁hel met
▁stuff ed
▁sequ els
▁ver se
▁m orm
▁lin col
▁job 

▁roll ed
qu er
▁concert s
▁pl um
ci ence
▁fl ood
▁pu ff
▁no v
▁fl op
▁5 /5
▁dispos able
▁cl ap
▁ear n
▁bal d
▁2 50
▁rel ie
▁bored om
▁om g
▁doct ors
▁a ven
▁"b ig
▁accept ed
▁direct ors
▁secure ly
▁na ive
▁pl od
▁dry ing
6 4
f ied
▁where as
▁bi kes
▁tri o
▁mar g
▁be e
▁rach el
▁c gi
▁hy ster
▁s our
▁ball et
▁fool ish
▁ex quisite
ro l
▁year 

▁super natural
▁blur ay
▁here 

▁flav ors
▁polish ed
ins on
▁crad le
▁engross ing
▁repl ay
i ant
w o
▁this :
▁sh y
▁tact ics
▁stead y
' '
om er
▁histor ic
▁t u
▁net gear
c ers
▁u h
▁ent itled
▁outd oors
▁en cy
▁divor ce
▁a ka
▁ine vit
▁ro ast
▁recharge able
▁att rib
▁cand le
▁ne l
▁bu cket
▁manufactur ers
zzzz zzzz
▁inconsist ent
▁bec u
▁atro cious
▁revel ation
b et
▁tri pe
▁vall ey
▁embar ass
▁sur ge
▁distort ion
▁respons ibility
▁affect ed
▁vul gar
▁world "
▁bookshel f
▁surv ived
▁"b ad
▁int im
▁second ary
▁lad der
▁sew ing
▁contain ing
▁enough 

▁mer ch
