{
  "version": "1.0",
  "truncation": null,
  "padding": null,
  "added_tokens": [
    {
      "id": 0,
      "content": "<unk>",
      "single_word": false,
      "lstrip": false,
      "rstrip": false,
      "normalized": false,
      "special": true
    }
  ],
  "normalizer": {
    "type": "NFKC"
  },
  "pre_tokenizer": {
    "type": "Metaspace",
    "replacement": "▁",
    "add_prefix_space": true
  },
  "post_processor": null,
  "decoder": {
    "type": "Metaspace",
    "replacement": "▁",
    "add_prefix_space": true
  },
  "model": {
    "type": "BPE",
    "dropout": null,
    "unk_token": "<unk>",
    "continuing_subword_prefix": null,
    "end_of_word_suffix": null,
    "fuse_unk": false,
    "byte_fallback": false,
    "vocab": {
      "<unk>": 0,
      "\u0002": 1,
      "\u0003": 2,
      "\u0004": 3,
      "\u0005": 4,
      "\u0007": 5,
      "\b": 6,
      "\n": 7,
      "\r": 8,
      "\u000f": 9,
      "\u0010": 10,
      "\u0012": 11,
      "\u0013": 12,
      "\u0014": 13,
      "\u0015": 14,
      "\u0016": 15,
      "\u0017": 16,
      "\u0018": 17,
      "\u0019": 18,
      "\u001b": 19,
      "\"": 20,
      "#": 21,
      "$": 22,
      "%": 23,
      "&": 24,
      "'": 25,
      "*": 26,
      "+": 27,
      ".": 28,
      "/": 29,
      "0": 30,
      "1": 31,
      "2": 32,
      "3": 33,
      "4": 34,
      "5": 35,
      "6": 36,
      "7": 37,
      "8": 38,
      "9": 39,
      ":": 40,
      ";": 41,
      "<": 42,
      "=": 43,
      ">": 44,
      "@": 45,
      "M": 46,
      "T": 47,
      "[": 48,
      "\\": 49,
      "]": 50,
      "^": 51,
      "`": 52,
      "a": 53,
      "b": 54,
      "c": 55,
      "d": 56,
      "e": 57,
      "f": 58,
      "g": 59,
      "h": 60,
      "i": 61,
      "j": 62,
      "k": 63,
      "l": 64,
      "m": 65,
      "n": 66,
      "o": 67,
      "p": 68,
      "q": 69,
      "r": 70,
      "s": 71,
      "t": 72,
      "u": 73,
      "v": 74,
      "w": 75,
      "x": 76,
      "y": 77,
      "z": 78,
      "{": 79,
      "|": 80,
      "}": 81,
      "~": 82,
      "": 83,
      "¡": 84,
      "¿": 85,
      "ß": 86,
      "à": 87,
      "á": 88,
      "ã": 89,
      "ä": 90,
      "è": 91,
      "é": 92,
      "ì": 93,
      "í": 94,
      "ñ": 95,
      "ò": 96,
      "ó": 97,
      "ö": 98,
      "ù": 99,
      "ú": 100,
      "ü": 101,
      "œ": 102,
      "ƒ": 103,
      "́": 104,
      "ω": 105,
      "–": 106,
      "—": 107,
      "‘": 108,
      "’": 109,
      "“": 110,
      "”": 111,
      "„": 112,
      "†": 113,
      "•": 114,
      "′": 115,
      "€": 116,
      "↓": 117,
      "∂": 118,
      "∅": 119,
      "≠": 120,
      "⊂": 121,
      "⊕": 122,
      "▁": 123,
      "♠": 124,
      "♣": 125,
      "♥": 126,
      "♦": 127,
      "⟨": 128,
      "▁t": 129,
      "▁a": 130,
      "▁th": 131,
      "▁i": 132,
      "er": 133,
      "▁s": 134,
      "▁w": 135,
      "▁the": 136,
      "▁b": 137,
      "▁o": 138,
      "in": 139,
      "re": 140,
      "▁m": 141,
      "nd": 142,
      "▁f": 143,
      "▁c": 144,
      "▁h": 145,
      "ou": 146,
      "at": 147,
      "is": 148,
      "or": 149,
      "▁p": 150,
      "on": 151,
      "ing": 152,
      "▁d": 153,
      "es": 154,
      "en": 155,
      "▁to": 156,
      "ed": 157,
      "▁and": 158,
      "▁l": 159,
      "ll": 160,
      "as": 161,
      "\r\n": 162,
      "▁it": 163,
      "▁g": 164,
      "it": 165,
      "▁n": 166,
      "an": 167,
      "ar": 168,
      "▁of": 169,
      "▁in": 170,
      "▁re": 171,
      "▁this": 172,
      "▁is": 173,
      "ot": 174,
      "ic": 175,
      "▁e": 176,
      "oo": 177,
      "le": 178,
      "ve": 179,
      "om": 180,
      "ut": 181,
      "us": 182,
      "▁\r\n": 183,
      "▁on": 184,
      "▁y": 185,
      "▁be": 186,
      "ver": 187,
      "ad": 188,
      "al": 189,
      "ly": 190,
      "▁for": 191,
      "▁wh": 192,
      "▁you": 193,
      "ct": 194,
      "▁st": 195,
      "et": 196,
      "ow": 197,
      "ook": 198,
      "gh": 199,
      "ion": 200,
      "▁that": 201,
      "ld": 202,
      "ch": 203,
      "▁was": 204,
      "ay": 205,
      "ent": 206,
      "▁not": 207,
      "▁ha": 208,
      "st": 209,
      "ro": 210,
      "ith": 211,
      "id": 212,
      "ter": 213,
      "▁with": 214,
      "me": 215,
      "ke": 216,
      "▁book": 217,
      "▁an": 218,
      "▁but": 219,
      "ce": 220,
      "all": 221,
      "▁mo": 222,
      "ri": 223,
      "th": 224,
      "'s": 225,
      "▁u": 226,
      "▁my": 227,
      "se": 228,
      "▁li": 229,
      "ra": 230,
      "'t": 231,
      "▁j": 232,
      "▁have": 233,
      "▁sh": 234,
      "▁as": 235,
      "ur": 236,
      "ck": 237,
      "ie": 238,
      "▁ch": 239,
      "ir": 240,
      "ould": 241,
      "ere": 242,
      "▁se": 243,
      "ght": 244,
      "▁are": 245,
      "▁al": 246,
      "▁he": 247,
      "▁so": 248,
      "very": 249,
      "▁wor": 250,
      "▁we": 251,
      "ust": 252,
      "ill": 253,
      "▁do": 254,
      "pp": 255,
      "ble": 256,
      "▁pro": 257,
      "▁ex": 258,
      "▁ne": 259,
      "▁\"": 260,
      "▁one": 261,
      "il": 262,
      "ally": 263,
      "reat": 264,
      "est": 265,
      "ood": 266,
      "ul": 267,
      "▁com": 268,
      "▁k": 269,
      "▁us": 270,
      "ers": 271,
      "▁all": 272,
      "▁de": 273,
      "▁r": 274,
      "▁me": 275,
      "▁at": 276,
      "um": 277,
      "▁or": 278,
      "pe": 279,
      "▁great": 280,
      "one": 281,
      "out": 282,
      "ist": 283,
      "▁read": 284,
      "ge": 285,
      "▁fr": 286,
      "▁if": 287,
      "vie": 288,
      "▁su": 289,
      "im": 290,
      "ome": 291,
      "▁they": 292,
      "▁ab": 293,
      "▁very": 294,
      "ant": 295,
      "qu": 296,
      "ess": 297,
      "▁lo": 298,
      "▁good": 299,
      "▁ma": 300,
      "▁like": 301,
      "▁pl": 302,
      "am": 303,
      "un": 304,
      "▁v": 305,
      "▁can": 306,
      "ong": 307,
      "▁out": 308,
      "▁just": 309,
      "▁con": 310,
      "▁co": 311,
      "▁from": 312,
      "▁am": 313,
      "▁no": 314,
      "▁would": 315,
      "n't": 316,
      "▁get": 317,
      "ound": 318,
      "ice": 319,
      "ain": 320,
      "ation": 321,
      "ast": 322,
      "ive": 323,
      "ack": 324,
      "ard": 325,
      "em": 326,
      "▁work": 327,
      "art": 328,
      "if": 329,
      "el": 330,
      "▁about": 331,
      "▁ti": 332,
      "▁up": 333,
      "▁what": 334,
      "▁any": 335,
      "▁un": 336,
      "ame": 337,
      "▁has": 338,
      "▁bu": 339,
      "ough": 340,
      "▁dis": 341,
      "▁po": 342,
      "ind": 343,
      "▁tr": 344,
      "ate": 345,
      "▁i'": 346,
      "▁will": 347,
      "ven": 348,
      "ear": 349,
      "ies": 350,
      "▁some": 351,
      "▁more": 352,
      "ure": 353,
      "▁had": 354,
      "ple": 355,
      "and": 356,
      "her": 357,
      "▁there": 358,
      "ap": 359,
      "▁rec": 360,
      "▁en": 361,
      "▁when": 362,
      "▁your": 363,
      "▁qu": 364,
      "▁1": 365,
      "uct": 366,
      "▁time": 367,
      "▁it's": 368,
      "▁by": 369,
      "▁go": 370,
      "on't": 371,
      "ig": 372,
      "ort": 373,
      "int": 374,
      "▁who": 375,
      "▁fe": 376,
      "ol": 377,
      "ect": 378,
      "act": 379,
      "▁did": 380,
      "ought": 381,
      "▁oth": 382,
      "▁only": 383,
      "ity": 384,
      "▁than": 385,
      "able": 386,
      "▁how": 387,
      "itt": 388,
      "ite": 389,
      "▁man": 390,
      "▁movie": 391,
      "ous": 392,
      "ine": 393,
      "▁his": 394,
      "▁prod": 395,
      "▁pre": 396,
      "ore": 397,
      "are": 398,
      "▁le": 399,
      "▁buy": 400,
      "▁wr": 401,
      "ory": 402,
      "▁really": 403,
      "▁don't": 404,
      "▁cl": 405,
      "▁ad": 406,
      "▁them": 407,
      "▁does": 408,
      "▁af": 409,
      "▁her": 410,
      "▁bec": 411,
      "pl": 412,
      "▁well": 413,
      "ak": 414,
      "▁2": 415,
      "▁pr": 416,
      "▁mu": 417,
      "▁too": 418,
      "▁other": 419,
      "ag": 420,
      "pt": 421,
      "▁kn": 422,
      "ight": 423,
      "ink": 424,
      "use": 425,
      "▁product": 426,
      "ich": 427,
      "▁te": 428,
      "▁over": 429,
      "▁sc": 430,
      "▁fir": 431,
      "▁int": 432,
      "▁even": 433,
      "ide": 434,
      "▁bet": 435,
      "ick": 436,
      "▁look": 437,
      "▁much": 438,
      "▁first": 439,
      "ment": 440,
      "ause": 441,
      "▁ar": 442,
      "nder": 443,
      "▁these": 444,
      "▁after": 445,
      "ab": 446,
      "hing": 447,
      "ss": 448,
      "▁love": 449,
      "▁ag": 450,
      "▁could": 451,
      "ful": 452,
      "view": 453,
      "oy": 454,
      "▁every": 455,
      "▁year": 456,
      "▁use": 457,
      "▁she": 458,
      "ved": 459,
      "so": 460,
      "▁because": 461,
      "age": 462,
      "te": 463,
      "▁want": 464,
      "ud": 465,
      "ish": 466,
      "▁cd": 467,
      "▁were": 468,
      "ff": 469,
      "ase": 470,
      "▁sa": 471,
      "▁fa": 472,
      "ays": 473,
      "nt": 474,
      "ire": 475,
      "own": 476,
      "▁im": 477,
      "▁off": 478,
      "▁alb": 479,
      "▁best": 480,
      "▁been": 481,
      "ep": 482,
      "▁per": 483,
      "▁tw": 484,
      "▁char": 485,
      "▁which": 486,
      "▁bl": 487,
      "▁act": 488,
      "atch": 489,
      "▁album": 490,
      "▁ho": 491,
      "our": 492,
      "▁better": 493,
      "ue": 494,
      "▁think": 495,
      "▁sp": 496,
      "ass": 497,
      "az": 498,
      "▁back": 499,
      "▁new": 500,
      "ves": 501,
      "▁their": 502,
      "▁mus": 503,
      "per": 504,
      "urn": 505,
      "ppo": 506,
      "ade": 507,
      "▁song": 508,
      "▁also": 509,
      "▁play": 510,
      "▁story": 511,
      "▁know": 512,
      "ry": 513,
      "▁music": 514,
      "ach": 515,
      "▁bought": 516,
      "▁ser": 517,
      "▁comp": 518,
      "mend": 519,
      "▁inter": 520,
      "ions": 521,
      "iz": 522,
      "other": 523,
      "ci": 524,
      "▁thing": 525,
      "▁then": 526,
      "▁pe": 527,
      "▁way": 528,
      "▁pur": 529,
      "▁now": 530,
      "▁recom": 531,
      "▁aw": 532,
      "▁ro": 533,
      "ittle": 534,
      "▁review": 535,
      "▁recommend": 536,
      "▁most": 537,
      "▁ke": 538,
      "oney": 539,
      "▁gu": 540,
      "▁little": 541,
      "fer": 542,
      "vel": 543,
      "▁fl": 544,
      "▁thr": 545,
      "▁need": 546,
      "orm": 547,
      "▁got": 548,
      "▁des": 549,
      "lf": 550,
      "▁see": 551,
      "ving": 552,
      "▁i'm": 553,
      "▁3": 554,
      "ile": 555,
      "▁many": 556,
      "▁money": 557,
      "▁sound": 558,
      "▁old": 559,
      "ans": 560,
      "▁cont": 561,
      "ip": 562,
      "▁into": 563,
      "der": 564,
      "▁fun": 565,
      "igh": 566,
      "ality": 567,
      "▁eas": 568,
      "ict": 569,
      "od": 570,
      "▁amaz": 571,
      "▁bad": 572,
      "ull": 573,
      "▁make": 574,
      "▁never": 575,
      "▁should": 576,
      "ated": 577,
      "ious": 578,
      "ence": 579,
      "▁fil": 580,
      "ppoint": 581,
      "ose": 582,
      "▁its": 583,
      "▁disa": 584,
      "ased": 585,
      "▁find": 586,
      "▁purch": 587,
      "▁two": 588,
      "▁inst": 589,
      "ens": 590,
      "▁still": 591,
      "▁spe": 592,
      "ace": 593,
      "ult": 594,
      "▁end": 595,
      "▁disappoint": 596,
      "00": 597,
      "og": 598,
      "vers": 599,
      "▁dif": 600,
      "▁ri": 601,
      "ph": 602,
      "os": 603,
      "▁part": 604,
      "▁ever": 605,
      "fe": 606,
      "ical": 607,
      "ance": 608,
      "▁made": 609,
      "▁charact": 610,
      "gin": 611,
      "omet": 612,
      "pect": 613,
      "ting": 614,
      "▁peo": 615,
      "cc": 616,
      "▁tra": 617,
      "ree": 618,
      "▁people": 619,
      "▁dv": 620,
      "▁watch": 621,
      "▁again": 622,
      "▁books": 623,
      "▁br": 624,
      "▁mak": 625,
      "▁high": 626,
      "uth": 627,
      "ary": 628,
      "ord": 629,
      "▁dvd": 630,
      "ater": 631,
      "▁say": 632,
      "▁exce": 633,
      "▁through": 634,
      "wn": 635,
      "▁gr": 636,
      "▁sm": 637,
      "ars": 638,
      "▁ta": 639,
      "joy": 640,
      "▁put": 641,
      "▁somet": 642,
      "▁che": 643,
      "▁down": 644,
      "▁years": 645,
      "▁long": 646,
      "▁enjoy": 647,
      "form": 648,
      "▁app": 649,
      "▁list": 650,
      "▁ph": 651,
      "▁ra": 652,
      "▁i've": 653,
      "▁set": 654,
      "co": 655,
      "▁tri": 656,
      "▁5": 657,
      "▁mon": 658,
      "ild": 659,
      "▁worth": 660,
      "self": 661,
      "▁quality": 662,
      "▁hard": 663,
      "▁game": 664,
      "▁seem": 665,
      "ber": 666,
      "▁real": 667,
      "▁lot": 668,
      "▁used": 669,
      "▁may": 670,
      "▁show": 671,
      "op": 672,
      "▁didn't": 673,
      "▁film": 674,
      "thing": 675,
      "oth": 676,
      "▁found": 677,
      "▁bo": 678,
      "fore": 679,
      "▁reading": 680,
      "ever": 681,
      "ft": 682,
      "▁inc": 683,
      "ang": 684,
      "▁under": 685,
      "▁another": 686,
      "▁jo": 687,
      "ac": 688,
      "▁sl": 689,
      "▁same": 690,
      "▁try": 691,
      "▁hel": 692,
      "ily": 693,
      "blem": 694,
      "▁thought": 695,
      "▁sim": 696,
      "▁problem": 697,
      "ually": 698,
      "▁auth": 699,
      "▁life": 700,
      "▁interest": 701,
      "ise": 702,
      "▁before": 703,
      "▁start": 704,
      "imes": 705,
      "▁you'": 706,
      "▁fo": 707,
      "▁happ": 708,
      "ors": 709,
      "les": 710,
      "ition": 711,
      "ial": 712,
      "▁help": 713,
      "ty": 714,
      "▁while": 715,
      "▁4": 716,
      "▁few": 717,
      "▁feel": 718,
      "ub": 719,
      "mo": 720,
      "▁can't": 721,
      "▁songs": 722,
      "ert": 723,
      "▁cle": 724,
      "▁fin": 725,
      "less": 726,
      "▁imp": 727,
      "au": 728,
      "ark": 729,
      "ason": 730,
      "▁price": 731,
      "ning": 732,
      "atter": 733,
      "▁wo": 734,
      "ail": 735,
      "iting": 736,
      "▁own": 737,
      "▁last": 738,
      "▁something": 739,
      "▁doesn't": 740,
      "end": 741,
      "xt": 742,
      "▁our": 743,
      "▁res": 744,
      "▁order": 745,
      "ating": 746,
      "▁differ": 747,
      "ics": 748,
      "▁easy": 749,
      "fect": 750,
      "ress": 751,
      "▁sin": 752,
      "▁bel": 753,
      "▁ret": 754,
      "ations": 755,
      "▁ins": 756,
      "▁nice": 757,
      "▁keep": 758,
      "ool": 759,
      "▁works": 760,
      "ces": 761,
      "▁amazon": 762,
      "▁hand": 763,
      "ks": 764,
      "de": 765,
      "▁cou": 766,
      "▁min": 767,
      "ual": 768,
      "▁wonder": 769,
      "li": 770,
      "▁right": 771,
      "we": 772,
      "▁big": 773,
      "▁ent": 774,
      "get": 775,
      "be": 776,
      "▁excell": 777,
      "▁must": 778,
      "▁however": 779,
      "red": 780,
      "▁listen": 781,
      "▁give": 782,
      "▁ed": 783,
      "▁those": 784,
      "▁op": 785,
      "▁why": 786,
      "ible": 787,
      "▁excellent": 788,
      "▁going": 789,
      "▁being": 790,
      "▁author": 791,
      "▁looking": 792,
      "▁expect": 793,
      "▁since": 794,
      "ute": 795,
      "▁him": 796,
      "▁month": 797,
      "▁car": 798,
      "▁where": 799,
      "▁here": 800,
      "ign": 801,
      "▁pers": 802,
      "▁str": 803,
      "gg": 804,
      "▁day": 805,
      "▁characters": 806,
      "ave": 807,
      "▁gi": 808,
      "▁waste": 809,
      "▁mis": 810,
      "ps": 811,
      "▁el": 812,
      "▁war": 813,
      "▁enough": 814,
      "▁def": 815,
      "▁nothing": 816,
      "▁gl": 817,
      "av": 818,
      "▁vers": 819,
      "▁stu": 820,
      "▁comple": 821,
      "▁add": 822,
      "ents": 823,
      "▁far": 824,
      "ian": 825,
      "▁child": 826,
      "▁fan": 827,
      "▁anyone": 828,
      "▁poor": 829,
      "ath": 830,
      "▁different": 831,
      "▁disappointed": 832,
      "▁times": 833,
      "▁att": 834,
      "▁coll": 835,
      "io": 836,
      "▁ter": 837,
      "▁series": 838,
      "▁class": 839,
      "▁makes": 840,
      "ix": 841,
      "riend": 842,
      "▁em": 843,
      "itten": 844,
      "▁take": 845,
      "▁dec": 846,
      "▁though": 847,
      "▁return": 848,
      "▁without": 849,
      "▁gra": 850,
      "▁such": 851,
      "▁ext": 852,
      "▁sing": 853,
      "cks": 854,
      "▁ori": 855,
      "▁small": 856,
      "rible": 857,
      "ures": 858,
      "augh": 859,
      "▁written": 860,
      "▁turn": 861,
      "▁&": 862,
      "▁fav": 863,
      "ower": 864,
      "▁chr": 865,
      "▁bit": 866,
      "ia": 867,
      "iv": 868,
      "▁rece": 869,
      "▁$": 870,
      "▁acc": 871,
      "ren": 872,
      "▁hor": 873,
      "stand": 874,
      "▁'": 875,
      "wh": 876,
      "ash": 877,
      "▁perfect": 878,
      "▁wa": 879,
      "▁sure": 880,
      "▁tak": 881,
      "▁pret": 882,
      "▁person": 883,
      "▁cr": 884,
      "▁ple": 885,
      "▁item": 886,
      "read": 887,
      "▁ear": 888,
      "ather": 889,
      "ings": 890,
      "▁both": 891,
      "▁origin": 892,
      "▁purchased": 893,
      "▁vo": 894,
      "ny": 895,
      "ately": 896,
      "ead": 897,
      "▁sur": 898,
      "▁around": 899,
      "ne": 900,
      "▁pict": 901,
      "▁defin": 902,
      "▁rel": 903,
      "ways": 904,
      "▁gen": 905,
      "vice": 906,
      "cri": 907,
      "▁let": 908,
      "▁belie": 909,
      "ys": 910,
      "▁reviews": 911,
      "ize": 912,
      "▁friend": 913,
      "▁favor": 914,
      "ont": 915,
      "ably": 916,
      "▁pretty": 917,
      "pped": 918,
      "▁come": 919,
      "▁sub": 920,
      "ertain": 921,
      "▁sk": 922,
      "▁tal": 923,
      "▁bor": 924,
      "▁cons": 925,
      "▁using": 926,
      "▁inform": 927,
      "▁less": 928,
      "▁kid": 929,
      "▁kind": 930,
      "ange": 931,
      "▁es": 932,
      "▁light": 933,
      "▁call": 934,
      "▁wee": 935,
      "▁rem": 936,
      "ages": 937,
      "▁fact": 938,
      "▁actually": 939,
      "▁record": 940,
      "▁away": 941,
      "▁world": 942,
      "cond": 943,
      "▁things": 944,
      "aut": 945,
      "fort": 946,
      "▁band": 947,
      "its": 948,
      "▁interesting": 949,
      "▁vide": 950,
      "▁complete": 951,
      "▁point": 952,
      "▁fam": 953,
      "▁always": 954,
      "▁ind": 955,
      "ons": 956,
      "▁pie": 957,
      "ative": 958,
      "▁version": 959,
      "▁christ": 960,
      "▁lear": 961,
      "▁second": 962,
      "astic": 963,
      "▁repl": 964,
      "▁each": 965,
      "ked": 966,
      "ced": 967,
      "▁art": 968,
      "▁head": 969,
      "▁sy": 970,
      "llow": 971,
      "▁disc": 972,
      "▁cra": 973,
      "▁hist": 974,
      "▁anything": 975,
      "als": 976,
      "most": 977,
      "▁6": 978,
      "▁bra": 979,
      "ott": 980,
      "▁stars": 981,
      "▁tell": 982,
      "▁came": 983,
      "▁star": 984,
      "▁top": 985,
      "ense": 986,
      "▁care": 987,
      "▁recei": 988,
      "ular": 989,
      "▁loved": 990,
      "▁son": 991,
      "▁ide": 992,
      "▁exper": 993,
      "▁wonderful": 994,
      "ience": 995,
      "▁cover": 996,
      "▁cheap": 997,
      "▁seems": 998,
      "▁tried": 999,
      "▁beaut": 1000,
      "▁almost": 1001,
      "▁novel": 1002,
      "▁understand": 1003,
      "▁dri": 1004,
      "▁col": 1005,
      "▁cam": 1006,
      "▁av": 1007,
      "▁dra": 1008,
      "▁ty": 1009,
      "ction": 1010,
      "lud": 1011,
      "▁original": 1012,
      "▁det": 1013,
      "ection": 1014,
      "▁full": 1015,
      "▁pack": 1016,
      "ib": 1017,
      "pr": 1018,
      "▁bro": 1019,
      "▁word": 1020,
      "▁months": 1021,
      "▁plot": 1022,
      "day": 1023,
      "ger": 1024,
      "▁quite": 1025,
      "▁ob": 1026,
      "▁eff": 1027,
      "▁ev": 1028,
      "ption": 1029,
      "▁z": 1030,
      "pping": 1031,
      "▁batter": 1032,
      "▁yet": 1033,
      "▁descri": 1034,
      "▁said": 1035,
      "▁hum": 1036,
      "▁rele": 1037,
      "▁box": 1038,
      "▁once": 1039,
      "▁abs": 1040,
      "ount": 1041,
      "▁bas": 1042,
      "▁ok": 1043,
      "▁writing": 1044,
      "▁video": 1045,
      "▁reg": 1046,
      "▁reason": 1047,
      "▁done": 1048,
      "ward": 1049,
      "▁rep": 1050,
      "▁highly": 1051,
      "▁purchase": 1052,
      "▁sever": 1053,
      "ouse": 1054,
      "man": 1055,
      "ner": 1056,
      "▁short": 1057,
      "▁includ": 1058,
      "▁exp": 1059,
      "oom": 1060,
      "eric": 1061,
      "▁open": 1062,
      "aster": 1063,
      "ware": 1064,
      "▁getting": 1065,
      "vious": 1066,
      "▁run": 1067,
      "▁met": 1068,
      "▁miss": 1069,
      "▁else": 1070,
      "▁hold": 1071,
      "▁stand": 1072,
      "▁stud": 1073,
      "▁next": 1074,
      "▁seen": 1075,
      "▁power": 1076,
      "ock": 1077,
      "▁19": 1078,
      "▁sch": 1079,
      "▁instead": 1080,
      "▁sty": 1081,
      "itch": 1082,
      "▁di": 1083,
      "fic": 1084,
      "led": 1085,
      "▁having": 1086,
      "the": 1087,
      "▁whole": 1088,
      "▁information": 1089,
      "▁boring": 1090,
      "▁everything": 1091,
      "▁supp": 1092,
      "▁dr": 1093,
      "ories": 1094,
      "▁scre": 1095,
      "▁might": 1096,
      "ract": 1097,
      "▁pa": 1098,
      "▁prob": 1099,
      "▁worst": 1100,
      "▁fine": 1101,
      "▁unt": 1102,
      "▁begin": 1103,
      "▁you're": 1104,
      "▁beautif": 1105,
      "▁wanted": 1106,
      "▁10": 1107,
      "ject": 1108,
      "ited": 1109,
      "▁sw": 1110,
      "▁favorite": 1111,
      "▁cor": 1112,
      "▁quick": 1113,
      "▁days": 1114,
      "▁believe": 1115,
      "▁several": 1116,
      "ee": 1117,
      "▁8": 1118,
      "king": 1119,
      "▁sol": 1120,
      "▁character": 1121,
      "▁three": 1122,
      "▁maybe": 1123,
      "▁home": 1124,
      "▁wish": 1125,
      "ues": 1126,
      "▁fit": 1127,
      "▁live": 1128,
      "▁hope": 1129,
      "▁pres": 1130,
      "▁9": 1131,
      "▁true": 1132,
      "▁hour": 1133,
      "▁trying": 1134,
      "▁bre": 1135,
      "▁wrong": 1136,
      "▁ac": 1137,
      "▁expl": 1138,
      "▁mov": 1139,
      "▁received": 1140,
      "▁buying": 1141,
      "▁that's": 1142,
      "▁hal": 1143,
      "mer": 1144,
      "▁job": 1145,
      "cial": 1146,
      "ates": 1147,
      "▁mar": 1148,
      "▁creat": 1149,
      "▁probably": 1150,
      "ically": 1151,
      "ention": 1152,
      "▁movies": 1153,
      "▁ref": 1154,
      "▁isn't": 1155,
      "▁heard": 1156,
      "▁worked": 1157,
      "▁definite": 1158,
      "▁wom": 1159,
      "▁water": 1160,
      "iter": 1161,
      "▁hear": 1162,
      "▁learn": 1163,
      "▁least": 1164,
      "ters": 1165,
      "▁cop": 1166,
      "ift": 1167,
      "▁exc": 1168,
      "unk": 1169,
      "▁someone": 1170,
      "▁able": 1171,
      "▁others": 1172,
      "▁tot": 1173,
      "ature": 1174,
      "cially": 1175,
      "▁amazing": 1176,
      "▁rock": 1177,
      "▁until": 1178,
      "ush": 1179,
      "▁scen": 1180,
      "▁clear": 1181,
      "▁super": 1182,
      "ither": 1183,
      "▁won't": 1184,
      "ised": 1185,
      "ier": 1186,
      "▁sell": 1187,
      "▁toget": 1188,
      "utes": 1189,
      "▁couldn't": 1190,
      "▁together": 1191,
      "▁follow": 1192,
      "▁pick": 1193,
      "▁stuff": 1194,
      "▁ordered": 1195,
      "ames": 1196,
      "bo": 1197,
      "▁eng": 1198,
      "▁ago": 1199,
      "▁happy": 1200,
      "▁definitely": 1201,
      "sh": 1202,
      "era": 1203,
      "▁perform": 1204,
      "▁dire": 1205,
      "▁kids": 1206,
      "arch": 1207,
      "aw": 1208,
      "ness": 1209,
      "▁cut": 1210,
      "▁espe": 1211,
      "▁case": 1212,
      "ready": 1213,
      "▁gir": 1214,
      "▁alth": 1215,
      "ruct": 1216,
      "▁7": 1217,
      "▁family": 1218,
      "▁half": 1219,
      "▁took": 1220,
      "▁americ": 1221,
      "▁absol": 1222,
      "▁clean": 1223,
      "ten": 1224,
      "▁already": 1225,
      "ody": 1226,
      "▁tech": 1227,
      "▁especially": 1228,
      "▁although": 1229,
      "▁design": 1230,
      "▁place": 1231,
      "▁looks": 1232,
      "▁funny": 1233,
      "ster": 1234,
      "▁went": 1235,
      "▁conc": 1236,
      "▁rest": 1237,
      "▁replace": 1238,
      "▁mind": 1239,
      "▁ste": 1240,
      "ider": 1241,
      "gr": 1242,
      "ully": 1243,
      "▁exam": 1244,
      "ides": 1245,
      "▁picture": 1246,
      "lish": 1247,
      "▁enjoyed": 1248,
      "▁inv": 1249,
      "▁piece": 1250,
      "▁ele": 1251,
      "▁started": 1252,
      "▁minutes": 1253,
      "s\r\n": 1254,
      "▁tit": 1255,
      "ug": 1256,
      "uck": 1257,
      "ret": 1258,
      "▁history": 1259,
      "▁lar": 1260,
      "▁gift": 1261,
      "▁absolute": 1262,
      "▁happen": 1263,
      "not": 1264,
      "▁prov": 1265,
      "ram": 1266,
      "▁beautiful": 1267,
      "uring": 1268,
      "rill": 1269,
      "▁collection": 1270,
      "▁saw": 1271,
      "▁gave": 1272,
      "▁cap": 1273,
      "aughter": 1274,
      "▁wasn't": 1275,
      "▁line": 1276,
      "▁style": 1277,
      "▁left": 1278,
      "▁trans": 1279,
      "▁children": 1280,
      "▁val": 1281,
      "▁comes": 1282,
      "bs": 1283,
      "▁liked": 1284,
      "▁night": 1285,
      "▁unit": 1286,
      "ween": 1287,
      "▁pages": 1288,
      "▁gets": 1289,
      "ng": 1290,
      "▁et": 1291,
      "ided": 1292,
      "cy": 1293,
      "▁store": 1294,
      "ensive": 1295,
      "▁cost": 1296,
      "▁compan": 1297,
      "▁form": 1298,
      "▁num": 1299,
      "▁problems": 1300,
      "▁finish": 1301,
      "▁size": 1302,
      "▁between": 1303,
      "ah": 1304,
      "ines": 1305,
      "ake": 1306,
      "▁working": 1307,
      "ows": 1308,
      "▁side": 1309,
      "ments": 1310,
      "up": 1311,
      "mas": 1312,
      "▁i'd": 1313,
      "▁view": 1314,
      "▁terrible": 1315,
      "▁girl": 1316,
      "▁bott": 1317,
      "▁prog": 1318,
      "▁soft": 1319,
      "▁bab": 1320,
      "ote": 1321,
      "esome": 1322,
      "▁detail": 1323,
      "▁everyone": 1324,
      "▁iss": 1325,
      "▁mag": 1326,
      "▁making": 1327,
      "▁myself": 1328,
      "ets": 1329,
      "▁hu": 1330,
      "▁adv": 1331,
      "ently": 1332,
      "▁pain": 1333,
      "▁pay": 1334,
      "ell": 1335,
      "▁conf": 1336,
      "reme": 1337,
      "▁fall": 1338,
      "ird": 1339,
      "▁boy": 1340,
      "ply": 1341,
      "▁awesome": 1342,
      "▁black": 1343,
      "▁god": 1344,
      "▁rather": 1345,
      "▁mark": 1346,
      "ats": 1347,
      "▁classic": 1348,
      "▁voice": 1349,
      "▁either": 1350,
      "▁save": 1351,
      "▁overall": 1352,
      "ized": 1353,
      "olog": 1354,
      "▁hop": 1355,
      "▁mem": 1356,
      "▁med": 1357,
      "▁dep": 1358,
      "ones": 1359,
      "▁fant": 1360,
      "▁shi": 1361,
      "▁tv": 1362,
      "▁simply": 1363,
      "ins": 1364,
      "▁support": 1365,
      "▁free": 1366,
      "▁200": 1367,
      "cess": 1368,
      "▁pop": 1369,
      "ling": 1370,
      "ied": 1371,
      "▁couple": 1372,
      "lic": 1373,
      "▁fast": 1374,
      "▁heart": 1375,
      "▁horrible": 1376,
      "▁mod": 1377,
      "arent": 1378,
      "▁season": 1379,
      "ficult": 1380,
      "▁etc": 1381,
      "▁past": 1382,
      "▁pass": 1383,
      "▁difficult": 1384,
      "uc": 1385,
      "▁main": 1386,
      "▁card": 1387,
      "▁phot": 1388,
      "▁direct": 1389,
      "▁comm": 1390,
      "cept": 1391,
      "▁deal": 1392,
      "▁mean": 1393,
      "▁install": 1394,
      "line": 1395,
      "ustr": 1396,
      "▁fre": 1397,
      "ank": 1398,
      "▁cour": 1399,
      "▁pub": 1400,
      "▁stories": 1401,
      "▁low": 1402,
      "elt": 1403,
      "▁cook": 1404,
      "ing\r\n": 1405,
      "▁idea": 1406,
      "▁daughter": 1407,
      "▁dog": 1408,
      "▁surpr": 1409,
      "▁you'll": 1410,
      "▁check": 1411,
      "▁page": 1412,
      "▁please": 1413,
      "▁stra": 1414,
      "ife": 1415,
      "ew": 1416,
      "stem": 1417,
      "▁comput": 1418,
      "▁extreme": 1419,
      "▁mess": 1420,
      "▁takes": 1421,
      "▁christmas": 1422,
      "▁completely": 1423,
      "▁count": 1424,
      "▁20": 1425,
      "▁lack": 1426,
      "ared": 1427,
      "▁plastic": 1428,
      "▁expected": 1429,
      "▁gar": 1430,
      "▁ep": 1431,
      "▁stay": 1432,
      "▁school": 1433,
      "ired": 1434,
      "▁sounds": 1435,
      "▁sho": 1436,
      "ism": 1437,
      "▁player": 1438,
      "▁camera": 1439,
      "▁guess": 1440,
      "ts": 1441,
      "ility": 1442,
      "▁mater": 1443,
      "▁entertain": 1444,
      "▁system": 1445,
      "▁cool": 1446,
      "▁simple": 1447,
      "▁along": 1448,
      "▁inf": 1449,
      "ists": 1450,
      "▁break": 1451,
      "▁finally": 1452,
      "▁compl": 1453,
      "▁phone": 1454,
      "▁sent": 1455,
      "where": 1456,
      "▁gener": 1457,
      "▁copy": 1458,
      "▁techn": 1459,
      "▁house": 1460,
      "air": 1461,
      "▁battery": 1462,
      "▁x": 1463,
      "uly": 1464,
      "▁ly": 1465,
      "▁material": 1466,
      "fortun": 1467,
      "▁\"the": 1468,
      "▁stick": 1469,
      "br": 1470,
      "▁ann": 1471,
      "▁strong": 1472,
      "▁absolutely": 1473,
      "▁chap": 1474,
      "▁service": 1475,
      "▁track": 1476,
      "ump": 1477,
      "aper": 1478,
      "▁young": 1479,
      "▁reader": 1480,
      "ional": 1481,
      "▁watching": 1482,
      "ream": 1483,
      "ton": 1484,
      "▁sn": 1485,
      "▁text": 1486,
      "▁bar": 1487,
      "fully": 1488,
      "▁unfortun": 1489,
      "▁plan": 1490,
      "▁wait": 1491,
      "▁needed": 1492,
      "▁color": 1493,
      "raph": 1494,
      "▁teach": 1495,
      "▁gre": 1496,
      "▁consider": 1497,
      "▁loves": 1498,
      "▁entire": 1499,
      "▁conn": 1500,
      "ustom": 1501,
      "▁fans": 1502,
      "▁easily": 1503,
      "▁sad": 1504,
      "▁certain": 1505,
      "▁er": 1506,
      "▁experience": 1507,
      "▁arri": 1508,
      "sed": 1509,
      "way": 1510,
      "▁sou": 1511,
      "ross": 1512,
      "itive": 1513,
      "▁effect": 1514,
      "▁speak": 1515,
      "▁goes": 1516,
      "ted": 1517,
      "▁wouldn't": 1518,
      "▁mach": 1519,
      "▁cannot": 1520,
      "ains": 1521,
      "▁ir": 1522,
      "ific": 1523,
      "▁sat": 1524,
      "▁contro": 1525,
      "dd": 1526,
      "▁fail": 1527,
      "▁company": 1528,
      "▁cho": 1529,
      "▁playing": 1530,
      "▁ap": 1531,
      "▁slow": 1532,
      "▁yes": 1533,
      "▁shows": 1534,
      "▁wal": 1535,
      "▁hours": 1536,
      "ric": 1537,
      "iqu": 1538,
      "med": 1539,
      "▁aud": 1540,
      "▁custom": 1541,
      "▁stop": 1542,
      "▁toy": 1543,
      "▁red": 1544,
      "▁chang": 1545,
      "▁level": 1546,
      "▁brand": 1547,
      "▁port": 1548,
      "▁mom": 1549,
      "▁lost": 1550,
      "ror": 1551,
      "mber": 1552,
      "▁baby": 1553,
      "gan": 1554,
      "▁quest": 1555,
      "▁felt": 1556,
      "▁friends": 1557,
      "▁needs": 1558,
      "▁truly": 1559,
      "▁wind": 1560,
      "▁\"s": 1561,
      "▁action": 1562,
      "▁suppo": 1563,
      "▁print": 1564,
      "▁ones": 1565,
      "▁dist": 1566,
      "▁week": 1567,
      "▁i'll": 1568,
      "▁title": 1569,
      "▁mr": 1570,
      "▁words": 1571,
      "▁program": 1572,
      "▁exact": 1573,
      "zz": 1574,
      "att": 1575,
      "▁rom": 1576,
      "▁serious": 1577,
      "▁ey": 1578,
      "▁tast": 1579,
      "▁har": 1580,
      "▁called": 1581,
      "▁today": 1582,
      "▁heav": 1583,
      "▁computer": 1584,
      "▁bag": 1585,
      "▁pri": 1586,
      "▁name": 1587,
      "▁hot": 1588,
      "▁extremely": 1589,
      "▁doing": 1590,
      "res": 1591,
      "▁thinking": 1592,
      "▁course": 1593,
      "▁cur": 1594,
      "ouch": 1595,
      "▁recommended": 1596,
      "ume": 1597,
      "▁mix": 1598,
      "▁weeks": 1599,
      "lo": 1600,
      "velop": 1601,
      "▁pot": 1602,
      "light": 1603,
      "▁spend": 1604,
      "▁present": 1605,
      "hn": 1606,
      "▁says": 1607,
      "sy": 1608,
      "ggest": 1609,
      "▁vol": 1610,
      "▁during": 1611,
      "▁fig": 1612,
      "▁suggest": 1613,
      "▁itself": 1614,
      "iness": 1615,
      "▁mid": 1616,
      "▁contin": 1617,
      "▁sit": 1618,
      "▁given": 1619,
      "▁prof": 1620,
      "ale": 1621,
      "▁laugh": 1622,
      "▁import": 1623,
      "cal": 1624,
      "▁yourself": 1625,
      "▁coff": 1626,
      "▁they'": 1627,
      "und": 1628,
      "na": 1629,
      "▁const": 1630,
      "▁four": 1631,
      "▁write": 1632,
      "ien": 1633,
      "iction": 1634,
      "▁there's": 1635,
      "▁poss": 1636,
      "ond": 1637,
      "▁non": 1638,
      "▁instruct": 1639,
      "▁par": 1640,
      "▁ass": 1641,
      "▁cond": 1642,
      "▁hair": 1643,
      "▁later": 1644,
      "▁unfortunately": 1645,
      "ilar": 1646,
      "▁gives": 1647,
      "istic": 1648,
      "▁close": 1649,
      "▁dont": 1650,
      "eless": 1651,
      "▁fill": 1652,
      "▁step": 1653,
      "aps": 1654,
      "▁ve": 1655,
      "▁type": 1656,
      "▁kill": 1657,
      "▁refer": 1658,
      "▁cent": 1659,
      "▁pract": 1660,
      "book": 1661,
      "hip": 1662,
      "band": 1663,
      "▁near": 1664,
      "▁dou": 1665,
      "▁room": 1666,
      "▁develop": 1667,
      "▁rad": 1668,
      "▁avail": 1669,
      "ney": 1670,
      "▁sense": 1671,
      "▁previous": 1672,
      "▁sto": 1673,
      "ograph": 1674,
      "▁air": 1675,
      "▁played": 1676,
      "▁tracks": 1677,
      "▁bus": 1678,
      "▁pictures": 1679,
      "oint": 1680,
      "▁large": 1681,
      "▁impress": 1682,
      "▁vis": 1683,
      "▁parts": 1684,
      "▁longer": 1685,
      "▁reme": 1686,
      "▁master": 1687,
      "▁john": 1688,
      "▁screen": 1689,
      "▁ill": 1690,
      "kes": 1691,
      "vert": 1692,
      "▁sle": 1693,
      "▁bi": 1694,
      "▁pos": 1695,
      "ient": 1696,
      "▁var": 1697,
      "▁requ": 1698,
      "▁american": 1699,
      "▁sor": 1700,
      "▁model": 1701,
      "rod": 1702,
      "oud": 1703,
      "▁totally": 1704,
      "▁sex": 1705,
      "▁tool": 1706,
      "▁change": 1707,
      "ots": 1708,
      "ices": 1709,
      "▁partic": 1710,
      "▁mor": 1711,
      "son": 1712,
      "▁special": 1713,
      "▁rese": 1714,
      "▁often": 1715,
      "▁matter": 1716,
      "▁self": 1717,
      "▁prom": 1718,
      "▁lead": 1719,
      "▁based": 1720,
      "0's": 1721,
      "▁guy": 1722,
      "▁within": 1723,
      "▁book\r\n": 1724,
      "▁told": 1725,
      "▁single": 1726,
      "ime": 1727,
      "▁prin": 1728,
      "▁quickly": 1729,
      "▁coffee": 1730,
      "▁guit": 1731,
      "▁deli": 1732,
      "▁move": 1733,
      "ming": 1734,
      "▁broke": 1735,
      "▁release": 1736,
      "▁paper": 1737,
      "▁machine": 1738,
      "rect": 1739,
      "▁opin": 1740,
      "▁hus": 1741,
      "▁dark": 1742,
      "▁remember": 1743,
      "right": 1744,
      "ane": 1745,
      "▁\"b": 1746,
      "▁test": 1747,
      "iet": 1748,
      "▁acting": 1749,
      "empt": 1750,
      "tern": 1751,
      "▁imag": 1752,
      "▁beh": 1753,
      "▁junk": 1754,
      "ites": 1755,
      "▁touch": 1756,
      "▁huge": 1757,
      "▁du": 1758,
      "▁thank": 1759,
      "▁listening": 1760,
      "▁metal": 1761,
      "▁lyr": 1762,
      "▁available": 1763,
      "▁haven": 1764,
      "▁albums": 1765,
      "ugg": 1766,
      "▁hon": 1767,
      "▁white": 1768,
      "antly": 1769,
      "▁shipping": 1770,
      "▁husband": 1771,
      "▁typ": 1772,
      "▁awful": 1773,
      "▁ending": 1774,
      "▁men": 1775,
      "iss": 1776,
      "ork": 1777,
      "▁mot": 1778,
      "▁fair": 1779,
      "▁result": 1780,
      "aced": 1781,
      "▁\"h": 1782,
      "eng": 1783,
      "▁seemed": 1784,
      "▁obvious": 1785,
      "ma": 1786,
      "▁lots": 1787,
      "▁haven't": 1788,
      "▁glad": 1789,
      "▁extra": 1790,
      "amp": 1791,
      "ument": 1792,
      "▁pol": 1793,
      "isod": 1794,
      "▁kept": 1795,
      "ken": 1796,
      "▁unless": 1797,
      "▁arrived": 1798,
      "▁games": 1799,
      "▁sometimes": 1800,
      "▁decided": 1801,
      "▁episod": 1802,
      "ution": 1803,
      "iced": 1804,
      "▁useful": 1805,
      "pid": 1806,
      "▁heavy": 1807,
      "ities": 1808,
      "▁age": 1809,
      "▁rid": 1810,
      "▁interested": 1811,
      "ned": 1812,
      "▁women": 1813,
      "▁sorry": 1814,
      "mm": 1815,
      "▁disappointment": 1816,
      "▁\"c": 1817,
      "▁mention": 1818,
      "▁comfort": 1819,
      "bed": 1820,
      "▁looked": 1821,
      "▁food": 1822,
      "land": 1823,
      "▁swe": 1824,
      "▁soon": 1825,
      "ined": 1826,
      "▁products": 1827,
      "▁send": 1828,
      "▁:": 1829,
      "ms": 1830,
      "▁figure": 1831,
      "▁deep": 1832,
      "▁12": 1833,
      "▁sec": 1834,
      "▁ball": 1835,
      "▁guide": 1836,
      "▁dig": 1837,
      "▁replacement": 1838,
      "atic": 1839,
      "▁talent": 1840,
      "mb": 1841,
      "▁fantastic": 1842,
      "▁win": 1843,
      "▁subject": 1844,
      "▁sign": 1845,
      "▁grand": 1846,
      "▁exactly": 1847,
      "▁plus": 1848,
      "ored": 1849,
      "▁number": 1850,
      "▁feat": 1851,
      "no": 1852,
      "▁inside": 1853,
      "▁grou": 1854,
      "▁particular": 1855,
      "▁doll": 1856,
      "▁id": 1857,
      "▁annoy": 1858,
      "▁customer": 1859,
      "▁edition": 1860,
      "▁complain": 1861,
      "▁incred": 1862,
      "▁hit": 1863,
      "asing": 1864,
      "▁la": 1865,
      "▁guitar": 1866,
      "play": 1867,
      "▁control": 1868,
      "▁research": 1869,
      "isf": 1870,
      "▁sus": 1871,
      "▁returned": 1872,
      "ples": 1873,
      "▁scenes": 1874,
      "arr": 1875,
      "▁forward": 1876,
      "▁woman": 1877,
      "jor": 1878,
      "unch": 1879,
      "▁value": 1880,
      "▁disappointing": 1881,
      "▁software": 1882,
      "▁pull": 1883,
      "▁pan": 1884,
      "▁poorly": 1885,
      "▁opinion": 1886,
      "▁addition": 1887,
      "▁key": 1888,
      "▁five": 1889,
      "▁supposed": 1890,
      "▁tre": 1891,
      "▁mine": 1892,
      "▁\"m": 1893,
      "ital": 1894,
      "▁appear": 1895,
      "▁wear": 1896,
      "▁radio": 1897,
      "ler": 1898,
      "▁oh": 1899,
      "oid": 1900,
      "lly": 1901,
      "▁attempt": 1902,
      "▁sme": 1903,
      "▁30": 1904,
      "ances": 1905,
      "▁early": 1906,
      "used": 1907,
      "▁dead": 1908,
      "▁beat": 1909,
      "ology": 1910,
      "ulous": 1911,
      "▁lyrics": 1912,
      "▁sum": 1913,
      "▁advert": 1914,
      "▁appro": 1915,
      "▁diss": 1916,
      "ator": 1917,
      "▁expensive": 1918,
      "▁beginning": 1919,
      "uss": 1920,
      "▁mist": 1921,
      "haps": 1922,
      "▁15": 1923,
      "dle": 1924,
      "▁smo": 1925,
      "▁wife": 1926,
      "▁elect": 1927,
      "▁mel": 1928,
      "cing": 1929,
      "ged": 1930,
      "▁helpful": 1931,
      "▁happened": 1932,
      "▁perhaps": 1933,
      "▁parent": 1934,
      "oose": 1935,
      "ppy": 1936,
      "ex": 1937,
      "umb": 1938,
      "ational": 1939,
      "dy": 1940,
      "▁major": 1941,
      "▁connect": 1942,
      "▁myster": 1943,
      "▁prot": 1944,
      "▁guys": 1945,
      "ique": 1946,
      "▁$1": 1947,
      "lling": 1948,
      "▁adm": 1949,
      "pper": 1950,
      "▁lang": 1951,
      "▁stupid": 1952,
      "▁cast": 1953,
      "▁liter": 1954,
      "▁worse": 1955,
      "orn": 1956,
      "▁weak": 1957,
      "▁fore": 1958,
      "▁bottom": 1959,
      "▁he's": 1960,
      "▁burn": 1961,
      "▁insp": 1962,
      "▁hate": 1963,
      "▁nor": 1964,
      "▁press": 1965,
      "▁except": 1966,
      "body": 1967,
      "ising": 1968,
      "ying": 1969,
      "▁important": 1970,
      "▁cal": 1971,
      "com": 1972,
      "▁thanks": 1973,
      "▁correct": 1974,
      "sw": 1975,
      "▁certainly": 1976,
      "▁remo": 1977,
      "▁batteries": 1978,
      "▁\"f": 1979,
      "els": 1980,
      "▁\"d": 1981,
      "ther": 1982,
      "ior": 1983,
      "▁tun": 1984,
      "owing": 1985,
      "▁anim": 1986,
      "▁mil": 1987,
      "▁performance": 1988,
      "▁effort": 1989,
      "▁introd": 1990,
      "▁hands": 1991,
      "▁personal": 1992,
      "▁become": 1993,
      "▁turned": 1994,
      "▁jack": 1995,
      "ases": 1996,
      "bb": 1997,
      "▁entertaining": 1998,
      "sel": 1999,
      "▁humor": 2000,
      "iny": 2001,
      "▁hol": 2002,
      "▁taking": 2003,
      "▁dry": 2004,
      "▁luck": 2005,
      "▁business": 2006,
      "▁lea": 2007,
      "▁ge": 2008,
      "▁face": 2009,
      "▁langu": 2010,
      "ray": 2011,
      "▁agree": 2012,
      "▁dam": 2013,
      "▁capt": 2014,
      "▁mic": 2015,
      "▁description": 2016,
      "▁hy": 2017,
      "▁graph": 2018,
      "▁setting": 2019,
      "apoint": 2020,
      "ley": 2021,
      "▁market": 2022,
      "side": 2023,
      "▁missing": 2024,
      "**": 2025,
      "▁cable": 2026,
      "tra": 2027,
      "▁basic": 2028,
      "wise": 2029,
      "▁paid": 2030,
      "ered": 2031,
      "mon": 2032,
      "oss": 2033,
      "▁pieces": 2034,
      "itting": 2035,
      "▁weight": 2036,
      "▁stopped": 2037,
      "▁honest": 2038,
      "▁usually": 2039,
      "▁sam": 2040,
      "▁useless": 2041,
      "▁impro": 2042,
      "▁sleep": 2043,
      "▁lab": 2044,
      "▁dro": 2045,
      "▁decent": 2046,
      "▁they're": 2047,
      "aged": 2048,
      "rib": 2049,
      "▁features": 2050,
      "gy": 2051,
      "▁apart": 2052,
      "▁issues": 2053,
      "▁smell": 2054,
      "▁fut": 2055,
      "▁insight": 2056,
      "▁emot": 2057,
      "ians": 2058,
      "net": 2059,
      "▁coming": 2060,
      "▁example": 2061,
      "▁spent": 2062,
      "▁ca": 2063,
      "aging": 2064,
      "▁norm": 2065,
      "board": 2066,
      "▁standard": 2067,
      "▁english": 2068,
      "▁country": 2069,
      "▁answ": 2070,
      "cle": 2071,
      "▁recording": 2072,
      "▁garb": 2073,
      "▁disco": 2074,
      "▁build": 2075,
      "▁ble": 2076,
      "▁chapter": 2077,
      "▁treat": 2078,
      "▁cu": 2079,
      "▁group": 2080,
      "▁mother": 2081,
      "▁cat": 2082,
      "▁seller": 2083,
      "▁watched": 2084,
      "what": 2085,
      "ential": 2086,
      "▁knew": 2087,
      "using": 2088,
      "ining": 2089,
      "▁due": 2090,
      "▁hero": 2091,
      "ef": 2092,
      "ination": 2093,
      "ibly": 2094,
      "▁post": 2095,
      "▁histor": 2096,
      "▁spir": 2097,
      "▁search": 2098,
      "▁it\r\n": 2099,
      "aim": 2100,
      "ina": 2101,
      "▁wire": 2102,
      "rent": 2103,
      "▁sha": 2104,
      "▁resp": 2105,
      "▁bed": 2106,
      "▁annoying": 2107,
      "▁broken": 2108,
      "ky": 2109,
      "▁human": 2110,
      "▁rich": 2111,
      "▁bother": 2112,
      "rew": 2113,
      "▁writer": 2114,
      "ips": 2115,
      "▁front": 2116,
      "▁profess": 2117,
      "▁drive": 2118,
      "▁spec": 2119,
      "▁travel": 2120,
      "▁garbage": 2121,
      "▁trou": 2122,
      "ering": 2123,
      "▁total": 2124,
      "▁ideas": 2125,
      "▁leave": 2126,
      "▁shar": 2127,
      "▁concept": 2128,
      "▁tape": 2129,
      "▁space": 2130,
      "▁dial": 2131,
      "▁audio": 2132,
      "▁similar": 2133,
      "▁satisf": 2134,
      "▁100": 2135,
      "▁taste": 2136,
      "▁otherwise": 2137,
      "▁pet": 2138,
      "▁wall": 2139,
      "▁language": 2140,
      "▁proper": 2141,
      "▁solid": 2142,
      "▁pu": 2143,
      "ccess": 2144,
      "▁older": 2145,
      "▁dev": 2146,
      "gn": 2147,
      "alth": 2148,
      "just": 2149,
      "▁volume": 2150,
      "▁included": 2151,
      "▁leg": 2152,
      "▁third": 2153,
      "er\r\n": 2154,
      "▁death": 2155,
      "▁avoid": 2156,
      "▁condition": 2157,
      "▁libr": 2158,
      "▁cute": 2159,
      "▁cart": 2160,
      "▁anyway": 2161,
      "reci": 2162,
      "▁wood": 2163,
      "lect": 2164,
      "▁loud": 2165,
      "rant": 2166,
      "ives": 2167,
      "ences": 2168,
      "▁equ": 2169,
      "▁sal": 2170,
      "medi": 2171,
      "▁ben": 2172,
      "▁draw": 2173,
      "▁moder": 2174,
      "▁da": 2175,
      "▁handle": 2176,
      "▁ant": 2177,
      "▁greatest": 2178,
      "▁foot": 2179,
      "▁fiction": 2180,
      "ron": 2181,
      "ann": 2182,
      "▁switch": 2183,
      "▁pleased": 2184,
      "▁scene": 2185,
      "▁known": 2186,
      "▁hook": 2187,
      "▁gone": 2188,
      "ural": 2189,
      "▁occ": 2190,
      "▁keeps": 2191,
      "ises": 2192,
      "▁comb": 2193,
      "asure": 2194,
      "▁fix": 2195,
      "ister": 2196,
      "▁oper": 2197,
      "▁sort": 2198,
      "ading": 2199,
      "irt": 2200,
      "▁process": 2201,
      "▁hoping": 2202,
      "▁wants": 2203,
      "ax": 2204,
      "▁vac": 2205,
      "▁we'": 2206,
      "▁against": 2207,
      "▁giving": 2208,
      "▁amount": 2209,
      "ield": 2210,
      "▁fra": 2211,
      "▁fire": 2212,
      "ground": 2213,
      "▁\"t": 2214,
      "uced": 2215,
      "▁explain": 2216,
      "▁future": 2217,
      "▁straight": 2218,
      "▁flo": 2219,
      "▁blue": 2220,
      "▁uses": 2221,
      "▁\"p": 2222,
      "▁issue": 2223,
      "▁body": 2224,
      "▁released": 2225,
      "apt": 2226,
      "▁twice": 2227,
      "▁roll": 2228,
      "▁authors": 2229,
      "zy": 2230,
      "more": 2231,
      "▁doc": 2232,
      "▁comfortable": 2233,
      "▁pat": 2234,
      "selves": 2235,
      "▁vi": 2236,
      "▁1/": 2237,
      "▁appreci": 2238,
      "back": 2239,
      "▁rating": 2240,
      "▁sens": 2241,
      "▁adult": 2242,
      "▁films": 2243,
      "▁instructions": 2244,
      "▁feeling": 2245,
      "▁mult": 2246,
      "▁none": 2247,
      "▁bring": 2248,
      "▁cult": 2249,
      "▁neg": 2250,
      "▁taken": 2251,
      "▁behind": 2252,
      "▁enjoyable": 2253,
      "let": 2254,
      "▁recently": 2255,
      "▁feature": 2256,
      "▁foc": 2257,
      "▁waiting": 2258,
      "▁ess": 2259,
      "illy": 2260,
      "▁clos": 2261,
      "▁gri": 2262,
      "▁dan": 2263,
      "▁library": 2264,
      "my": 2265,
      "▁middle": 2266,
      "ges": 2267,
      "erc": 2268,
      "▁aut": 2269,
      "▁lim": 2270,
      "uf": 2271,
      "▁advice": 2272,
      "▁local": 2273,
      "▁frustr": 2274,
      "he": 2275,
      "▁success": 2276,
      "▁seeing": 2277,
      "▁0": 2278,
      "ipes": 2279,
      "▁okay": 2280,
      "▁comed": 2281,
      "like": 2282,
      "▁dream": 2283,
      "▁attention": 2284,
      "▁online": 2285,
      "iod": 2286,
      "▁ray": 2287,
      "▁enc": 2288,
      "▁lives": 2289,
      "▁contact": 2290,
      "aking": 2291,
      "▁tight": 2292,
      "ource": 2293,
      "▁mount": 2294,
      "ried": 2295,
      "▁pen": 2296,
      "▁soul": 2297,
      "▁00": 2298,
      "▁50": 2299,
      "▁ms": 2300,
      "▁trash": 2301,
      "▁thin": 2302,
      "▁brill": 2303,
      "ison": 2304,
      "aces": 2305,
      "▁regular": 2306,
      "uce": 2307,
      "▁forget": 2308,
      "ident": 2309,
      "▁package": 2310,
      "▁refund": 2311,
      "▁thrill": 2312,
      "▁saying": 2313,
      "▁including": 2314,
      "ero": 2315,
      "▁tem": 2316,
      "▁\"g": 2317,
      "▁net": 2318,
      "▁alone": 2319,
      "▁beware": 2320,
      "▁aren't": 2321,
      "▁surprised": 2322,
      "▁[": 2323,
      "▁ru": 2324,
      "▁crap": 2325,
      "itor": 2326,
      "▁truth": 2327,
      "▁period": 2328,
      "ho": 2329,
      "ed\r\n": 2330,
      "▁running": 2331,
      "set": 2332,
      "▁bey": 2333,
      "ography": 2334,
      "▁wow": 2335,
      "▁perfectly": 2336,
      "▁king": 2337,
      "▁ended": 2338,
      "vis": 2339,
      "▁sold": 2340,
      "▁advent": 2341,
      "▁voc": 2342,
      "urate": 2343,
      "ether": 2344,
      "▁workout": 2345,
      "▁screw": 2346,
      "▁doub": 2347,
      "▁relations": 2348,
      "▁rent": 2349,
      "▁sequ": 2350,
      "bers": 2351,
      "▁catch": 2352,
      "▁ye": 2353,
      "▁content": 2354,
      "▁actual": 2355,
      "▁note": 2356,
      "vered": 2357,
      "▁scr": 2358,
      "ery": 2359,
      "▁finished": 2360,
      "▁reviewers": 2361,
      "▁flat": 2362,
      "▁polit": 2363,
      "▁rub": 2364,
      "▁experien": 2365,
      "▁christian": 2366,
      "ury": 2367,
      "▁match": 2368,
      "▁production": 2369,
      "ese": 2370,
      "▁slight": 2371,
      "▁current": 2372,
      "▁reference": 2373,
      "▁ten": 2374,
      "▁brilli": 2375,
      "to": 2376,
      "▁deser": 2377,
      "ude": 2378,
      "▁cred": 2379,
      "▁modern": 2380,
      "s\"": 2381,
      "▁organ": 2382,
      "▁cord": 2383,
      "▁learning": 2384,
      "▁rate": 2385,
      "▁base": 2386,
      "▁shame": 2387,
      "vin": 2388,
      "ptions": 2389,
      "▁money\r\n": 2390,
      "by": 2391,
      "▁device": 2392,
      "▁immedi": 2393,
      "▁excited": 2394,
      "▁readers": 2395,
      "▁wrote": 2396,
      "asc": 2397,
      "ufact": 2398,
      "▁squ": 2399,
      "▁clearly": 2400,
      "work": 2401,
      "ze": 2402,
      "▁throughout": 2403,
      "▁himself": 2404,
      "▁pad": 2405,
      "▁fight": 2406,
      "akes": 2407,
      "▁chance": 2408,
      "▁claim": 2409,
      "▁ip": 2410,
      "▁illustr": 2411,
      "50": 2412,
      "10": 2413,
      "▁fell": 2414,
      "▁sweet": 2415,
      "con": 2416,
      "▁spirit": 2417,
      "a's": 2418,
      "▁contain": 2419,
      "ung": 2420,
      "▁date": 2421,
      "ilt": 2422,
      "▁beyond": 2423,
      "▁charge": 2424,
      "▁crit": 2425,
      "▁living": 2426,
      "▁table": 2427,
      "▁eyes": 2428,
      "▁bare": 2429,
      "oooo": 2430,
      "vable": 2431,
      "ium": 2432,
      "oun": 2433,
      "▁collect": 2434,
      "sc": 2435,
      "▁attach": 2436,
      "▁jour": 2437,
      "▁area": 2438,
      "▁alot": 2439,
      "▁mur": 2440,
      "▁desp": 2441,
      "▁warrant": 2442,
      "▁choice": 2443,
      "▁manufact": 2444,
      "er's": 2445,
      "▁repe": 2446,
      "enty": 2447,
      "asy": 2448,
      "▁project": 2449,
      "tend": 2450,
      "▁general": 2451,
      "▁trip": 2452,
      "ove": 2453,
      "▁means": 2454,
      "▁noise": 2455,
      "▁mac": 2456,
      "oc": 2457,
      "▁expecting": 2458,
      "▁pred": 2459,
      "wood": 2460,
      "▁narr": 2461,
      "▁sil": 2462,
      "▁blu": 2463,
      "▁skin": 2464,
      "ring": 2465,
      "▁relationship": 2466,
      "▁flaw": 2467,
      "▁hell": 2468,
      "▁mystery": 2469,
      "▁talk": 2470,
      "▁possible": 2471,
      "▁moving": 2472,
      "▁mostly": 2473,
      "▁basically": 2474,
      "▁mill": 2475,
      "min": 2476,
      "▁changed": 2477,
      "▁ang": 2478,
      "▁across": 2479,
      "row": 2480,
      "▁questions": 2481,
      "▁obviously": 2482,
      "par": 2483,
      "▁mi": 2484,
      "▁bible": 2485,
      "▁invest": 2486,
      "▁unique": 2487,
      "▁web": 2488,
      "▁dance": 2489,
      "▁fur": 2490,
      "▁photos": 2491,
      "▁glass": 2492,
      "▁fab": 2493,
      "▁dialog": 2494,
      "▁trad": 2495,
      "▁ul": 2496,
      "▁defect": 2497,
      "▁mich": 2498,
      "eth": 2499,
      "▁teen": 2500,
      "▁knows": 2501,
      "▁parents": 2502,
      "▁pair": 2503,
      "▁trouble": 2504,
      "▁phil": 2505,
      "▁adjust": 2506,
      "▁law": 2507,
      "▁depth": 2508,
      "▁musical": 2509,
      "▁digital": 2510,
      "ured": 2511,
      "▁themselves": 2512,
      "▁function": 2513,
      "▁nearly": 2514,
      "uction": 2515,
      "etic": 2516,
      "▁background": 2517,
      "oof": 2518,
      "▁seat": 2519,
      "ony": 2520,
      "▁late": 2521,
      "▁cry": 2522,
      "ivid": 2523,
      "ement": 2524,
      "▁publish": 2525,
      "▁intell": 2526,
      "ging": 2527,
      "▁graphics": 2528,
      "▁singing": 2529,
      "▁purp": 2530,
      "▁product\r\n": 2531,
      "gu": 2532,
      "itions": 2533,
      "▁romance": 2534,
      "▁ver": 2535,
      "phones": 2536,
      "▁actors": 2537,
      "▁carry": 2538,
      "▁invol": 2539,
      "▁allow": 2540,
      "▁remind": 2541,
      "ants": 2542,
      "▁imposs": 2543,
      "▁message": 2544,
      "▁upd": 2545,
      "ills": 2546,
      "ades": 2547,
      "ding": 2548,
      "▁horror": 2549,
      "▁multi": 2550,
      "▁mad": 2551,
      "▁kindle": 2552,
      "▁est": 2553,
      "load": 2554,
      "azz": 2555,
      "▁soundtra": 2556,
      "bing": 2557,
      "▁nat": 2558,
      "▁artist": 2559,
      "▁difference": 2560,
      "▁plays": 2561,
      "▁somewhat": 2562,
      "erous": 2563,
      "▁recipes": 2564,
      "verage": 2565,
      "▁appe": 2566,
      "head": 2567,
      "▁comment": 2568,
      "▁talking": 2569,
      "▁que": 2570,
      "▁sharp": 2571,
      "▁del": 2572,
      "0s": 2573,
      "▁filter": 2574,
      "▁green": 2575,
      "▁stuck": 2576,
      "iculous": 2577,
      "▁sony": 2578,
      "▁immediately": 2579,
      "▁gold": 2580,
      "▁effects": 2581,
      "▁access": 2582,
      "▁chall": 2583,
      "▁exerc": 2584,
      "▁question": 2585,
      "▁dav": 2586,
      "▁incredible": 2587,
      "▁health": 2588,
      "▁ther": 2589,
      "irth": 2590,
      "▁putting": 2591,
      "▁learned": 2592,
      "ledge": 2593,
      "▁six": 2594,
      "▁purchasing": 2595,
      "▁details": 2596,
      "▁historical": 2597,
      "▁picked": 2598,
      "▁impressed": 2599,
      "▁covers": 2600,
      "▁inspir": 2601,
      "▁stri": 2602,
      "▁compared": 2603,
      "▁you've": 2604,
      "▁impossible": 2605,
      "orge": 2606,
      "▁lay": 2607,
      "bel": 2608,
      "▁susp": 2609,
      "▁fits": 2610,
      "▁stur": 2611,
      "rid": 2612,
      "▁pure": 2613,
      "▁document": 2614,
      "▁18": 2615,
      "▁whe": 2616,
      "▁upon": 2617,
      "▁powerful": 2618,
      "ili": 2619,
      "▁webs": 2620,
      "▁science": 2621,
      "▁girls": 2622,
      "omend": 2623,
      "pend": 2624,
      "▁doubt": 2625,
      "▁speed": 2626,
      "▁dest": 2627,
      "cket": 2628,
      "▁windows": 2629,
      "▁examples": 2630,
      "▁sand": 2631,
      "▁warranty": 2632,
      "▁hur": 2633,
      "▁gun": 2634,
      "▁cir": 2635,
      "▁range": 2636,
      "▁father": 2637,
      "▁cup": 2638,
      "▁event": 2639,
      "▁concert": 2640,
      "▁scri": 2641,
      "ishing": 2642,
      "▁bands": 2643,
      "▁she's": 2644,
      "▁feels": 2645,
      "▁becom": 2646,
      "▁$2": 2647,
      "▁bal": 2648,
      "▁thor": 2649,
      "▁tom": 2650,
      "▁chapters": 2651,
      "▁seriously": 2652,
      "▁likes": 2653,
      "anced": 2654,
      "▁suff": 2655,
      "▁dissapoint": 2656,
      "▁regard": 2657,
      "▁contains": 2658,
      "▁feet": 2659,
      "▁viol": 2660,
      "▁manual": 2661,
      "▁\"w": 2662,
      "▁colle": 2663,
      "▁bri": 2664,
      "▁dura": 2665,
      "▁advertised": 2666,
      "▁mail": 2667,
      "ik": 2668,
      "▁filled": 2669,
      "▁inch": 2670,
      "▁je": 2671,
      "▁positive": 2672,
      "▁199": 2673,
      "▁outside": 2674,
      "▁stre": 2675,
      "▁account": 2676,
      "▁smooth": 2677,
      "lus": 2678,
      "▁hits": 2679,
      "▁los": 2680,
      "▁warm": 2681,
      "ety": 2682,
      "▁lad": 2683,
      "▁items": 2684,
      "▁cold": 2685,
      "▁dull": 2686,
      "▁fresh": 2687,
      "lier": 2688,
      "▁sun": 2689,
      "▁novels": 2690,
      "▁door": 2691,
      "▁comedy": 2692,
      "▁kitch": 2693,
      "rench": 2694,
      "▁starts": 2695,
      "▁pc": 2696,
      "▁printer": 2697,
      "▁relig": 2698,
      "▁turns": 2699,
      "▁ut": 2700,
      "por": 2701,
      "▁hang": 2702,
      "ners": 2703,
      "ams": 2704,
      "▁soundtrack": 2705,
      "▁script": 2706,
      "▁wash": 2707,
      "▁psy": 2708,
      "▁episodes": 2709,
      "▁suck": 2710,
      "▁button": 2711,
      "▁fol": 2712,
      "▁plain": 2713,
      "▁leak": 2714,
      "▁average": 2715,
      "▁brilliant": 2716,
      "▁fem": 2717,
      "▁whether": 2718,
      "▁ipod": 2719,
      "▁lat": 2720,
      "▁die": 2721,
      "▁anymore": 2722,
      "▁negative": 2723,
      "▁\"l": 2724,
      "▁earth": 2725,
      "▁ways": 2726,
      "▁prefer": 2727,
      "▁plug": 2728,
      "▁cds": 2729,
      "▁birth": 2730,
      "▁fasc": 2731,
      "ries": 2732,
      "▁listened": 2733,
      "▁public": 2734,
      "▁vocals": 2735,
      "ls": 2736,
      "▁above": 2737,
      "▁walk": 2738,
      "▁format": 2739,
      "▁cause": 2740,
      "▁easier": 2741,
      "▁apparent": 2742,
      "▁educ": 2743,
      "▁kitchen": 2744,
      "▁died": 2745,
      "ball": 2746,
      "▁mistake": 2747,
      "▁tim": 2748,
      "▁study": 2749,
      "▁provides": 2750,
      "▁situ": 2751,
      "▁rare": 2752,
      "▁results": 2753,
      "▁scratch": 2754,
      "▁opened": 2755,
      "▁eye": 2756,
      "ica": 2757,
      "inks": 2758,
      "▁psych": 2759,
      "▁became": 2760,
      "▁remote": 2761,
      "▁flash": 2762,
      "▁understanding": 2763,
      "▁predict": 2764,
      "▁despite": 2765,
      "▁helped": 2766,
      "▁skip": 2767,
      "▁sucks": 2768,
      "▁knowledge": 2769,
      "iece": 2770,
      "▁accurate": 2771,
      "▁section": 2772,
      "▁various": 2773,
      "▁common": 2774,
      "▁failed": 2775,
      "▁ridiculous": 2776,
      "▁log": 2777,
      "▁barely": 2778,
      "▁students": 2779,
      "▁tells": 2780,
      "▁micro": 2781,
      "ec": 2782,
      "room": 2783,
      "▁what's": 2784,
      "▁reach": 2785,
      "▁deb": 2786,
      "▁site": 2787,
      "▁reviewer": 2788,
      "▁lines": 2789,
      "▁*": 2790,
      "amed": 2791,
      "ta": 2792,
      "▁mouse": 2793,
      "▁mc": 2794,
      "▁bass": 2795,
      "▁wasted": 2796,
      "▁batt": 2797,
      "▁unlike": 2798,
      "▁points": 2799,
      "▁sturdy": 2800,
      "▁brit": 2801,
      "▁spo": 2802,
      "▁frank": 2803,
      "▁trust": 2804,
      "▁load": 2805,
      "▁ger": 2806,
      "▁thorough": 2807,
      "▁fairly": 2808,
      "▁minute": 2809,
      "▁leaves": 2810,
      "▁brought": 2811,
      "▁focus": 2812,
      "▁bul": 2813,
      "▁meaning": 2814,
      "▁ask": 2815,
      "▁inde": 2816,
      "▁imagine": 2817,
      "▁described": 2818,
      "▁realize": 2819,
      "▁11": 2820,
      "▁require": 2821,
      "▁path": 2822,
      "wards": 2823,
      "▁land": 2824,
      "rors": 2825,
      "inating": 2826,
      "▁episode": 2827,
      "▁ps": 2828,
      "▁\"i": 2829,
      "▁ground": 2830,
      "face": 2831,
      "▁memory": 2832,
      "▁bottle": 2833,
      "▁jazz": 2834,
      "ued": 2835,
      "▁bill": 2836,
      "▁blood": 2837,
      "▁mart": 2838,
      "▁rh": 2839,
      "▁website": 2840,
      "vent": 2841,
      "▁iron": 2842,
      "▁exciting": 2843,
      "ob": 2844,
      "▁city": 2845,
      "▁replaced": 2846,
      "ables": 2847,
      "▁helps": 2848,
      "mp": 2849,
      "ially": 2850,
      "▁exist": 2851,
      "▁rip": 2852,
      "▁motor": 2853,
      "▁jud": 2854,
      "▁respect": 2855,
      "▁ship": 2856,
      "▁board": 2857,
      "▁throw": 2858,
      "▁places": 2859,
      "▁push": 2860,
      "▁commun": 2861,
      "▁further": 2862,
      "▁unf": 2863,
      "▁uni": 2864,
      "standing": 2865,
      "▁info": 2866,
      "rit": 2867,
      "▁versions": 2868,
      "▁owned": 2869,
      "▁headphones": 2870,
      "▁noticed": 2871,
      "▁tale": 2872,
      "▁thick": 2873,
      "▁fi": 2874,
      "▁good\r\n": 2875,
      "▁college": 2876,
      "ength": 2877,
      "▁camp": 2878,
      "▁concer": 2879,
      "bert": 2880,
      "icks": 2881,
      "▁download": 2882,
      "▁tar": 2883,
      "ael": 2884,
      "▁crack": 2885,
      "▁heat": 2886,
      "▁ready": 2887,
      "▁smaller": 2888,
      "▁happens": 2889,
      "▁ener": 2890,
      "▁properly": 2891,
      "▁returning": 2892,
      "▁lens": 2893,
      "▁lock": 2894,
      "▁instr": 2895,
      "▁don": 2896,
      "▁pump": 2897,
      "▁length": 2898,
      "▁feed": 2899,
      "▁bon": 2900,
      "▁loc": 2901,
      "▁eat": 2902,
      "▁internet": 2903,
      "▁cri": 2904,
      "ening": 2905,
      "▁boys": 2906,
      "▁development": 2907,
      "▁lasted": 2908,
      "▁fantasy": 2909,
      "▁improve": 2910,
      "▁continue": 2911,
      "▁email": 2912,
      "▁defective": 2913,
      "uum": 2914,
      "▁shel": 2915,
      "▁shock": 2916,
      "▁rob": 2917,
      "▁loose": 2918,
      "ii": 2919,
      "icated": 2920,
      "▁whatever": 2921,
      "▁floor": 2922,
      "time": 2923,
      "▁display": 2924,
      "▁earlier": 2925,
      "omb": 2926,
      "▁road": 2927,
      "▁cy": 2928,
      "y\r\n": 2929,
      "▁summer": 2930,
      "▁mat": 2931,
      "▁shot": 2932,
      "▁starting": 2933,
      "▁1/2": 2934,
      "▁drum": 2935,
      "▁delight": 2936,
      "▁brother": 2937,
      "▁designed": 2938,
      "▁approach": 2939,
      "▁wide": 2940,
      "▁unre": 2941,
      "ru": 2942,
      "ified": 2943,
      "▁added": 2944,
      "▁mer": 2945,
      "▁particularly": 2946,
      "▁infl": 2947,
      "▁dish": 2948,
      "▁13": 2949,
      "▁secret": 2950,
      "▁bright": 2951,
      "▁movie\r\n": 2952,
      "▁flav": 2953,
      "▁cant": 2954,
      "▁bur": 2955,
      "▁appreciate": 2956,
      "▁rev": 2957,
      "▁mentioned": 2958,
      "▁construct": 2959,
      "▁final": 2960,
      "▁america": 2961,
      "▁provide": 2962,
      "▁crazy": 2963,
      "▁aspect": 2964,
      "ogn": 2965,
      "▁purpose": 2966,
      "▁normal": 2967,
      "olution": 2968,
      "▁cheaper": 2969,
      "aptop": 2970,
      "▁offer": 2971,
      "▁ran": 2972,
      "▁accept": 2973,
      "▁adap": 2974,
      "iliar": 2975,
      "▁fly": 2976,
      "ns": 2977,
      "▁opening": 2978,
      "▁edge": 2979,
      "▁laptop": 2980,
      "▁strugg": 2981,
      "urch": 2982,
      "uff": 2983,
      "▁#": 2984,
      "▁morning": 2985,
      "▁bunch": 2986,
      "▁town": 2987,
      "ller": 2988,
      "ify": 2989,
      "▁dim": 2990,
      "▁aff": 2991,
      "▁sick": 2992,
      "▁twist": 2993,
      "ca": 2994,
      "▁bow": 2995,
      "▁slightly": 2996,
      "▁vacuum": 2997,
      "▁exception": 2998,
      "▁faith": 2999,
      "▁ign": 3000,
      "▁compar": 3001,
      "▁singer": 3002,
      "izing": 3003,
      "▁anal": 3004,
      "▁considering": 3005,
      "▁state": 3006,
      "▁subst": 3007,
      "▁forever": 3008,
      "▁transl": 3009,
      "ata": 3010,
      "▁sets": 3011,
      "▁genre": 3012,
      "belie": 3013,
      "▁pal": 3014,
      "▁appears": 3015,
      "▁plenty": 3016,
      "▁packaging": 3017,
      "▁notice": 3018,
      "▁include": 3019,
      "▁informative": 3020,
      "▁built": 3021,
      "rage": 3022,
      "▁forg": 3023,
      "▁office": 3024,
      "▁hearing": 3025,
      "erv": 3026,
      "tle": 3027,
      "▁dialogue": 3028,
      "▁hd": 3029,
      "ha": 3030,
      "▁magic": 3031,
      "▁professional": 3032,
      "▁asse": 3033,
      "▁phys": 3034,
      "▁jap": 3035,
      "▁protect": 3036,
      "uro": 3037,
      "▁terri": 3038,
      "▁ring": 3039,
      "▁oil": 3040,
      "cre": 3041,
      "phone": 3042,
      "▁zero": 3043,
      "lex": 3044,
      "▁larger": 3045,
      "tim": 3046,
      "antic": 3047,
      "▁necess": 3048,
      "▁james": 3049,
      "▁author's": 3050,
      "▁lif": 3051,
      "▁dang": 3052,
      "▁installed": 3053,
      "▁tired": 3054,
      "▁outstanding": 3055,
      "▁usual": 3056,
      "▁tear": 3057,
      "▁gotten": 3058,
      "▁tea": 3059,
      "▁admit": 3060,
      "▁label": 3061,
      "cent": 3062,
      "▁jump": 3063,
      "▁accom": 3064,
      "▁cd's": 3065,
      "▁shape": 3066,
      "▁read\r\n": 3067,
      "▁superb": 3068,
      "▁dvds": 3069,
      "▁meth": 3070,
      "▁suspense": 3071,
      "▁brown": 3072,
      "▁events": 3073,
      "▁party": 3074,
      "▁bored": 3075,
      "▁40": 3076,
      "pective": 3077,
      "▁ju": 3078,
      "▁prep": 3079,
      "▁japan": 3080,
      "▁players": 3081,
      "▁effective": 3082,
      "▁popular": 3083,
      "gs": 3084,
      "▁published": 3085,
      "▁adventure": 3086,
      "▁regret": 3087,
      "▁usb": 3088,
      "▁coun": 3089,
      "▁tur": 3090,
      "▁michael": 3091,
      "▁shipped": 3092,
      "▁magaz": 3093,
      "▁recogn": 3094,
      "nds": 3095,
      "▁tub": 3096,
      "▁facts": 3097,
      "▁introduction": 3098,
      "▁joy": 3099,
      "▁grow": 3100,
      "▁sister": 3101,
      "ager": 3102,
      "▁cross": 3103,
      "▁nut": 3104,
      "▁prem": 3105,
      "box": 3106,
      "▁altern": 3107,
      "▁ends": 3108,
      "▁circ": 3109,
      "aling": 3110,
      "▁stat": 3111,
      "▁durable": 3112,
      "iment": 3113,
      "▁david": 3114,
      "▁speakers": 3115,
      "▁telling": 3116,
      "▁satisfied": 3117,
      "▁evil": 3118,
      "▁creative": 3119,
      "▁bud": 3120,
      "▁practice": 3121,
      "▁16": 3122,
      "▁errors": 3123,
      "▁holds": 3124,
      "▁fool": 3125,
      "key": 3126,
      "oop": 3127,
      "▁typical": 3128,
      "▁finding": 3129,
      "▁ice": 3130,
      "ization": 3131,
      "▁fault": 3132,
      "▁church": 3133,
      "▁tradition": 3134,
      "▁club": 3135,
      "▁shoot": 3136,
      "▁create": 3137,
      "▁murder": 3138,
      "ability": 3139,
      "▁meet": 3140,
      "▁complex": 3141,
      "▁student": 3142,
      "▁depress": 3143,
      "▁hun": 3144,
      "▁individ": 3145,
      "ctions": 3146,
      "▁ident": 3147,
      "piece": 3148,
      "▁moves": 3149,
      "▁jew": 3150,
      "old": 3151,
      "▁ability": 3152,
      "itter": 3153,
      "ius": 3154,
      "▁predictable": 3155,
      "▁knife": 3156,
      "aa": 3157,
      "▁strange": 3158,
      "▁mass": 3159,
      "▁fing": 3160,
      "▁artists": 3161,
      "▁produced": 3162,
      "▁warning": 3163,
      "▁constantly": 3164,
      "▁recorded": 3165,
      "▁hardly": 3166,
      "▁stock": 3167,
      "gar": 3168,
      "▁discuss": 3169,
      "▁fascinating": 3170,
      "▁complaint": 3171,
      "den": 3172,
      "▁breat": 3173,
      "▁span": 3174,
      "▁among": 3175,
      "▁butt": 3176,
      "uit": 3177,
      "▁stere": 3178,
      "gest": 3179,
      "▁shoes": 3180,
      "▁intellig": 3181,
      "▁lin": 3182,
      "▁tele": 3183,
      "▁anywhere": 3184,
      "hh": 3185,
      "▁favorites": 3186,
      "\"\r\n": 3187,
      "▁lid": 3188,
      "▁photo": 3189,
      "▁emb": 3190,
      "▁role": 3191,
      "▁bucks": 3192,
      "▁dollars": 3193,
      "▁14": 3194,
      "▁personally": 3195,
      "▁explan": 3196,
      "▁blade": 3197,
      "▁detailed": 3198,
      "▁ultim": 3199,
      "cious": 3200,
      "▁flow": 3201,
      "▁silly": 3202,
      "▁surv": 3203,
      "▁den": 3204,
      "▁pleas": 3205,
      "▁surprise": 3206,
      "iff": 3207,
      "▁daily": 3208,
      "▁apparently": 3209,
      "▁25": 3210,
      "▁joke": 3211,
      "▁share": 3212,
      "▁method": 3213,
      "▁occas": 3214,
      "▁states": 3215,
      "▁\"\r\n": 3216,
      "▁engine": 3217,
      "▁disappointed\r\n": 3218,
      "▁blues": 3219,
      "▁colors": 3220,
      "▁repair": 3221,
      "▁videos": 3222,
      "▁brings": 3223,
      "▁thats": 3224,
      "iety": 3225,
      "▁wild": 3226,
      "▁answer": 3227,
      "val": 3228,
      "▁mp": 3229,
      "ey": 3230,
      "▁brush": 3231,
      "▁uns": 3232,
      "hood": 3233,
      "▁asked": 3234,
      "▁practical": 3235,
      "▁writ": 3236,
      "▁falls": 3237,
      "▁\"th": 3238,
      "▁syn": 3239,
      "▁keyboard": 3240,
      "▁confusing": 3241,
      "▁dogs": 3242,
      "▁remove": 3243,
      "▁rap": 3244,
      "▁safe": 3245,
      "▁odd": 3246,
      "▁sitting": 3247,
      "▁delivery": 3248,
      "▁misle": 3249,
      "▁patter": 3250,
      "pri": 3251,
      "▁tap": 3252,
      "▁careful": 3253,
      "▁receive": 3254,
      "▁technical": 3255,
      "cer": 3256,
      "▁rand": 3257,
      "▁required": 3258,
      "▁century": 3259,
      "▁connection": 3260,
      "ula": 3261,
      "aught": 3262,
      "▁soci": 3263,
      "▁ange": 3264,
      "▁198": 3265,
      "▁kit": 3266,
      "▁code": 3267,
      "▁manufactur": 3268,
      "rap": 3269,
      "on's": 3270,
      "▁following": 3271,
      "▁express": 3272,
      "how": 3273,
      "▁fat": 3274,
      "▁intri": 3275,
      "▁outd": 3276,
      "off": 3277,
      "▁incredibly": 3278,
      "▁hilar": 3279,
      "rated": 3280,
      "▁image": 3281,
      "▁option": 3282,
      "▁elsewhere": 3283,
      "ancy": 3284,
      "▁includes": 3285,
      "▁shut": 3286,
      "▁lose": 3287,
      "▁shop": 3288,
      "▁honestly": 3289,
      "▁unbelie": 3290,
      "in'": 3291,
      "▁involved": 3292,
      "▁grind": 3293,
      "▁dad": 3294,
      "▁dy": 3295,
      "▁missed": 3296,
      "ask": 3297,
      "▁scary": 3298,
      "▁ton": 3299,
      "▁ham": 3300,
      "▁arm": 3301,
      "▁drink": 3302,
      "▁reli": 3303,
      "▁held": 3304,
      "▁familiar": 3305,
      "▁moment": 3306,
      "▁journey": 3307,
      "▁jam": 3308,
      "▁flim": 3309,
      "▁great\r\n": 3310,
      "▁offers": 3311,
      "▁field": 3312,
      "▁storyline": 3313,
      "▁rated": 3314,
      "▁french": 3315,
      "▁career": 3316,
      "▁moments": 3317,
      "▁cand": 3318,
      "▁rou": 3319,
      "go": 3320,
      "▁wireless": 3321,
      "nam": 3322,
      "▁cre": 3323,
      "▁nature": 3324,
      "ugged": 3325,
      "cl": 3326,
      "for": 3327,
      "▁lame": 3328,
      "▁doct": 3329,
      "▁park": 3330,
      "▁female": 3331,
      "▁jes": 3332,
      "▁listed": 3333,
      "▁quiet": 3334,
      "▁news": 3335,
      "▁worthless": 3336,
      "▁intend": 3337,
      "▁culture": 3338,
      "▁dust": 3339,
      "▁lower": 3340,
      "▁\"a": 3341,
      "ension": 3342,
      "▁disg": 3343,
      "▁repet": 3344,
      "uses": 3345,
      "ished": 3346,
      "▁energy": 3347,
      "▁max": 3348,
      "port": 3349,
      "nal": 3350,
      "▁interview": 3351,
      "▁wanting": 3352,
      "▁higher": 3353,
      "▁onto": 3354,
      "y's": 3355,
      "▁consist": 3356,
      "▁tunes": 3357,
      "▁reality": 3358,
      "▁compil": 3359,
      "▁double": 3360,
      "▁99": 3361,
      "oso": 3362,
      "ivity": 3363,
      "▁separ": 3364,
      "col": 3365,
      "▁cards": 3366,
      "▁writes": 3367,
      "▁source": 3368,
      "▁dem": 3369,
      "wr": 3370,
      "▁frequ": 3371,
      "▁electron": 3372,
      "▁notes": 3373,
      "▁weird": 3374,
      "▁bes": 3375,
      "▁spl": 3376,
      "▁ur": 3377,
      "▁hilarious": 3378,
      "▁reads": 3379,
      "▁birthday": 3380,
      "▁cleaning": 3381,
      "▁challeng": 3382,
      "reh": 3383,
      "▁realized": 3384,
      "ipe": 3385,
      "▁disk": 3386,
      "ency": 3387,
      "▁didnt": 3388,
      "▁becomes": 3389,
      "▁melod": 3390,
      "▁beautifully": 3391,
      "▁compare": 3392,
      "outh": 3393,
      "▁chair": 3394,
      "▁fal": 3395,
      "ino": 3396,
      "▁adapter": 3397,
      "▁ce": 3398,
      "▁user": 3399,
      "▁div": 3400,
      "▁covered": 3401,
      "▁seconds": 3402,
      "▁ing": 3403,
      "▁theme": 3404,
      "▁wes": 3405,
      "▁publ": 3406,
      "▁perspective": 3407,
      "▁began": 3408,
      "▁drag": 3409,
      "▁charger": 3410,
      "▁/": 3411,
      "▁director": 3412,
      "▁shown": 3413,
      "▁created": 3414,
      "▁beats": 3415,
      "▁recordings": 3416,
      "▁fully": 3417,
      "▁expectations": 3418,
      "▁bath": 3419,
      "▁holly": 3420,
      "▁natural": 3421,
      "a\r\n": 3422,
      "▁credit": 3423,
      "▁political": 3424,
      "▁writers": 3425,
      "▁selling": 3426,
      "iest": 3427,
      "▁possibly": 3428,
      "▁george": 3429,
      "▁reve": 3430,
      "▁limited": 3431,
      "▁individual": 3432,
      "▁ride": 3433,
      "▁presented": 3434,
      "▁tour": 3435,
      "▁talented": 3436,
      "▁fu": 3437,
      "▁sequel": 3438,
      "▁ink": 3439,
      "▁paul": 3440,
      "ipp": 3441,
      "▁recent": 3442,
      "▁provided": 3443,
      "ients": 3444,
      "onna": 3445,
      "▁hip": 3446,
      "▁flimsy": 3447,
      "▁illustrations": 3448,
      "▁deg": 3449,
      "▁report": 3450,
      "▁tough": 3451,
      "▁imm": 3452,
      "isher": 3453,
      "▁lu": 3454,
      "▁\"st": 3455,
      "▁meant": 3456,
      "▁magazine": 3457,
      "▁ages": 3458,
      "▁\"re": 3459,
      "arm": 3460,
      "▁compe": 3461,
      "▁punk": 3462,
      "▁grade": 3463,
      "action": 3464,
      "▁van": 3465,
      "▁upgr": 3466,
      "▁extend": 3467,
      "verse": 3468,
      "▁euro": 3469,
      "▁force": 3470,
      "▁select": 3471,
      "▁center": 3472,
      "▁jer": 3473,
      "▁quality\r\n": 3474,
      "wor": 3475,
      "▁performances": 3476,
      "▁kick": 3477,
      "chan": 3478,
      "▁2nd": 3479,
      "▁toys": 3480,
      "▁training": 3481,
      "▁herself": 3482,
      "▁nicely": 3483,
      "▁battle": 3484,
      "▁yog": 3485,
      "▁obs": 3486,
      "retch": 3487,
      "▁pill": 3488,
      "▁changes": 3489,
      "ened": 3490,
      "▁stated": 3491,
      "▁disappointing\r\n": 3492,
      "▁tries": 3493,
      "hs": 3494,
      "▁multiple": 3495,
      "▁$3": 3496,
      "▁fear": 3497,
      "▁bike": 3498,
      "▁init": 3499,
      "▁audience": 3500,
      "▁clock": 3501,
      "▁realistic": 3502,
      "pet": 3503,
      "vision": 3504,
      "▁math": 3505,
      "▁variety": 3506,
      "▁tiny": 3507,
      "▁followed": 3508,
      "▁street": 3509,
      "▁terrific": 3510,
      "▁ordering": 3511,
      "▁train": 3512,
      "▁fash": 3513,
      "▁direction": 3514,
      "▁dar": 3515,
      "▁cloth": 3516,
      "well": 3517,
      "▁directions": 3518,
      "acing": 3519,
      "resent": 3520,
      "▁dumb": 3521,
      "▁portray": 3522,
      "▁smart": 3523,
      "▁rocks": 3524,
      "▁bigger": 3525,
      "▁applic": 3526,
      "▁keeping": 3527,
      "▁frustrating": 3528,
      "▁developed": 3529,
      "iques": 3530,
      "mes": 3531,
      "▁neither": 3532,
      "▁mp3": 3533,
      "▁vict": 3534,
      "▁hooked": 3535,
      "▁likely": 3536,
      "▁monitor": 3537,
      "▁choose": 3538,
      "▁stores": 3539,
      "▁hopefully": 3540,
      "'ve": 3541,
      "idence": 3542,
      "▁biggest": 3543,
      "▁teacher": 3544,
      "▁thoroughly": 3545,
      "▁china": 3546,
      "▁masterpiece": 3547,
      "▁arch": 3548,
      "▁potential": 3549,
      "▁time\r\n": 3550,
      "▁stren": 3551,
      "▁flavor": 3552,
      "11": 3553,
      "▁vocal": 3554,
      "▁sides": 3555,
      "▁holes": 3556,
      "rd": 3557,
      "▁197": 3558,
      "uments": 3559,
      "en't": 3560,
      "▁chann": 3561,
      "▁folks": 3562,
      "▁address": 3563,
      "▁ears": 3564,
      "▁score": 3565,
      "▁figured": 3566,
      "▁bird": 3567,
      "▁counter": 3568,
      "▁tools": 3569,
      "ibility": 3570,
      "iding": 3571,
      "ura": 3572,
      "▁indust": 3573,
      "▁ted": 3574,
      "▁rhy": 3575,
      "gth": 3576,
      "▁pian": 3577,
      "ules": 3578,
      "▁ment": 3579,
      "isk": 3580,
      "▁sale": 3581,
      "▁led": 3582,
      "▁lovely": 3583,
      "▁transfer": 3584,
      "▁ast": 3585,
      "▁hp": 3586,
      "▁eventually": 3587,
      "▁specific": 3588,
      "▁attract": 3589,
      "▁wer": 3590,
      "▁jim": 3591,
      "▁studio": 3592,
      "▁gard": 3593,
      "▁produc": 3594,
      "lection": 3595,
      "▁und": 3596,
      "▁spot": 3597,
      "log": 3598,
      "▁everyday": 3599,
      "▁yeah": 3600,
      "▁lights": 3601,
      "▁brain": 3602,
      "▁aware": 3603,
      "allow": 3604,
      "put": 3605,
      "▁solo": 3606,
      "▁ahead": 3607,
      "▁error": 3608,
      "▁maker": 3609,
      "onse": 3610,
      "▁recomend": 3611,
      "inary": 3612,
      "orable": 3613,
      "irty": 3614,
      "▁electric": 3615,
      "▁steel": 3616,
      "▁fashion": 3617,
      "others": 3618,
      "▁hom": 3619,
      "▁era": 3620,
      "▁ach": 3621,
      "▁opp": 3622,
      "▁minor": 3623,
      "▁fort": 3624,
      "▁moved": 3625,
      "urs": 3626,
      "▁west": 3627,
      "itty": 3628,
      "▁german": 3629,
      "▁romantic": 3630,
      "▁indeed": 3631,
      "▁names": 3632,
      "▁round": 3633,
      "lled": 3634,
      "▁mal": 3635,
      "▁drama": 3636,
      "izes": 3637,
      "▁experienced": 3638,
      "▁pocket": 3639,
      "▁arr": 3640,
      "▁rubber": 3641,
      "▁literally": 3642,
      "ribly": 3643,
      "▁data": 3644,
      "▁ber": 3645,
      "▁scient": 3646,
      "otes": 3647,
      "▁hi": 3648,
      "inem": 3649,
      "aming": 3650,
      "▁frame": 3651,
      "▁review\r\n": 3652,
      "▁hund": 3653,
      "que": 3654,
      "▁instrument": 3655,
      "▁grad": 3656,
      "▁mechan": 3657,
      "▁cooking": 3658,
      "▁adults": 3659,
      "▁bread": 3660,
      "▁terms": 3661,
      "▁commer": 3662,
      "▁tips": 3663,
      "char": 3664,
      "▁24": 3665,
      "▁images": 3666,
      "▁router": 3667,
      "▁lacking": 3668,
      "▁pressure": 3669,
      "▁lacks": 3670,
      "ingly": 3671,
      "▁relax": 3672,
      "▁wheel": 3673,
      "▁hundred": 3674,
      "▁suppose": 3675,
      "roy": 3676,
      "▁descriptions": 3677,
      "ana": 3678,
      "▁simpl": 3679,
      "▁inex": 3680,
      "▁turning": 3681,
      "▁gem": 3682,
      "▁sadly": 3683,
      "▁mouth": 3684,
      "▁caught": 3685,
      "▁pow": 3686,
      "ament": 3687,
      "▁definately": 3688,
      "▁entertainment": 3689,
      "▁beauty": 3690,
      "▁medio": 3691,
      "▁position": 3692,
      "▁boot": 3693,
      "▁badly": 3694,
      "oon": 3695,
      "▁beginner": 3696,
      "▁chem": 3697,
      "▁strength": 3698,
      "▁cream": 3699,
      "▁fold": 3700,
      "▁ash": 3701,
      "▁falling": 3702,
      "▁philoso": 3703,
      "▁hollywood": 3704,
      "▁emotion": 3705,
      "▁deserves": 3706,
      "▁compos": 3707,
      "▁threw": 3708,
      "▁discs": 3709,
      "ision": 3710,
      "'ll": 3711,
      "▁theory": 3712,
      "▁hated": 3713,
      "▁cell": 3714,
      "une": 3715,
      "▁forced": 3716,
      "▁mode": 3717,
      "enn": 3718,
      "▁craft": 3719,
      "▁nail": 3720,
      "▁influ": 3721,
      "▁cartrid": 3722,
      "▁visual": 3723,
      "▁consum": 3724,
      "▁response": 3725,
      "▁passion": 3726,
      "▁cas": 3727,
      "▁jesus": 3728,
      "▁types": 3729,
      "▁progress": 3730,
      "▁tow": 3731,
      "▁quit": 3732,
      "▁resource": 3733,
      "▁artic": 3734,
      "▁misleading": 3735,
      "▁ban": 3736,
      "ga": 3737,
      "▁latest": 3738,
      "▁recie": 3739,
      "▁somewhere": 3740,
      "ival": 3741,
      "▁tone": 3742,
      "▁univers": 3743,
      "▁robert": 3744,
      "▁topic": 3745,
      "▁scan": 3746,
      "▁willi": 3747,
      "▁lived": 3748,
      "▁techniques": 3749,
      "▁we've": 3750,
      "▁numbers": 3751,
      "▁hasn't": 3752,
      "order": 3753,
      "▁manage": 3754,
      "y\"": 3755,
      "▁magn": 3756,
      "ara": 3757,
      "rest": 3758,
      "▁disney": 3759,
      "▁env": 3760,
      "▁vs": 3761,
      "▁manner": 3762,
      "▁mood": 3763,
      "come": 3764,
      "▁cru": 3765,
      "otic": 3766,
      "▁buttons": 3767,
      "▁fabulous": 3768,
      "arily": 3769,
      "▁drug": 3770,
      "ww": 3771,
      "▁link": 3772,
      "▁showing": 3773,
      "▁discovered": 3774,
      "▁]": 3775,
      "▁broad": 3776,
      "▁rush": 3777,
      "▁spray": 3778,
      "▁update": 3779,
      "▁price\r\n": 3780,
      "▁empt": 3781,
      "▁literature": 3782,
      "▁surprising": 3783,
      "▁loss": 3784,
      "ses": 3785,
      "▁social": 3786,
      "▁sport": 3787,
      "▁vhs": 3788,
      "▁runs": 3789,
      "cr": 3790,
      "e's": 3791,
      "▁convin": 3792,
      "▁object": 3793,
      "▁peace": 3794,
      "▁society": 3795,
      "▁showed": 3796,
      "▁team": 3797,
      "lin": 3798,
      "▁handy": 3799,
      "▁remain": 3800,
      "▁cats": 3801,
      "▁comments": 3802,
      "▁stretch": 3803,
      "▁copies": 3804,
      "▁rout": 3805,
      "▁ya": 3806,
      "▁rain": 3807,
      "▁hey": 3808,
      "ously": 3809,
      "▁europe": 3810,
      "▁trail": 3811,
      "▁shelf": 3812,
      "▁hole": 3813,
      "▁genius": 3814,
      "▁essential": 3815,
      "uable": 3816,
      "▁work\r\n": 3817,
      "▁ii": 3818,
      "▁spin": 3819,
      "▁sounded": 3820,
      "▁canon": 3821,
      "▁theat": 3822,
      "▁reasons": 3823,
      "▁prim": 3824,
      "▁1st": 3825,
      "▁western": 3826,
      "▁changing": 3827,
      "▁stain": 3828,
      "cd": 3829,
      "priate": 3830,
      "▁din": 3831,
      "▁claims": 3832,
      "▁uncom": 3833,
      "▁harry": 3834,
      "▁saved": 3835,
      "▁york": 3836,
      "▁philosoph": 3837,
      "▁necessary": 3838,
      "60": 3839,
      "over": 3840,
      "▁contr": 3841,
      "/d": 3842,
      "ague": 3843,
      "▁boo": 3844,
      "▁unus": 3845,
      "▁best\r\n": 3846,
      "▁tend": 3847,
      "▁musicians": 3848,
      "▁you'd": 3849,
      "▁besides": 3850,
      "▁compreh": 3851,
      "▁assemb": 3852,
      "umes": 3853,
      "itted": 3854,
      "▁\"y": 3855,
      "ras": 3856,
      "ateg": 3857,
      "▁knowing": 3858,
      "▁deter": 3859,
      "▁south": 3860,
      "▁disp": 3861,
      "▁vamp": 3862,
      "▁brief": 3863,
      "12": 3864,
      "▁emotional": 3865,
      "▁memories": 3866,
      "▁paint": 3867,
      "pan": 3868,
      "▁let's": 3869,
      "▁conclus": 3870,
      "▁weren't": 3871,
      "▁manufacturer": 3872,
      "▁dissapointed": 3873,
      "aker": 3874,
      "▁desk": 3875,
      "▁breath": 3876,
      "▁stun": 3877,
      "▁youn": 3878,
      "▁below": 3879,
      "▁flick": 3880,
      "▁ped": 3881,
      "▁documentary": 3882,
      "▁spanish": 3883,
      "af": 3884,
      "▁mini": 3885,
      "▁17": 3886,
      "▁media": 3887,
      "▁poet": 3888,
      "▁buyer": 3889,
      "▁japanese": 3890,
      "▁puts": 3891,
      "▁drop": 3892,
      "ba": 3893,
      "▁towards": 3894,
      "▁somehow": 3895,
      "▁ital": 3896,
      "▁compat": 3897,
      "▁prior": 3898,
      "▁encou": 3899,
      "▁clever": 3900,
      "▁exec": 3901,
      "▁traditional": 3902,
      "▁levels": 3903,
      "▁target": 3904,
      "▁disapoint": 3905,
      "ux": 3906,
      "▁incor": 3907,
      "ett": 3908,
      "▁surface": 3909,
      "ipped": 3910,
      "▁inno": 3911,
      "i's": 3912,
      "fl": 3913,
      "▁cuts": 3914,
      "▁animals": 3915,
      "▁cutting": 3916,
      "▁unable": 3917,
      "▁mixed": 3918,
      "▁arg": 3919,
      "▁therefore": 3920,
      "▁younger": 3921,
      "▁lege": 3922,
      "▁false": 3923,
      "▁dress": 3924,
      "▁pound": 3925,
      "▁compet": 3926,
      "▁stor": 3927,
      "▁fish": 3928,
      "▁pra": 3929,
      "▁hype": 3930,
      "▁incre": 3931,
      "▁conven": 3932,
      "▁members": 3933,
      "▁clim": 3934,
      "▁advanced": 3935,
      "▁puzz": 3936,
      "▁describe": 3937,
      "▁famous": 3938,
      "ources": 3939,
      "▁xp": 3940,
      "▁bonus": 3941,
      "▁attack": 3942,
      "▁teaching": 3943,
      "▁w/": 3944,
      "zen": 3945,
      "▁disgust": 3946,
      "▁skills": 3947,
      "▁utter": 3948,
      "▁originally": 3949,
      "▁block": 3950,
      "an's": 3951,
      "▁stage": 3952,
      "▁wearing": 3953,
      "agon": 3954,
      "▁\"n": 3955,
      "▁solution": 3956,
      "ette": 3957,
      "▁virt": 3958,
      "▁mediocre": 3959,
      "▁trick": 3960,
      "▁male": 3961,
      "ipping": 3962,
      "▁ali": 3963,
      "▁beginners": 3964,
      "▁bear": 3965,
      "soft": 3966,
      "▁diet": 3967,
      "▁hopes": 3968,
      "▁window": 3969,
      "▁neck": 3970,
      "kin": 3971,
      "▁areas": 3972,
      "▁belt": 3973,
      "▁concepts": 3974,
      "▁pin": 3975,
      "▁fails": 3976,
      "▁unbelievable": 3977,
      "raid": 3978,
      "▁costs": 3979,
      "here": 3980,
      "▁convers": 3981,
      "▁packed": 3982,
      "▁budget": 3983,
      "▁fro": 3984,
      "▁allows": 3985,
      "▁hurt": 3986,
      "▁distur": 3987,
      "▁anti": 3988,
      "▁numerous": 3989,
      "▁chick": 3990,
      "▁interp": 3991,
      "▁pleasure": 3992,
      "▁yoga": 3993,
      "ers\r\n": 3994,
      "▁building": 3995,
      "▁relate": 3996,
      "▁seasons": 3997,
      "uted": 3998,
      "inter": 3999,
      "▁dece": 4000,
      "▁leaving": 4001,
      "▁indic": 4002,
      "▁80's": 4003,
      "▁benef": 4004,
      "▁doesnt": 4005,
      "iday": 4006,
      "▁wars": 4007,
      "20": 4008,
      "round": 4009,
      "▁intrigu": 4010,
      "▁vampire": 4011,
      "▁stone": 4012,
      "▁ina": 4013,
      "▁vill": 4014,
      "ological": 4015,
      "▁delivered": 4016,
      "▁'s": 4017,
      "▁headset": 4018,
      "▁friendly": 4019,
      "▁speaker": 4020,
      "▁rough": 4021,
      "▁civ": 4022,
      "▁holding": 4023,
      "▁\"wh": 4024,
      "▁records": 4025,
      "▁signal": 4026,
      "▁pil": 4027,
      "▁jan": 4028,
      "▁random": 4029,
      "▁piano": 4030,
      "▁thinks": 4031,
      "▁minim": 4032,
      "▁grill": 4033,
      "▁depend": 4034,
      "▁intended": 4035,
      "▁everywhere": 4036,
      "▁topics": 4037,
      "▁doctor": 4038,
      "▁wed": 4039,
      "▁suit": 4040,
      "▁situation": 4041,
      "▁repeated": 4042,
      "bor": 4043,
      "aven": 4044,
      "▁opt": 4045,
      "anna": 4046,
      "▁dvd's": 4047,
      "▁lou": 4048,
      "ught": 4049,
      "▁thom": 4050,
      "▁las": 4051,
      "▁experiences": 4052,
      "▁firm": 4053,
      "▁cars": 4054,
      "▁expos": 4055,
      "▁spring": 4056,
      "▁technology": 4057,
      "▁ingred": 4058,
      "▁lord": 4059,
      "▁afraid": 4060,
      "▁yr": 4061,
      "ards": 4062,
      "▁kinda": 4063,
      "▁compilation": 4064,
      "▁actor": 4065,
      "xic": 4066,
      "▁exercise": 4067,
      "▁answers": 4068,
      "▁british": 4069,
      "▁construction": 4070,
      "sp": 4071,
      "▁apply": 4072,
      "▁temper": 4073,
      "▁seal": 4074,
      "▁alive": 4075,
      "▁crash": 4076,
      "▁painful": 4077,
      "▁normally": 4078,
      "▁beach": 4079,
      "▁whose": 4080,
      "▁thus": 4081,
      "▁incom": 4082,
      "▁90": 4083,
      "▁represent": 4084,
      "▁strongly": 4085,
      "▁prop": 4086,
      "▁wit": 4087,
      "eds": 4088,
      "ald": 4089,
      "imp": 4090,
      "▁pink": 4091,
      "▁oppo": 4092,
      "▁clich": 4093,
      "▁shouldn't": 4094,
      "▁premise": 4095,
      "▁idi": 4096,
      "iring": 4097,
      "▁compelling": 4098,
      "ral": 4099,
      "esy": 4100,
      "▁buck": 4101,
      "▁steam": 4102,
      "▁delic": 4103,
      "▁dangerous": 4104,
      "▁shower": 4105,
      "▁lesson": 4106,
      "▁lady": 4107,
      "▁spiritual": 4108,
      "▁3rd": 4109,
      "▁skill": 4110,
      "aries": 4111,
      "mble": 4112,
      "▁named": 4113,
      "▁mir": 4114,
      "▁cookbook": 4115,
      "ration": 4116,
      "▁paying": 4117,
      "▁proof": 4118,
      "▁directly": 4119,
      "▁bat": 4120,
      "▁wondering": 4121,
      "▁placed": 4122,
      "bl": 4123,
      "▁anybody": 4124,
      "▁generally": 4125,
      "olic": 4126,
      "▁lee": 4127,
      "▁damaged": 4128,
      "▁extended": 4129,
      "▁additional": 4130,
      "▁checked": 4131,
      "ris": 4132,
      "▁discover": 4133,
      "▁core": 4134,
      "▁relative": 4135,
      "ov": 4136,
      "lls": 4137,
      "itary": 4138,
      "▁alternative": 4139,
      "▁ny": 4140,
      "▁accord": 4141,
      "▁irrit": 4142,
      "ker": 4143,
      "ira": 4144,
      "dden": 4145,
      "▁cro": 4146,
      "▁prompt": 4147,
      "▁contacted": 4148,
      "▁mary": 4149,
      "▁autom": 4150,
      "▁killer": 4151,
      "▁hill": 4152,
      "▁priced": 4153,
      "▁ken": 4154,
      "▁measure": 4155,
      "▁dut": 4156,
      "▁station": 4157,
      "▁anth": 4158,
      "▁aside": 4159,
      "▁reflect": 4160,
      "itude": 4161,
      "▁clar": 4162,
      "▁signific": 4163,
      "weight": 4164,
      "▁island": 4165,
      "▁swing": 4166,
      "ship": 4167,
      "▁violence": 4168,
      "mi": 4169,
      "▁calls": 4170,
      "host": 4171,
      "▁elements": 4172,
      "erson": 4173,
      "iron": 4174,
      "▁editor": 4175,
      "▁growing": 4176,
      "▁files": 4177,
      "▁moon": 4178,
      "itation": 4179,
      "▁fake": 4180,
      "▁bags": 4181,
      "inese": 4182,
      "▁nav": 4183,
      "dom": 4184,
      "▁om": 4185,
      "▁subt": 4186,
      "aked": 4187,
      "stal": 4188,
      "▁selection": 4189,
      "▁vend": 4190,
      "▁thoughts": 4191,
      "▁ghost": 4192,
      "▁sci": 4193,
      "▁steps": 4194,
      "▁we're": 4195,
      "lla": 4196,
      "anted": 4197,
      "▁60": 4198,
      "▁insult": 4199,
      "▁struct": 4200,
      "▁eating": 4201,
      "▁clip": 4202,
      "▁classics": 4203,
      "▁refres": 4204,
      "▁enth": 4205,
      "▁cab": 4206,
      "▁catchy": 4207,
      "▁lover": 4208,
      "▁buff": 4209,
      "▁summ": 4210,
      "▁considered": 4211,
      "▁san": 4212,
      "▁winter": 4213,
      "40": 4214,
      "▁cath": 4215,
      "▁click": 4216,
      "lessly": 4217,
      "▁searching": 4218,
      "▁apple": 4219,
      "▁afric": 4220,
      "▁grab": 4221,
      "▁\"e": 4222,
      "la": 4223,
      "▁curi": 4224,
      "▁spending": 4225,
      "▁liber": 4226,
      "▁soap": 4227,
      "▁steph": 4228,
      "▁contem": 4229,
      "o's": 4230,
      "▁pregn": 4231,
      "▁debut": 4232,
      "▁gain": 4233,
      "▁believable": 4234,
      "▁finds": 4235,
      "▁correctly": 4236,
      "ads": 4237,
      "▁sudden": 4238,
      "fortable": 4239,
      "▁killed": 4240,
      "▁exercises": 4241,
      "/c": 4242,
      "▁pray": 4243,
      "▁walking": 4244,
      "▁driving": 4245,
      "new": 4246,
      "▁orch": 4247,
      "▁fle": 4248,
      "ulation": 4249,
      "▁tor": 4250,
      "▁options": 4251,
      "▁chinese": 4252,
      "▁todd": 4253,
      "▁crow": 4254,
      "▁lets": 4255,
      "▁cash": 4256,
      "een": 4257,
      "▁smith": 4258,
      "▁television": 4259,
      "iling": 4260,
      "▁plugged": 4261,
      "umps": 4262,
      "▁shallow": 4263,
      "inst": 4264,
      "▁detect": 4265,
      "▁tune": 4266,
      "/s": 4267,
      "▁hat": 4268,
      "▁matt": 4269,
      "▁continu": 4270,
      "▁superior": 4271,
      "▁editing": 4272,
      "conom": 4273,
      "▁heaven": 4274,
      "▁peter": 4275,
      "▁equip": 4276,
      "pensive": 4277,
      "▁cinem": 4278,
      "▁wet": 4279,
      "▁voices": 4280,
      "▁cases": 4281,
      "▁ug": 4282,
      "ilities": 4283,
      "▁offered": 4284,
      "▁fran": 4285,
      "▁exch": 4286,
      "▁grew": 4287,
      "hic": 4288,
      "▁entirely": 4289,
      "▁remark": 4290,
      "▁imagination": 4291,
      "▁pathetic": 4292,
      "▁continues": 4293,
      "logy": 4294,
      "▁hes": 4295,
      "▁washing": 4296,
      "▁insert": 4297,
      "mos": 4298,
      "▁generation": 4299,
      "▁wont": 4300,
      "▁knock": 4301,
      "▁demon": 4302,
      "▁religious": 4303,
      "po": 4304,
      "▁respons": 4305,
      "▁blend": 4306,
      "erg": 4307,
      "▁drawn": 4308,
      "▁reasonable": 4309,
      "▁bob": 4310,
      "▁thru": 4311,
      "▁dropped": 4312,
      "▁settings": 4313,
      "▁milk": 4314,
      "▁thrown": 4315,
      "▁surround": 4316,
      "▁heads": 4317,
      "acy": 4318,
      "▁photograph": 4319,
      "vant": 4320,
      "▁breaks": 4321,
      "▁strap": 4322,
      "▁references": 4323,
      "▁reliable": 4324,
      "▁worthy": 4325,
      "▁ripped": 4326,
      "▁haun": 4327,
      "▁\"ch": 4328,
      "▁destroy": 4329,
      "▁highlight": 4330,
      "▁horse": 4331,
      "▁willing": 4332,
      "▁bull": 4333,
      "▁intelligent": 4334,
      "▁loving": 4335,
      "▁environ": 4336,
      "▁attached": 4337,
      "▁decide": 4338,
      "▁theater": 4339,
      "▁till": 4340,
      "▁raw": 4341,
      "▁snow": 4342,
      "▁printed": 4343,
      "▁engaging": 4344,
      "▁stro": 4345,
      "ortun": 4346,
      "'d": 4347,
      "▁maint": 4348,
      "▁nic": 4349,
      "▁planet": 4350,
      "▁dom": 4351,
      "▁born": 4352,
      "▁industry": 4353,
      "▁pros": 4354,
      "onic": 4355,
      "▁blow": 4356,
      "▁shoe": 4357,
      "ief": 4358,
      "▁amazed": 4359,
      "▁chose": 4360,
      "▁196": 4361,
      "▁inexpensive": 4362,
      "▁comic": 4363,
      "▁rules": 4364,
      "▁chew": 4365,
      "▁leather": 4366,
      "▁gas": 4367,
      "▁sending": 4368,
      "▁ever\r\n": 4369,
      "▁hadn't": 4370,
      "▁prose": 4371,
      "▁feelings": 4372,
      "urity": 4373,
      "▁q": 4374,
      "ado": 4375,
      "▁budd": 4376,
      "▁legs": 4377,
      "▁currently": 4378,
      "▁hoped": 4379,
      "▁silver": 4380,
      "▁assum": 4381,
      "▁fighting": 4382,
      "▁faster": 4383,
      "▁cd\r\n": 4384,
      "▁removed": 4385,
      "▁equipment": 4386,
      "▁situations": 4387,
      "▁lessons": 4388,
      "▁upset": 4389,
      "▁civil": 4390,
      "ai": 4391,
      "▁gonna": 4392,
      "zer": 4393,
      "▁richard": 4394,
      "▁storage": 4395,
      "▁econom": 4396,
      "▁hose": 4397,
      "▁2000": 4398,
      "▁network": 4399,
      "▁neigh": 4400,
      "core": 4401,
      "▁textbook": 4402,
      "▁element": 4403,
      "▁inspiring": 4404,
      "ada": 4405,
      "▁appeal": 4406,
      "▁blank": 4407,
      "cra": 4408,
      "▁encoun": 4409,
      "▁reminds": 4410,
      "▁gover": 4411,
      "▁activ": 4412,
      "▁explains": 4413,
      "▁lucky": 4414,
      "▁cance": 4415,
      "▁publisher": 4416,
      "ented": 4417,
      "▁por": 4418,
      "ita": 4419,
      "▁sar": 4420,
      "▁nowhere": 4421,
      "▁interpret": 4422,
      "▁pace": 4423,
      "▁stereo": 4424,
      "str": 4425,
      "▁opportun": 4426,
      "▁ups": 4427,
      "▁military": 4428,
      "▁uncomfortable": 4429,
      "▁twists": 4430,
      "bes": 4431,
      "▁deliver": 4432,
      "▁previously": 4433,
      "▁constant": 4434,
      "▁repetitive": 4435,
      "▁scale": 4436,
      "▁motiv": 4437,
      "▁diction": 4438,
      "▁impressive": 4439,
      "▁analys": 4440,
      "▁tree": 4441,
      "yp": 4442,
      "▁worry": 4443,
      "▁requires": 4444,
      "ek": 4445,
      "stic": 4446,
      "▁compact": 4447,
      "ils": 4448,
      "ham": 4449,
      "▁recc": 4450,
      "▁saving": 4451,
      "ores": 4452,
      "80": 4453,
      "▁worn": 4454,
      "▁trim": 4455,
      "boy": 4456,
      "▁dated": 4457,
      "▁affect": 4458,
      "▁tedious": 4459,
      "▁wonderfully": 4460,
      "ands": 4461,
      "▁movement": 4462,
      "▁concerned": 4463,
      "▁brothers": 4464,
      "▁spect": 4465,
      "▁aspects": 4466,
      "++": 4467,
      "▁models": 4468,
      "▁religion": 4469,
      "▁egg": 4470,
      "istry": 4471,
      "▁refreshing": 4472,
      "▁mcc": 4473,
      "▁bottles": 4474,
      "000": 4475,
      "▁sales": 4476,
      "▁appropriate": 4477,
      "ios": 4478,
      "▁wra": 4479,
      "▁pun": 4480,
      "▁reccomend": 4481,
      "▁static": 4482,
      "▁cheesy": 4483,
      "▁\"j": 4484,
      "▁childhood": 4485,
      "▁laughing": 4486,
      "▁blades": 4487,
      "▁remix": 4488,
      "▁secure": 4489,
      "▁charged": 4490,
      "▁viewing": 4491,
      "▁gent": 4492,
      "▁achie": 4493,
      "▁critic": 4494,
      "▁complaints": 4495,
      "▁units": 4496,
      "▁microsoft": 4497,
      "er\"": 4498,
      "▁combination": 4499,
      "▁amb": 4500,
      "▁pulled": 4501,
      "▁stands": 4502,
      "▁touching": 4503,
      "otten": 4504,
      "▁channel": 4505,
      "▁ww": 4506,
      "▁mere": 4507,
      "▁raz": 4508,
      "while": 4509,
      "thern": 4510,
      "vo": 4511,
      "▁orchest": 4512,
      "▁schol": 4513,
      "▁rack": 4514,
      "▁=": 4515,
      "▁installation": 4516,
      "▁empty": 4517,
      "aded": 4518,
      "▁ske": 4519,
      "▁behav": 4520,
      "▁rice": 4521,
      "▁commentary": 4522,
      "yal": 4523,
      "▁dirty": 4524,
      "▁joe": 4525,
      "▁deck": 4526,
      "▁thriller": 4527,
      "usion": 4528,
      "▁lovers": 4529,
      "▁produce": 4530,
      "▁addict": 4531,
      "▁charl": 4532,
      "▁offic": 4533,
      "▁crime": 4534,
      "▁belief": 4535,
      "▁attempts": 4536,
      "▁legend": 4537,
      "es\r\n": 4538,
      "▁barb": 4539,
      "oor": 4540,
      "▁ry": 4541,
      "▁ord": 4542,
      "▁cass": 4543,
      "▁mainly": 4544,
      "▁wol": 4545,
      "▁sensitive": 4546,
      "▁esp": 4547,
      "▁steve": 4548,
      "▁passed": 4549,
      "▁oven": 4550,
      "▁impact": 4551,
      "▁fif": 4552,
      "▁appli": 4553,
      "oted": 4554,
      "▁complicated": 4555,
      "▁scott": 4556,
      "▁formula": 4557,
      "▁enjoying": 4558,
      "ato": 4559,
      "▁blur": 4560,
      ":1": 4561,
      "ghter": 4562,
      "▁fabric": 4563,
      "▁martin": 4564,
      "▁justice": 4565,
      "▁lam": 4566,
      "ope": 4567,
      "▁tank": 4568,
      "▁bib": 4569,
      "isp": 4570,
      "cient": 4571,
      "▁animal": 4572,
      "▁sections": 4573,
      "▁gay": 4574,
      "▁soph": 4575,
      "▁former": 4576,
      "tt": 4577,
      "▁related": 4578,
      "▁qual": 4579,
      "▁waited": 4580,
      "▁via": 4581,
      "▁confused": 4582,
      "arts": 4583,
      "▁jones": 4584,
      "▁upgrade": 4585,
      "▁relationships": 4586,
      "▁healthy": 4587,
      "▁jul": 4588,
      "atives": 4589,
      "▁inspired": 4590,
      "▁meets": 4591,
      "▁gramm": 4592,
      "iled": 4593,
      "▁wise": 4594,
      "▁recieved": 4595,
      "▁explanation": 4596,
      "idge": 4597,
      "▁translation": 4598,
      "▁rarely": 4599,
      "enge": 4600,
      "sle": 4601,
      "▁junk\r\n": 4602,
      "▁screws": 4603,
      "▁breaking": 4604,
      "▁commercial": 4605,
      "ids": 4606,
      "▁sounding": 4607,
      "▁cables": 4608,
      "▁allowed": 4609,
      "▁;": 4610,
      "▁ruined": 4611,
      "▁buy\r\n": 4612,
      "▁analysis": 4613,
      "▁alarm": 4614,
      "▁afford": 4615,
      "▁saf": 4616,
      "mark": 4617,
      "▁poetry": 4618,
      "▁slide": 4619,
      "▁spr": 4620,
      "oos": 4621,
      "▁environment": 4622,
      "▁govern": 4623,
      "▁weather": 4624,
      "▁rot": 4625,
      "ousy": 4626,
      "▁burned": 4627,
      "▁butter": 4628,
      "▁valuable": 4629,
      "▁hardware": 4630,
      "ille": 4631,
      "▁planning": 4632,
      "▁intense": 4633,
      "▁emp": 4634,
      "▁disappointment\r\n": 4635,
      "bre": 4636,
      "▁everybody": 4637,
      "ube": 4638,
      "▁connected": 4639,
      "▁nons": 4640,
      "▁shots": 4641,
      "▁fund": 4642,
      "▁substance": 4643,
      "ively": 4644,
      "▁ingredients": 4645,
      "▁meat": 4646,
      "▁phr": 4647,
      "▁eight": 4648,
      "▁opera": 4649,
      "▁monster": 4650,
      "▁setup": 4651,
      "▁bask": 4652,
      "izz": 4653,
      "adem": 4654,
      "ston": 4655,
      "▁miles": 4656,
      "▁bond": 4657,
      "▁thread": 4658,
      "▁sexual": 4659,
      "▁shad": 4660,
      "artment": 4661,
      "▁adds": 4662,
      "▁suspect": 4663,
      "▁conv": 4664,
      "▁regarding": 4665,
      "ionally": 4666,
      "▁presents": 4667,
      "▁dollar": 4668,
      "beat": 4669,
      "othing": 4670,
      "asonic": 4671,
      "▁me\r\n": 4672,
      "▁ugly": 4673,
      "▁vib": 4674,
      "▁damage": 4675,
      "▁garden": 4676,
      "icing": 4677,
      "▁accident": 4678,
      "▁rust": 4679,
      "▁spark": 4680,
      "▁les": 4681,
      "▁letter": 4682,
      "▁heroine": 4683,
      "▁yellow": 4684,
      "▁harmon": 4685,
      "▁explained": 4686,
      "▁forth": 4687,
      "▁bits": 4688,
      "▁improvement": 4689,
      "look": 4690,
      "▁successful": 4691,
      "▁one's": 4692,
      "▁treatment": 4693,
      "▁releases": 4694,
      "▁dimens": 4695,
      "▁scar": 4696,
      "▁newer": 4697,
      "▁smells": 4698,
      "▁trilogy": 4699,
      "▁caused": 4700,
      "▁organized": 4701,
      "▁myth": 4702,
      "▁usa": 4703,
      "▁tears": 4704,
      "porary": 4705,
      "cast": 4706,
      "▁inches": 4707,
      "▁bowl": 4708,
      "kn": 4709,
      "▁instruction": 4710,
      "tv": 4711,
      "was": 4712,
      "▁titles": 4713,
      "leep": 4714,
      "▁who's": 4715,
      "▁bol": 4716,
      "rel": 4717,
      "ka": 4718,
      "rom": 4719,
      "▁phones": 4720,
      "▁russ": 4721,
      "▁comprehensive": 4722,
      "▁stays": 4723,
      "▁educational": 4724,
      "▁cheaply": 4725,
      "▁subtit": 4726,
      "▁marri": 4727,
      "ing\"": 4728,
      "▁rod": 4729,
      "▁communic": 4730,
      "idden": 4731,
      "▁according": 4732,
      "▁standards": 4733,
      "▁compatible": 4734,
      "▁footage": 4735,
      "▁creep": 4736,
      "▁clothes": 4737,
      "ived": 4738,
      "▁classical": 4739,
      "▁gro": 4740,
      "▁pointless": 4741,
      "▁driver": 4742,
      "▁fixed": 4743,
      "▁rede": 4744,
      "rical": 4745,
      "▁queen": 4746,
      "▁edited": 4747,
      "▁medium": 4748,
      "▁respond": 4749,
      "▁academ": 4750,
      "▁controls": 4751,
      "▁presentation": 4752,
      "▁visit": 4753,
      "▁paced": 4754,
      "uri": 4755,
      "▁conclusion": 4756,
      "ano": 4757,
      "apers": 4758,
      "rupt": 4759,
      "▁chocol": 4760,
      "▁lies": 4761,
      "▁ultimate": 4762,
      "▁pitch": 4763,
      "▁comparison": 4764,
      "▁finger": 4765,
      "asp": 4766,
      "▁jane": 4767,
      "▁priv": 4768,
      "▁cheese": 4769,
      "▁trib": 4770,
      "▁balance": 4771,
      "▁deserve": 4772,
      "▁provo": 4773,
      "▁borrow": 4774,
      "▁marketing": 4775,
      "ches": 4776,
      "▁managed": 4777,
      "▁bless": 4778,
      "▁od": 4779,
      "▁thous": 4780,
      "▁os": 4781,
      "▁letters": 4782,
      "ators": 4783,
      "▁carefully": 4784,
      "▁album\r\n": 4785,
      "▁hyp": 4786,
      "▁tastes": 4787,
      "▁000": 4788,
      "egr": 4789,
      "▁race": 4790,
      "▁emotions": 4791,
      "▁creating": 4792,
      "▁vir": 4793,
      "▁depressing": 4794,
      "▁pleasant": 4795,
      "▁princi": 4796,
      "ushing": 4797,
      "ipper": 4798,
      "▁\"sh": 4799,
      "▁impression": 4800,
      "under": 4801,
      "ene": 4802,
      "▁pillow": 4803,
      "▁electronic": 4804,
      "▁wil": 4805,
      "▁asking": 4806,
      "▁ba": 4807,
      "▁million": 4808,
      "▁sugar": 4809,
      "▁challenging": 4810,
      "▁dram": 4811,
      "▁brew": 4812,
      "rop": 4813,
      "▁frequently": 4814,
      "▁hall": 4815,
      "▁grace": 4816,
      "▁antic": 4817,
      "▁accompl": 4818,
      "esh": 4819,
      "▁anten": 4820,
      "vey": 4821,
      "▁tip": 4822,
      "▁insightful": 4823,
      "▁adapt": 4824,
      "▁portable": 4825,
      "▁wis": 4826,
      "▁subs": 4827,
      "▁dictionary": 4828,
      "▁+": 4829,
      "ploy": 4830,
      "▁mistakes": 4831,
      "▁haw": 4832,
      "▁garage": 4833,
      "▁unreal": 4834,
      "▁links": 4835,
      "▁polic": 4836,
      "▁gear": 4837,
      "/or": 4838,
      "utions": 4839,
      "unt": 4840,
      "cul": 4841,
      "▁zomb": 4842,
      "inated": 4843,
      "down": 4844,
      "▁angel": 4845,
      "aur": 4846,
      "▁underst": 4847,
      "▁arrange": 4848,
      "▁cracked": 4849,
      "▁whenever": 4850,
      "ie's": 4851,
      "▁closed": 4852,
      "▁customers": 4853,
      "▁file": 4854,
      "▁expert": 4855,
      "▁judge": 4856,
      "▁sym": 4857,
      "▁determ": 4858,
      "▁repeat": 4859,
      "▁poem": 4860,
      "men": 4861,
      "▁wel": 4862,
      "▁children's": 4863,
      "nda": 4864,
      "ros": 4865,
      "▁animation": 4866,
      "▁vendor": 4867,
      "▁funn": 4868,
      "▁slowly": 4869,
      "▁overview": 4870,
      "▁o'": 4871,
      "▁cow": 4872,
      "▁bang": 4873,
      "▁der": 4874,
      "▁specif": 4875,
      "▁seven": 4876,
      "▁absor": 4877,
      "▁babies": 4878,
      "▁dealing": 4879,
      "▁sized": 4880,
      "▁greatly": 4881,
      "▁delightful": 4882,
      "▁dub": 4883,
      "▁harder": 4884,
      "▁recipe": 4885,
      "▁term": 4886,
      "▁thomas": 4887,
      "▁auto": 4888,
      "friend": 4889,
      "▁panasonic": 4890,
      "▁tapes": 4891,
      "uces": 4892,
      "▁sheets": 4893,
      "▁slip": 4894,
      "▁3d": 4895,
      "▁talks": 4896,
      "▁basics": 4897,
      "▁blah": 4898,
      "▁lousy": 4899,
      "berg": 4900,
      "arsh": 4901,
      "▁performed": 4902,
      "▁keys": 4903,
      "▁failure": 4904,
      "▁enjoys": 4905,
      "▁grip": 4906,
      "▁45": 4907,
      "▁charm": 4908,
      "▁pool": 4909,
      "▁map": 4910,
      "▁21": 4911,
      "▁researched": 4912,
      "▁cups": 4913,
      "▁graphic": 4914,
      "▁litter": 4915,
      "▁thrilled": 4916,
      "▁gam": 4917,
      "▁journal": 4918,
      "▁embarr": 4919,
      "▁attractive": 4920,
      "illa": 4921,
      "▁narrative": 4922,
      "▁toward": 4923,
      "▁teeth": 4924,
      "▁tall": 4925,
      "▁diam": 4926,
      "▁bland": 4927,
      "/p": 4928,
      "▁$5": 4929,
      "▁heck": 4930,
      "▁80": 4931,
      "house": 4932,
      "▁medical": 4933,
      "kward": 4934,
      "▁programming": 4935,
      "▁neat": 4936,
      "▁grown": 4937,
      "▁$10": 4938,
      "entially": 4939,
      "▁witch": 4940,
      "▁gy": 4941,
      "umbs": 4942,
      "▁adding": 4943,
      "▁stress": 4944,
      "▁fortun": 4945,
      "yle": 4946,
      "▁they've": 4947,
      "▁sings": 4948,
      "▁mirror": 4949,
      "▁stunning": 4950,
      "▁disturbing": 4951,
      "▁dirt": 4952,
      "▁expected\r\n": 4953,
      "▁knives": 4954,
      "▁bad\r\n": 4955,
      "▁chocolate": 4956,
      "ista": 4957,
      "▁basket": 4958,
      "▁$20": 4959,
      "▁risk": 4960,
      "▁xbox": 4961,
      "▁rhyth": 4962,
      "▁hint": 4963,
      "▁incorrect": 4964,
      "▁gorge": 4965,
      "▁dancing": 4966,
      "▁better\r\n": 4967,
      "▁remaster": 4968,
      "▁bush": 4969,
      "▁enem": 4970,
      "atisf": 4971,
      "▁story\r\n": 4972,
      "▁\"in": 4973,
      "rr": 4974,
      "▁biz": 4975,
      "▁convenient": 4976,
      "30": 4977,
      "hile": 4978,
      "▁wedding": 4979,
      "▁jeff": 4980,
      "▁ade": 4981,
      "▁gentle": 4982,
      "▁sea": 4983,
      "bble": 4984,
      "▁angry": 4985,
      "▁intriguing": 4986,
      "text": 4987,
      "▁frustrated": 4988,
      "▁temperature": 4989,
      "▁hassle": 4990,
      "▁vel": 4991,
      "▁asleep": 4992,
      "▁sav": 4993,
      "▁drill": 4994,
      "▁sexy": 4995,
      "▁damn": 4996,
      "inct": 4997,
      "▁overly": 4998,
      "▁extras": 4999,
      "ops": 5000,
      "▁groo": 5001,
      "▁terribly": 5002,
      "▁north": 5003,
      "▁brands": 5004,
      "▁lift": 5005,
      "▁100%": 5006,
      "▁relatively": 5007,
      "▁ease": 5008,
      "▁desire": 5009,
      "▁mob": 5010,
      "▁prevent": 5011,
      "▁separate": 5012,
      "▁awhile": 5013,
      "▁carpet": 5014,
      "▁70's": 5015,
      "oring": 5016,
      "▁styles": 5017,
      "ed\"": 5018,
      "▁prec": 5019,
      "lfriend": 5020,
      "rie": 5021,
      "▁nobody": 5022,
      "▁literary": 5023,
      "▁stink": 5024,
      "▁corn": 5025,
      "▁glo": 5026,
      "▁projects": 5027,
      "▁east": 5028,
      "▁maps": 5029,
      "▁evidence": 5030,
      "usi": 5031,
      "▁ado": 5032,
      "▁vehic": 5033,
      "▁outdated": 5034,
      "ession": 5035,
      "sey": 5036,
      "▁potter": 5037,
      "▁toss": 5038,
      "▁contrib": 5039,
      "▁systems": 5040,
      "▁unc": 5041,
      "▁excuse": 5042,
      "ford": 5043,
      "▁request": 5044,
      "▁challenge": 5045,
      "▁whatso": 5046,
      "▁flex": 5047,
      "▁suggested": 5048,
      "▁becoming": 5049,
      "▁opportunity": 5050,
      "▁goo": 5051,
      "▁string": 5052,
      "▁basis": 5053,
      "▁nu": 5054,
      "▁prepared": 5055,
      "▁sight": 5056,
      "icient": 5057,
      "▁finest": 5058,
      "▁won": 5059,
      "▁police": 5060,
      "lict": 5061,
      "▁tort": 5062,
      "▁sky": 5063,
      "▁whom": 5064,
      "▁genu": 5065,
      "▁choices": 5066,
      "▁moo": 5067,
      "isy": 5068,
      "▁row": 5069,
      "▁hen": 5070,
      "lan": 5071,
      "rees": 5072,
      "▁calling": 5073,
      "▁captiv": 5074,
      "▁marriage": 5075,
      "▁defe": 5076,
      "▁eth": 5077,
      "▁recognize": 5078,
      "▁government": 5079,
      "▁anime": 5080,
      "▁reception": 5081,
      "▁materials": 5082,
      "▁shopping": 5083,
      "▁insights": 5084,
      "aint": 5085,
      "▁diag": 5086,
      "▁amate": 5087,
      "cies": 5088,
      "anda": 5089,
      "▁rechar": 5090,
      "▁speaking": 5091,
      "▁hung": 5092,
      "▁begins": 5093,
      "▁biography": 5094,
      "▁redeem": 5095,
      "▁resist": 5096,
      "▁rings": 5097,
      "▁weeke": 5098,
      "▁describes": 5099,
      "▁cartoon": 5100,
      "▁and/or": 5101,
      "▁glasses": 5102,
      "sequ": 5103,
      "▁dvd\r\n": 5104,
      "▁supply": 5105,
      "▁anticip": 5106,
      "▁gang": 5107,
      "▁singers": 5108,
      "▁promise": 5109,
      "▁happening": 5110,
      "▁frankly": 5111,
      "▁gorgeous": 5112,
      "▁awkward": 5113,
      "▁angle": 5114,
      "iers": 5115,
      "▁whatsoever": 5116,
      "▁jon": 5117,
      "▁politics": 5118,
      "point": 5119,
      "▁provoking": 5120,
      "▁alex": 5121,
      "****": 5122,
      "▁antenna": 5123,
      "▁penny": 5124,
      "▁investment": 5125,
      "▁improved": 5126,
      "▁encounter": 5127,
      "ander": 5128,
      "▁lp": 5129,
      "▁yester": 5130,
      "▁tales": 5131,
      "▁flu": 5132,
      "▁tax": 5133,
      "▁filters": 5134,
      "▁wake": 5135,
      "rog": 5136,
      "▁una": 5137,
      "▁girlfriend": 5138,
      "▁lie": 5139,
      "▁tab": 5140,
      "▁lol": 5141,
      "▁sheet": 5142,
      "▁chris": 5143,
      "▁promised": 5144,
      "▁soooo": 5145,
      "▁clips": 5146,
      "night": 5147,
      "▁wanna": 5148,
      "▁leads": 5149,
      "▁desper": 5150,
      "inal": 5151,
      "▁jokes": 5152,
      "▁nonsense": 5153,
      "▁memorable": 5154,
      "arant": 5155,
      "▁printing": 5156,
      "lock": 5157,
      "▁winner": 5158,
      "▁safety": 5159,
      "▁shap": 5160,
      "▁hanging": 5161,
      "▁computers": 5162,
      "▁shirt": 5163,
      "▁luc": 5164,
      "▁jar": 5165,
      "▁tex": 5166,
      "▁married": 5167,
      "▁holiday": 5168,
      "cho": 5169,
      "ification": 5170,
      "gi": 5171,
      "▁chain": 5172,
      "▁vision": 5173,
      "▁worthwhile": 5174,
      "▁medic": 5175,
      "▁shocked": 5176,
      "▁blind": 5177,
      "▁struggle": 5178,
      "▁belong": 5179,
      "▁ultimately": 5180,
      "▁pour": 5181,
      "▁taught": 5182,
      "▁truck": 5183,
      "▁scientific": 5184,
      "▁advise": 5185,
      "▁dum": 5186,
      "enom": 5187,
      "▁physical": 5188,
      "▁one\r\n": 5189,
      "gain": 5190,
      "▁bent": 5191,
      "▁this\r\n": 5192,
      "▁punch": 5193,
      "▁sports": 5194,
      "mare": 5195,
      "▁snap": 5196,
      "▁closer": 5197,
      "cape": 5198,
      "▁unex": 5199,
      "▁treasure": 5200,
      "▁camer": 5201,
      "▁anne": 5202,
      "▁cartridge": 5203,
      "▁toaster": 5204,
      "▁recommendation": 5205,
      "▁transm": 5206,
      "▁companies": 5207,
      "▁views": 5208,
      "zzzz": 5209,
      "gic": 5210,
      "gle": 5211,
      "▁tons": 5212,
      "▁ded": 5213,
      "▁\"you": 5214,
      "▁conflict": 5215,
      "quate": 5216,
      "en's": 5217,
      "▁wasting": 5218,
      "ein": 5219,
      "▁genuine": 5220,
      "▁ancient": 5221,
      "▁protection": 5222,
      "▁enthusi": 5223,
      "▁italian": 5224,
      "sters": 5225,
      "▁favour": 5226,
      "▁ell": 5227,
      "▁stainless": 5228,
      "▁sink": 5229,
      "▁pictured": 5230,
      "oul": 5231,
      "▁palm": 5232,
      "▁philosophy": 5233,
      "any": 5234,
      "▁indian": 5235,
      "▁inacc": 5236,
      "▁\"what": 5237,
      "▁boring\r\n": 5238,
      "▁paperback": 5239,
      "▁beatles": 5240,
      "vi": 5241,
      "▁interviews": 5242,
      "▁crappy": 5243,
      "▁wine": 5244,
      "▁today's": 5245,
      "asty": 5246,
      "▁plant": 5247,
      "▁mas": 5248,
      "full": 5249,
      "▁somebody": 5250,
      "▁viny": 5251,
      "▁decision": 5252,
      "▁groups": 5253,
      "▁deeply": 5254,
      "▁ze": 5255,
      "▁height": 5256,
      "▁abuse": 5257,
      "▁disaster": 5258,
      "▁bin": 5259,
      "▁alt": 5260,
      "field": 5261,
      "▁mild": 5262,
      "▁chic": 5263,
      "▁packaged": 5264,
      "▁adventures": 5265,
      "▁photography": 5266,
      "kins": 5267,
      "▁americans": 5268,
      "▁fingers": 5269,
      "▁warned": 5270,
      "▁gate": 5271,
      "▁curious": 5272,
      "▁music\r\n": 5273,
      "▁lem": 5274,
      "▁contents": 5275,
      "▁scent": 5276,
      "▁benefit": 5277,
      "▁dave": 5278,
      "▁losing": 5279,
      "▁book's": 5280,
      "ims": 5281,
      "▁bum": 5282,
      "▁distract": 5283,
      "▁sources": 5284,
      "alled": 5285,
      "▁guest": 5286,
      "▁supple": 5287,
      "▁programs": 5288,
      "▁hidden": 5289,
      "▁teaches": 5290,
      "▁experiment": 5291,
      "▁sticks": 5292,
      "▁\"o": 5293,
      "▁surely": 5294,
      "▁enter": 5295,
      "▁updated": 5296,
      "▁factory": 5297,
      "▁dread": 5298,
      "▁ram": 5299,
      "▁burning": 5300,
      "▁discussion": 5301,
      "▁cleaner": 5302,
      "▁lau": 5303,
      "▁parag": 5304,
      "spe": 5305,
      "soci": 5306,
      "▁grandson": 5307,
      "▁sleeping": 5308,
      "inet": 5309,
      "▁forgotten": 5310,
      "▁bell": 5311,
      "▁rose": 5312,
      "▁spots": 5313,
      "▁readable": 5314,
      "war": 5315,
      "▁contemporary": 5316,
      "▁remains": 5317,
      "▁behavior": 5318,
      "▁delicious": 5319,
      "orter": 5320,
      "▁gal": 5321,
      "▁dragon": 5322,
      "▁critical": 5323,
      "▁themes": 5324,
      "▁boat": 5325,
      "▁security": 5326,
      "▁distort": 5327,
      "ache": 5328,
      "ola": 5329,
      "▁duty": 5330,
      "▁introduced": 5331,
      "▁retail": 5332,
      "man's": 5333,
      "▁edit": 5334,
      "▁hardcore": 5335,
      "▁stephen": 5336,
      "▁laughed": 5337,
      "▁bend": 5338,
      "▁catholic": 5339,
      "▁cele": 5340,
      "▁england": 5341,
      "▁sucked": 5342,
      "▁again\r\n": 5343,
      "▁gore": 5344,
      "▁picking": 5345,
      "▁amateur": 5346,
      "▁helping": 5347,
      "▁surprisingly": 5348,
      "atically": 5349,
      "▁categ": 5350,
      "▁kiss": 5351,
      "onn": 5352,
      "▁replacing": 5353,
      "▁folk": 5354,
      "▁receiver": 5355,
      "uality": 5356,
      "xious": 5357,
      "entic": 5358,
      "pson": 5359,
      "▁stops": 5360,
      "▁contained": 5361,
      "ener": 5362,
      "▁sant": 5363,
      "▁gross": 5364,
      "▁prime": 5365,
      "afe": 5366,
      "▁accompan": 5367,
      "pack": 5368,
      "some": 5369,
      "▁nightmare": 5370,
      "met": 5371,
      "▁stayed": 5372,
      "oration": 5373,
      "che": 5374,
      "▁wheels": 5375,
      "▁gifts": 5376,
      "▁majority": 5377,
      "▁needless": 5378,
      "▁uk": 5379,
      "▁dreams": 5380,
      "ban": 5381,
      "▁wore": 5382,
      "▁yesterday": 5383,
      "▁\"se": 5384,
      "▁reveal": 5385,
      "▁epic": 5386,
      "▁embarrass": 5387,
      "da": 5388,
      "ena": 5389,
      "iel": 5390,
      "nes": 5391,
      "▁bomb": 5392,
      "ashing": 5393,
      "▁holder": 5394,
      "▁regardless": 5395,
      "lor": 5396,
      "▁razor": 5397,
      "▁22": 5398,
      "▁personality": 5399,
      "/10": 5400,
      "▁si": 5401,
      "▁lasts": 5402,
      "iforn": 5403,
      "▁community": 5404,
      "▁bound": 5405,
      "▁guarant": 5406,
      "▁subtle": 5407,
      "▁metall": 5408,
      "▁cake": 5409,
      "▁mike": 5410,
      "▁leaks": 5411,
      "▁stom": 5412,
      "▁context": 5413,
      "ule": 5414,
      "▁weap": 5415,
      "▁balls": 5416,
      "▁bars": 5417,
      "▁som": 5418,
      "▁oz": 5419,
      "▁therm": 5420,
      "ocks": 5421,
      "▁region": 5422,
      "▁vinyl": 5423,
      "▁lightweight": 5424,
      "▁inner": 5425,
      "▁paragraph": 5426,
      "▁charging": 5427,
      "▁unw": 5428,
      "▁jewel": 5429,
      "▁jackson": 5430,
      "▁member": 5431,
      "▁appeared": 5432,
      "oting": 5433,
      "isco": 5434,
      "$$": 5435,
      "▁troub": 5436,
      "▁enlight": 5437,
      "▁sample": 5438,
      "isters": 5439,
      "plete": 5440,
      "▁initially": 5441,
      "▁aust": 5442,
      "▁mira": 5443,
      "top": 5444,
      "▁alien": 5445,
      "▁education": 5446,
      "▁riff": 5447,
      "▁vacation": 5448,
      "mpath": 5449,
      "▁transform": 5450,
      "▁liqu": 5451,
      "▁unha": 5452,
      "▁glue": 5453,
      "aph": 5454,
      "whel": 5455,
      "▁yard": 5456,
      "ded": 5457,
      "tain": 5458,
      "▁actress": 5459,
      "▁washed": 5460,
      "mart": 5461,
      "reg": 5462,
      "▁gotta": 5463,
      "▁lind": 5464,
      "▁application": 5465,
      "imate": 5466,
      "▁bargain": 5467,
      "▁mexic": 5468,
      "▁tube": 5469,
      "▁rented": 5470,
      "▁unne": 5471,
      "gged": 5472,
      "▁weekend": 5473,
      "▁intellect": 5474,
      "▁drivers": 5475,
      "▁tag": 5476,
      "▁square": 5477,
      "▁utterly": 5478,
      "▁terror": 5479,
      "▁deeper": 5480,
      "▁marvel": 5481,
      "▁degree": 5482,
      "▁fox": 5483,
      "▁ine": 5484,
      "▁portion": 5485,
      "▁bruce": 5486,
      "▁inspiration": 5487,
      "▁gree": 5488,
      "▁overpr": 5489,
      "▁associ": 5490,
      "▁investig": 5491,
      "▁gig": 5492,
      "▁suddenly": 5493,
      "▁explanations": 5494,
      "▁devices": 5495,
      "▁arms": 5496,
      "ceed": 5497,
      "▁universe": 5498,
      "▁suction": 5499,
      "▁candy": 5500,
      "unction": 5501,
      "▁killing": 5502,
      "▁concise": 5503,
      "▁timely": 5504,
      "▁therap": 5505,
      "▁enh": 5506,
      "▁gps": 5507,
      "▁blender": 5508,
      "▁disapp": 5509,
      "▁\"no": 5510,
      "▁specifically": 5511,
      "▁integr": 5512,
      "able\r\n": 5513,
      "▁famil": 5514,
      "▁smile": 5515,
      "▁sta": 5516,
      "▁melodies": 5517,
      "▁subscri": 5518,
      "▁charming": 5519,
      "▁celebr": 5520,
      "▁toast": 5521,
      "▁stereot": 5522,
      "▁patch": 5523,
      "▁thumbs": 5524,
      "▁35": 5525,
      "▁handles": 5526,
      "ppers": 5527,
      "▁national": 5528,
      "▁twenty": 5529,
      "▁lcd": 5530,
      "▁infer": 5531,
      "▁here's": 5532,
      "▁functions": 5533,
      "▁avid": 5534,
      "▁youth": 5535,
      "arian": 5536,
      "▁tray": 5537,
      "ometer": 5538,
      "▁boyfriend": 5539,
      "▁golden": 5540,
      "▁boxes": 5541,
      "▁dynam": 5542,
      "▁tang": 5543,
      "▁intern": 5544,
      "▁exchange": 5545,
      "▁assembly": 5546,
      "▁kinds": 5547,
      "▁reb": 5548,
      "▁stream": 5549,
      "▁chuck": 5550,
      "▁impl": 5551,
      "▁throwing": 5552,
      "ission": 5553,
      "▁plate": 5554,
      "▁excit": 5555,
      "▁pear": 5556,
      "▁dun": 5557,
      "▁spare": 5558,
      "▁management": 5559,
      "ifornia": 5560,
      "▁witty": 5561,
      "illing": 5562,
      "▁70": 5563,
      "▁flight": 5564,
      "▁game\r\n": 5565,
      "▁unhappy": 5566,
      "▁fellow": 5567,
      "▁flying": 5568,
      "lers": 5569,
      "uts": 5570,
      "▁leading": 5571,
      "umin": 5572,
      "▁values": 5573,
      "▁mold": 5574,
      "▁une": 5575,
      "▁corpor": 5576,
      "▁rend": 5577,
      "▁tick": 5578,
      "▁praise": 5579,
      "▁southern": 5580,
      "▁hesit": 5581,
      "▁surf": 5582,
      "▁95": 5583,
      "▁vivid": 5584,
      "▁overpriced": 5585,
      "▁timer": 5586,
      "▁lamp": 5587,
      "osh": 5588,
      "▁native": 5589,
      "gers": 5590,
      "▁policy": 5591,
      "▁ko": 5592,
      "▁authentic": 5593,
      "▁everytime": 5594,
      "ckets": 5595,
      "uate": 5596,
      "▁frag": 5597,
      "▁dozen": 5598,
      "jo": 5599,
      "urt": 5600,
      "▁serve": 5601,
      "▁nick": 5602,
      "▁cuis": 5603,
      "▁virtually": 5604,
      "▁freed": 5605,
      "▁lit": 5606,
      "▁haunting": 5607,
      "▁technique": 5608,
      "▁employ": 5609,
      "▁fer": 5610,
      "lam": 5611,
      "in't": 5612,
      "▁gall": 5613,
      "ida": 5614,
      "▁mature": 5615,
      "cles": 5616,
      "▁fluff": 5617,
      "▁rule": 5618,
      "▁compon": 5619,
      "▁sweat": 5620,
      "▁william": 5621,
      "▁mountain": 5622,
      "▁wisdom": 5623,
      "s'": 5624,
      "▁delivers": 5625,
      "▁phenom": 5626,
      "▁tested": 5627,
      "▁moore": 5628,
      "▁patterns": 5629,
      "▁veget": 5630,
      "ago": 5631,
      "▁plat": 5632,
      "▁bathroom": 5633,
      "▁tremend": 5634,
      "▁300": 5635,
      "▁busy": 5636,
      "▁dies": 5637,
      "▁receiving": 5638,
      "▁stiff": 5639,
      "zzy": 5640,
      "▁ideal": 5641,
      "▁diaper": 5642,
      "/f": 5643,
      "▁classes": 5644,
      "list": 5645,
      "los": 5646,
      "ora": 5647,
      "▁amusing": 5648,
      "▁rolling": 5649,
      "aughters": 5650,
      "▁rac": 5651,
      "▁atmos": 5652,
      "▁vista": 5653,
      "etime": 5654,
      "▁capture": 5655,
      "acular": 5656,
      "roll": 5657,
      "▁titled": 5658,
      "▁caut": 5659,
      "▁attitude": 5660,
      "▁cares": 5661,
      "▁ain't": 5662,
      "▁moist": 5663,
      "▁equally": 5664,
      "▁controller": 5665,
      "teen": 5666,
      "▁corner": 5667,
      "▁motion": 5668,
      "▁methods": 5669,
      "anged": 5670,
      "▁turner": 5671,
      "▁directed": 5672,
      "▁advertising": 5673,
      "▁hous": 5674,
      "▁revolution": 5675,
      "▁acou": 5676,
      "iles": 5677,
      "gue": 5678,
      "▁salt": 5679,
      "▁noted": 5680,
      "▁bind": 5681,
      "▁studies": 5682,
      "▁calcul": 5683,
      "▁synth": 5684,
      "▁ive": 5685,
      "▁ds": 5686,
      "▁boun": 5687,
      "▁sung": 5688,
      "▁pul": 5689,
      "▁tooth": 5690,
      "▁billy": 5691,
      "die": 5692,
      "▁2003": 5693,
      "▁reminded": 5694,
      "▁causes": 5695,
      "▁maintain": 5696,
      "▁mechanism": 5697,
      "al\"": 5698,
      "esting": 5699,
      "▁hundreds": 5700,
      "▁stinks": 5701,
      "▁container": 5702,
      "▁humorous": 5703,
      "▁unusual": 5704,
      "▁flip": 5705,
      "▁structure": 5706,
      "▁carrying": 5707,
      "▁significant": 5708,
      "▁expand": 5709,
      "▁oppos": 5710,
      "▁plane": 5711,
      "▁independ": 5712,
      "▁leaders": 5713,
      "▁users": 5714,
      "▁boss": 5715,
      "▁vin": 5716,
      "▁reput": 5717,
      "airs": 5718,
      "▁williams": 5719,
      "▁noisy": 5720,
      "ulate": 5721,
      "▁dinner": 5722,
      "▁cher": 5723,
      "▁collector": 5724,
      "ifting": 5725,
      "uary": 5726,
      "▁generic": 5727,
      "in's": 5728,
      "▁minimal": 5729,
      "▁cub": 5730,
      "▁sore": 5731,
      "▁explaining": 5732,
      "▁freak": 5733,
      "▁sentence": 5734,
      "▁alright": 5735,
      "▁actions": 5736,
      "▁california": 5737,
      "▁solve": 5738,
      "▁occasionally": 5739,
      "ulf": 5740,
      "▁prices": 5741,
      "▁remarkable": 5742,
      "vy": 5743,
      "▁listing": 5744,
      "▁trek": 5745,
      "▁gameplay": 5746,
      "▁tie": 5747,
      "bby": 5748,
      "▁vari": 5749,
      "▁subtitles": 5750,
      "▁vent": 5751,
      "▁straps": 5752,
      "▁court": 5753,
      "▁disag": 5754,
      "▁irritating": 5755,
      "▁president": 5756,
      "ees": 5757,
      "▁\"r": 5758,
      "▁resolution": 5759,
      "▁assume": 5760,
      "▁texas": 5761,
      "▁families": 5762,
      "urd": 5763,
      "▁timeless": 5764,
      "▁universal": 5765,
      "▁sams": 5766,
      "▁perf": 5767,
      "▁arrive": 5768,
      "bi": 5769,
      "▁cardboard": 5770,
      "▁disapointed": 5771,
      "arn": 5772,
      "▁follows": 5773,
      "▁hoo": 5774,
      "▁escape": 5775,
      "▁shooting": 5776,
      "▁edges": 5777,
      "▁limit": 5778,
      "▁drives": 5779,
      "▁merely": 5780,
      "appoint": 5781,
      "▁neighbor": 5782,
      "▁\"be": 5783,
      "▁proud": 5784,
      "▁advant": 5785,
      "▁sd": 5786,
      "▁~": 5787,
      "ki": 5788,
      "▁functional": 5789,
      "▁resol": 5790,
      "▁chicken": 5791,
      "▁strip": 5792,
      "▁standing": 5793,
      "▁ol": 5794,
      "▁hide": 5795,
      "▁bulb": 5796,
      "▁fourth": 5797,
      "▁bugs": 5798,
      "▁disgusting": 5799,
      "▁prove": 5800,
      "▁songwr": 5801,
      "▁suggestions": 5802,
      "ndon": 5803,
      "▁colorful": 5804,
      "▁encourage": 5805,
      "ech": 5806,
      "▁ultra": 5807,
      "▁dj": 5808,
      "▁army": 5809,
      "▁demo": 5810,
      "▁notch": 5811,
      "ternal": 5812,
      "▁efforts": 5813,
      "▁remake": 5814,
      "mans": 5815,
      "▁photographs": 5816,
      "▁unnecess": 5817,
      "ely": 5818,
      "▁polish": 5819,
      "▁agg": 5820,
      "▁instruments": 5821,
      "▁sag": 5822,
      "gb": 5823,
      "▁reh": 5824,
      "▁\"bl": 5825,
      "▁blown": 5826,
      "▁\"how": 5827,
      "▁hallow": 5828,
      "lon": 5829,
      "lines": 5830,
      "▁professor": 5831,
      "▁fac": 5832,
      "stream": 5833,
      "▁achieve": 5834,
      "nday": 5835,
      "▁magical": 5836,
      "▁bog": 5837,
      "gl": 5838,
      "▁2004": 5839,
      "▁dele": 5840,
      "▁esc": 5841,
      "▁reset": 5842,
      "rs": 5843,
      "▁proves": 5844,
      "▁spread": 5845,
      "▁pads": 5846,
      "eg": 5847,
      "▁\"lo": 5848,
      "▁amazon's": 5849,
      "▁strings": 5850,
      "▁intro": 5851,
      "▁foam": 5852,
      "▁series\r\n": 5853,
      "▁johnny": 5854,
      "▁rang": 5855,
      "▁unrealistic": 5856,
      "▁loaded": 5857,
      "▁flaws": 5858,
      "▁preach": 5859,
      "▁wat": 5860,
      "▁sole": 5861,
      "▁laughs": 5862,
      "▁satisfying": 5863,
      "▁scared": 5864,
      "izer": 5865,
      "▁humid": 5866,
      "▁breast": 5867,
      "▁gospe": 5868,
      "/5": 5869,
      "▁wing": 5870,
      "▁lighter": 5871,
      "lical": 5872,
      "▁yo": 5873,
      "azy": 5874,
      "this": 5875,
      "▁\"it": 5876,
      "▁wrap": 5877,
      "etch": 5878,
      "bal": 5879,
      "▁promptly": 5880,
      "ville": 5881,
      "ape": 5882,
      "zing": 5883,
      "▁sympath": 5884,
      "▁greater": 5885,
      "▁champ": 5886,
      "▁$4": 5887,
      "▁degrees": 5888,
      "▁storm": 5889,
      "▁seg": 5890,
      "agers": 5891,
      "bit": 5892,
      "▁drums": 5893,
      "▁split": 5894,
      "▁emph": 5895,
      "▁teens": 5896,
      "apped": 5897,
      "▁sen": 5898,
      "▁500": 5899,
      "tw": 5900,
      "▁deals": 5901,
      "▁uncle": 5902,
      "pected": 5903,
      "craft": 5904,
      "▁aid": 5905,
      "▁checking": 5906,
      "ole": 5907,
      "ustral": 5908,
      "▁river": 5909,
      "▁atl": 5910,
      "▁assemble": 5911,
      "▁sizes": 5912,
      "▁opener": 5913,
      "▁exceptional": 5914,
      "▁chemical": 5915,
      "▁eb": 5916,
      "▁recall": 5917,
      "▁protagon": 5918,
      "▁interact": 5919,
      "▁captures": 5920,
      "print": 5921,
      "▁4th": 5922,
      "aus": 5923,
      "▁puzzle": 5924,
      "▁toile": 5925,
      "▁companion": 5926,
      "▁african": 5927,
      "▁sab": 5928,
      "▁intelligence": 5929,
      "▁overrated": 5930,
      "▁freedom": 5931,
      "a\"": 5932,
      "▁hack": 5933,
      "▁2005": 5934,
      "hol": 5935,
      "▁plots": 5936,
      "▁excitement": 5937,
      "▁moral": 5938,
      "▁dism": 5939,
      "▁oct": 5940,
      "▁blast": 5941,
      "▁confir": 5942,
      "rived": 5943,
      "acity": 5944,
      "▁use\r\n": 5945,
      "▁foods": 5946,
      "▁mission": 5947,
      "store": 5948,
      "▁aim": 5949,
      "▁bb": 5950,
      "▁narrow": 5951,
      "▁host": 5952,
      "▁award": 5953,
      "ummy": 5954,
      "▁dramatic": 5955,
      "▁lifetime": 5956,
      "▁unkn": 5957,
      "washer": 5958,
      "cover": 5959,
      "▁holy": 5960,
      "▁austral": 5961,
      "▁magnific": 5962,
      "▁crew": 5963,
      "inist": 5964,
      "▁depict": 5965,
      "nn": 5966,
      "▁appreciated": 5967,
      "&b": 5968,
      "▁mysteries": 5969,
      "▁baseball": 5970,
      "▁jav": 5971,
      "ashed": 5972,
      "▁assist": 5973,
      "▁frustration": 5974,
      "bur": 5975,
      "▁instant": 5976,
      "▁osc": 5977,
      "eter": 5978,
      "iven": 5979,
      "▁nik": 5980,
      "▁pounds": 5981,
      "▁wealth": 5982,
      "▁slim": 5983,
      "ficial": 5984,
      "▁eager": 5985,
      "▁prepare": 5986,
      "do": 5987,
      "▁roots": 5988,
      "▁all\r\n": 5989,
      "▁fooled": 5990,
      "▁ner": 5991,
      "abeth": 5992,
      "▁fred": 5993,
      "▁latin": 5994,
      "▁served": 5995,
      "▁painting": 5996,
      "▁teenage": 5997,
      "▁machines": 5998,
      "▁pac": 5999,
      "▁scare": 6000,
      "▁articles": 6001,
      "rist": 6002,
      "race": 6003,
      "▁chemistry": 6004,
      "▁crisp": 6005,
      "▁man's": 6006,
      "▁extraord": 6007,
      "sell": 6008,
      "▁arrangements": 6009,
      "▁focused": 6010,
      "▁overwhel": 6011,
      "▁awsome": 6012,
      "▁na": 6013,
      "▁finan": 6014,
      "insp": 6015,
      "▁rein": 6016,
      "▁skept": 6017,
      "▁creates": 6018,
      "▁fed": 6019,
      "▁tribute": 6020,
      "▁vit": 6021,
      "▁dud": 6022,
      "▁conserv": 6023,
      "▁ps2": 6024,
      "ooo": 6025,
      "▁brut": 6026,
      "▁hub": 6027,
      "▁eliz": 6028,
      "▁encoura": 6029,
      "▁giant": 6030,
      "▁spectacular": 6031,
      "anks": 6032,
      "▁profound": 6033,
      "▁lew": 6034,
      "▁pit": 6035,
      "▁fun\r\n": 6036,
      "▁casual": 6037,
      "▁wooden": 6038,
      "▁bulky": 6039,
      "▁relevant": 6040,
      "▁alike": 6041,
      "▁crowd": 6042,
      "▁touched": 6043,
      "▁cit": 6044,
      "▁pants": 6045,
      "▁rat": 6046,
      "▁prince": 6047,
      "▁marks": 6048,
      "bell": 6049,
      "▁arth": 6050,
      "▁menu": 6051,
      "▁initial": 6052,
      "ril": 6053,
      "▁'t": 6054,
      "▁distance": 6055,
      "▁biased": 6056,
      "▁toddler": 6057,
      "▁messages": 6058,
      "▁difficulty": 6059,
      "▁laid": 6060,
      "▁subjects": 6061,
      "▁daughters": 6062,
      "yer": 6063,
      "▁dian": 6064,
      "▁supposedly": 6065,
      "▁courage": 6066,
      "▁supporting": 6067,
      "inart": 6068,
      "▁unpl": 6069,
      "▁wrest": 6070,
      "▁nasty": 6071,
      "▁bod": 6072,
      "▁pattern": 6073,
      "▁cong": 6074,
      "▁scratches": 6075,
      "▁continued": 6076,
      "▁granted": 6077,
      "▁heater": 6078,
      "▁ker": 6079,
      "▁suc": 6080,
      "▁violent": 6081,
      "▁ugh": 6082,
      "▁extensive": 6083,
      "▁index": 6084,
      "▁offering": 6085,
      "▁sites": 6086,
      "▁clay": 6087,
      "▁musician": 6088,
      "▁excellent\r\n": 6089,
      "▁dishwasher": 6090,
      "▁luckily": 6091,
      "▁ordinary": 6092,
      "place": 6093,
      "▁#1": 6094,
      "eto": 6095,
      "▁picks": 6096,
      "uous": 6097,
      "▁wides": 6098,
      "▁slo": 6099,
      "▁london": 6100,
      "▁unp": 6101,
      "▁obsc": 6102,
      "▁gym": 6103,
      "▁princess": 6104,
      "▁samsung": 6105,
      "▁awa": 6106,
      "▁dick": 6107,
      "▁stereotyp": 6108,
      "isc": 6109,
      "▁acted": 6110,
      "▁owner": 6111,
      "enced": 6112,
      "▁excess": 6113,
      "▁microw": 6114,
      "▁\"new": 6115,
      "▁output": 6116,
      "▁guns": 6117,
      "▁stomach": 6118,
      "▁evening": 6119,
      "▁reviewed": 6120,
      "cro": 6121,
      "wal": 6122,
      "▁practically": 6123,
      "▁constructed": 6124,
      "▁forgot": 6125,
      "▁halloween": 6126,
      "▁horri": 6127,
      "▁emphas": 6128,
      "rep": 6129,
      "▁laser": 6130,
      "▁guitars": 6131,
      "outs": 6132,
      "▁ashamed": 6133,
      "▁'the": 6134,
      "▁tension": 6135,
      "▁blame": 6136,
      "chool": 6137,
      "▁preview": 6138,
      "▁quir": 6139,
      "▁appearance": 6140,
      "▁slee": 6141,
      "▁mysterious": 6142,
      "▁occur": 6143,
      "creen": 6144,
      "▁bun": 6145,
      "▁prison": 6146,
      "▁halfway": 6147,
      "oles": 6148,
      "▁fairy": 6149,
      "pass": 6150,
      "▁clue": 6151,
      "▁peel": 6152,
      "▁input": 6153,
      "▁costume": 6154,
      "▁dissappoint": 6155,
      "▁orchestra": 6156,
      "/m": 6157,
      "▁gloves": 6158,
      "▁pulling": 6159,
      "▁cartridges": 6160,
      "/b": 6161,
      "▁consumer": 6162,
      "fo": 6163,
      "▁isnt": 6164,
      "▁routine": 6165,
      "▁arts": 6166,
      "▁shred": 6167,
      "▁waist": 6168,
      "iments": 6169,
      "▁linksys": 6170,
      "▁flag": 6171,
      "▁figures": 6172,
      "▁goodness": 6173,
      "▁department": 6174,
      "oyd": 6175,
      "▁liquid": 6176,
      "▁wrist": 6177,
      "app": 6178,
      "▁dear": 6179,
      "ae": 6180,
      "itz": 6181,
      "▁lists": 6182,
      "aves": 6183,
      "▁creepy": 6184,
      "▁irish": 6185,
      "▁kidding": 6186,
      "▁\"this": 6187,
      "▁birds": 6188,
      "▁furn": 6189,
      "▁fm": 6190,
      "▁finishing": 6191,
      "▁acoustic": 6192,
      "rate": 6193,
      "▁march": 6194,
      "▁bringing": 6195,
      "▁rick": 6196,
      "▁blew": 6197,
      "▁installing": 6198,
      "▁supr": 6199,
      "▁dying": 6200,
      "▁prepar": 6201,
      "▁innov": 6202,
      "▁mental": 6203,
      "▁god's": 6204,
      "▁desired": 6205,
      "▁doors": 6206,
      "asm": 6207,
      "▁uninter": 6208,
      "ords": 6209,
      "▁powers": 6210,
      "▁clarity": 6211,
      "▁horribly": 6212,
      "▁rhythm": 6213,
      "▁grinder": 6214,
      "▁$100": 6215,
      "▁dimensional": 6216,
      "▁teachers": 6217,
      "▁opinions": 6218,
      "70": 6219,
      "▁viet": 6220,
      "ums": 6221,
      "▁dump": 6222,
      "▁instrumental": 6223,
      "▁evolution": 6224,
      "▁hay": 6225,
      "▁scratched": 6226,
      "▁toilet": 6227,
      "▁wires": 6228,
      "phere": 6229,
      "pher": 6230,
      "▁you\"": 6231,
      "aken": 6232,
      "▁factor": 6233,
      "▁zoom": 6234,
      "▁2007": 6235,
      "utor": 6236,
      "▁nails": 6237,
      "▁brad": 6238,
      "of": 6239,
      "▁service\r\n": 6240,
      "▁combined": 6241,
      "ifying": 6242,
      "▁imagin": 6243,
      "▁devil": 6244,
      "▁vast": 6245,
      "▁kar": 6246,
      "▁nuts": 6247,
      "▁hood": 6248,
      "▁sits": 6249,
      "▁understood": 6250,
      "▁viewer": 6251,
      "▁returns": 6252,
      "▁inspirational": 6253,
      "▁united": 6254,
      "▁drugs": 6255,
      "▁tack": 6256,
      "▁terrible\r\n": 6257,
      "▁welcome": 6258,
      "▁dishes": 6259,
      "▁essentially": 6260,
      "▁orange": 6261,
      "▁wrapped": 6262,
      "▁carol": 6263,
      "▁tony": 6264,
      "▁smoke": 6265,
      "▁ignore": 6266,
      "aring": 6267,
      "yn": 6268,
      "▁gospel": 6269,
      "▁mattress": 6270,
      "stick": 6271,
      "▁location": 6272,
      "rick": 6273,
      "▁hammer": 6274,
      "▁it'll": 6275,
      "▁cassette": 6276,
      "▁funk": 6277,
      "▁upl": 6278,
      "▁speaks": 6279,
      "can": 6280,
      "▁sentences": 6281,
      "▁\"k": 6282,
      "▁traveling": 6283,
      "icy": 6284,
      "▁spell": 6285,
      "▁vehicle": 6286,
      "▁influence": 6287,
      "▁bedroom": 6288,
      "▁foreign": 6289,
      "ini": 6290,
      "▁nose": 6291,
      "▁strate": 6292,
      "▁pleasantly": 6293,
      "cend": 6294,
      "essed": 6295,
      "▁redeeming": 6296,
      "rey": 6297,
      "ettle": 6298,
      "▁son's": 6299,
      "▁gloss": 6300,
      "▁producers": 6301,
      "▁render": 6302,
      "▁highest": 6303,
      "▁central": 6304,
      "▁advertis": 6305,
      "▁elizabeth": 6306,
      "▁fundament": 6307,
      "▁lone": 6308,
      "▁equal": 6309,
      "▁serv": 6310,
      "▁relaxing": 6311,
      "/h": 6312,
      "▁tent": 6313,
      "alog": 6314,
      "▁decor": 6315,
      "▁acceptable": 6316,
      "▁$50": 6317,
      "▁absurd": 6318,
      "▁sup": 6319,
      "▁jacket": 6320,
      "▁glor": 6321,
      "o\"": 6322,
      "▁liberal": 6323,
      "▁unknown": 6324,
      "▁interface": 6325,
      "▁ignor": 6326,
      "▁mainstream": 6327,
      "▁estab": 6328,
      "▁bank": 6329,
      "▁cuisinart": 6330,
      "▁boots": 6331,
      "▁talked": 6332,
      "▁nurs": 6333,
      "▁poems": 6334,
      "▁trips": 6335,
      "▁endless": 6336,
      "▁guard": 6337,
      "▁boom": 6338,
      "▁fict": 6339,
      "▁honor": 6340,
      "▁este": 6341,
      "▁portrayed": 6342,
      "▁inj": 6343,
      "▁pans": 6344,
      "▁disagree": 6345,
      "iser": 6346,
      "▁excel": 6347,
      "▁fortunately": 6348,
      "▁chronic": 6349,
      "▁advance": 6350,
      "▁coverage": 6351,
      "▁strategy": 6352,
      "▁weigh": 6353,
      "▁asp": 6354,
      "▁nine": 6355,
      "▁chos": 6356,
      "ifier": 6357,
      "▁university": 6358,
      "inge": 6359,
      "▁supplement": 6360,
      "▁eric": 6361,
      "▁temp": 6362,
      "▁miser": 6363,
      "▁garmin": 6364,
      "▁drawback": 6365,
      "▁cameras": 6366,
      "▁classic\r\n": 6367,
      "aren": 6368,
      "▁aug": 6369,
      "▁pig": 6370,
      "▁amazingly": 6371,
      "▁2006": 6372,
      "▁drinking": 6373,
      "▁pregnant": 6374,
      "▁ox": 6375,
      "▁mand": 6376,
      "nis": 6377,
      "▁sher": 6378,
      "▁dryer": 6379,
      "▁quotes": 6380,
      "hold": 6381,
      "▁balanced": 6382,
      "▁christians": 6383,
      "▁manages": 6384,
      "▁pir": 6385,
      "▁eleg": 6386,
      "▁logic": 6387,
      "▁we'll": 6388,
      "▁cleaned": 6389,
      "▁trade": 6390,
      "▁covering": 6391,
      "nie": 6392,
      "▁fruit": 6393,
      "▁concent": 6394,
      "▁bitter": 6395,
      "▁unfortunate": 6396,
      "▁diamond": 6397,
      "▁awesome\r\n": 6398,
      "▁inaccurate": 6399,
      "▁vague": 6400,
      "▁acts": 6401,
      "▁stronger": 6402,
      "▁\"de": 6403,
      "▁attachment": 6404,
      "▁crystal": 6405,
      "▁capable": 6406,
      "▁grammar": 6407,
      "▁idiot": 6408,
      "▁melodic": 6409,
      "▁grandd": 6410,
      "▁puppy": 6411,
      "▁sarah": 6412,
      "▁jewish": 6413,
      "▁illustrated": 6414,
      "▁victor": 6415,
      "▁metallica": 6416,
      "arter": 6417,
      "▁\"my": 6418,
      "▁aqu": 6419,
      "atory": 6420,
      "▁upper": 6421,
      "▁195": 6422,
      "▁adequate": 6423,
      "uster": 6424,
      "▁2002": 6425,
      "▁zombie": 6426,
      "nat": 6427,
      "▁chicago": 6428,
      "arre": 6429,
      "▁toler": 6430,
      "▁ster": 6431,
      "▁meg": 6432,
      "▁unexpected": 6433,
      "▁instructor": 6434,
      "▁shave": 6435,
      "▁applied": 6436,
      "▁dise": 6437,
      "▁magnet": 6438,
      "▁2001": 6439,
      "▁russian": 6440,
      "▁resc": 6441,
      "▁circum": 6442,
      "▁advantage": 6443,
      "▁$30": 6444,
      "▁treated": 6445,
      "▁summary": 6446,
      "▁nation": 6447,
      "entious": 6448,
      "▁favourite": 6449,
      "▁quant": 6450,
      "▁heating": 6451,
      "▁traged": 6452,
      "table": 6453,
      "istics": 6454,
      "ements": 6455,
      "▁whoever": 6456,
      "o\r\n": 6457,
      "▁survive": 6458,
      "rix": 6459,
      "▁horrible\r\n": 6460,
      "inger": 6461,
      "▁shorter": 6462,
      "▁creativity": 6463,
      "▁conversation": 6464,
      "▁spoil": 6465,
      "▁batman": 6466,
      "rison": 6467,
      "▁stars\r\n": 6468,
      "▁juice": 6469,
      "va": 6470,
      "▁suitable": 6471,
      "▁causing": 6472,
      "▁navig": 6473,
      "▁socks": 6474,
      "▁trailer": 6475,
      "ml": 6476,
      "▁inferior": 6477,
      "▁describing": 6478,
      "▁bay": 6479,
      "atly": 6480,
      "▁compass": 6481,
      "▁powder": 6482,
      "▁75": 6483,
      "▁wid": 6484,
      "▁pic": 6485,
      "▁overlook": 6486,
      "▁90's": 6487,
      "▁simplistic": 6488,
      "▁worried": 6489,
      "▁strang": 6490,
      "▁approx": 6491,
      "▁tires": 6492,
      "▁contrast": 6493,
      "▁disks": 6494,
      "▁lighting": 6495,
      "▁me\"": 6496,
      "▁shake": 6497,
      "rock": 6498,
      "▁flor": 6499,
      "▁60's": 6500,
      "▁publishing": 6501,
      "ires": 6502,
      "▁cordless": 6503,
      "▁spy": 6504,
      "hop": 6505,
      "ox": 6506,
      "▁wolf": 6507,
      "▁guid": 6508,
      "▁demonstr": 6509,
      "▁instance": 6510,
      "▁serial": 6511,
      "▁cultural": 6512,
      "▁shakes": 6513,
      "▁hosp": 6514,
      "aid": 6515,
      "▁rear": 6516,
      "▁fitting": 6517,
      "▁compress": 6518,
      "oons": 6519,
      "▁cott": 6520,
      "▁jun": 6521,
      "▁backpack": 6522,
      "▁downloaded": 6523,
      "▁unnecessary": 6524,
      "▁uninsp": 6525,
      "▁pretend": 6526,
      "▁harsh": 6527,
      "▁captured": 6528,
      "▁widescreen": 6529,
      "▁brian": 6530,
      "▁microwave": 6531,
      "▁task": 6532,
      "▁melody": 6533,
      "▁reasonably": 6534,
      "▁3/": 6535,
      "▁studying": 6536,
      "▁demand": 6537,
      "▁lewis": 6538,
      "ds": 6539,
      "▁riding": 6540,
      "▁grass": 6541,
      "onnect": 6542,
      "▁suffer": 6543,
      "▁novice": 6544,
      "▁gau": 6545,
      "▁propag": 6546,
      "▁ladies": 6547,
      "▁critics": 6548,
      "▁usage": 6549,
      "▁occasional": 6550,
      "▁server": 6551,
      "▁tay": 6552,
      "▁chosen": 6553,
      "▁tam": 6554,
      "▁paris": 6555,
      "▁cave": 6556,
      "via": 6557,
      "▁creation": 6558,
      "gon": 6559,
      "itech": 6560,
      "▁tire": 6561,
      "▁symb": 6562,
      "▁shr": 6563,
      "▁guides": 6564,
      "▁elvis": 6565,
      "▁active": 6566,
      "▁internal": 6567,
      "▁raised": 6568,
      "▁command": 6569,
      "▁identify": 6570,
      "▁international": 6571,
      "▁drawing": 6572,
      "▁leaking": 6573,
      "▁secrets": 6574,
      "▁filmed": 6575,
      "ulated": 6576,
      "iful": 6577,
      "▁kettle": 6578,
      "▁remembered": 6579,
      "▁informed": 6580,
      "ulary": 6581,
      "▁jord": 6582,
      "▁stan": 6583,
      "▁happier": 6584,
      "▁relief": 6585,
      "▁twisted": 6586,
      "corn": 6587,
      "▁principles": 6588,
      "▁honey": 6589,
      "▁carri": 6590,
      "▁decade": 6591,
      "▁32": 6592,
      "▁cos": 6593,
      "▁operate": 6594,
      "sole": 6595,
      "▁contrived": 6596,
      "▁appealing": 6597,
      "▁drivel": 6598,
      "▁cycle": 6599,
      "▁seeking": 6600,
      "▁european": 6601,
      "▁dre": 6602,
      "▁offensive": 6603,
      "▁gel": 6604,
      "▁drain": 6605,
      "▁beg": 6606,
      "urally": 6607,
      "▁volumes": 6608,
      "▁incomplete": 6609,
      "▁hors": 6610,
      "▁matters": 6611,
      "▁stones": 6612,
      "▁shadow": 6613,
      "iture": 6614,
      "▁bothered": 6615,
      "▁chor": 6616,
      "▁r&b": 6617,
      "▁samples": 6618,
      "▁microphone": 6619,
      "▁bree": 6620,
      "▁fallen": 6621,
      "▁buzz": 6622,
      "▁consistent": 6623,
      "▁ara": 6624,
      "▁phenomen": 6625,
      "child": 6626,
      "▁ramb": 6627,
      "▁owners": 6628,
      "▁artwork": 6629,
      "urb": 6630,
      "▁watches": 6631,
      "▁destroyed": 6632,
      "berry": 6633,
      "▁mrs": 6634,
      "▁caution": 6635,
      "▁mort": 6636,
      "▁attend": 6637,
      "▁bore": 6638,
      "▁private": 6639,
      "ault": 6640,
      "▁electronics": 6641,
      "▁kelly": 6642,
      "▁captivating": 6643,
      "▁driven": 6644,
      "▁mobile": 6645,
      "utter": 6646,
      "▁subm": 6647,
      "▁sew": 6648,
      "▁tin": 6649,
      "▁lbs": 6650,
      "▁storyte": 6651,
      "▁collar": 6652,
      "▁chi": 6653,
      "▁transport": 6654,
      "▁garbage\r\n": 6655,
      "▁funniest": 6656,
      "▁bone": 6657,
      "▁pile": 6658,
      "uracy": 6659,
      "▁opposite": 6660,
      "essions": 6661,
      "▁letting": 6662,
      "▁squee": 6663,
      "▁riffs": 6664,
      "ped": 6665,
      "▁config": 6666,
      "▁kevin": 6667,
      "▁grish": 6668,
      "thy": 6669,
      "▁providing": 6670,
      "▁ruin": 6671,
      "▁ros": 6672,
      "▁symph": 6673,
      "born": 6674,
      "▁restaur": 6675,
      "▁gee": 6676,
      "▁porn": 6677,
      "▁conver": 6678,
      "▁filler": 6679,
      "▁instantly": 6680,
      "▁sake": 6681,
      "▁brook": 6682,
      "▁hunter": 6683,
      "▁well\r\n": 6684,
      "▁solutions": 6685,
      "▁scenery": 6686,
      "es\"": 6687,
      "▁serving": 6688,
      "▁earned": 6689,
      "▁scanner": 6690,
      "▁charles": 6691,
      "▁ballads": 6692,
      "▁hooks": 6693,
      "etooth": 6694,
      "▁pix": 6695,
      "▁vocab": 6696,
      "minal": 6697,
      "▁threat": 6698,
      "▁swim": 6699,
      "▁singles": 6700,
      "▁organization": 6701,
      "▁memo": 6702,
      "▁sticky": 6703,
      "▁greek": 6704,
      "▁recharge": 6705,
      "hel": 6706,
      "▁seek": 6707,
      "▁neph": 6708,
      "▁acqu": 6709,
      "▁stitch": 6710,
      "▁jay": 6711,
      "▁stations": 6712,
      "▁activities": 6713,
      "▁financial": 6714,
      "itute": 6715,
      "▁interpretation": 6716,
      "▁wond": 6717,
      "▁nights": 6718,
      "lies": 6719,
      "win": 6720,
      "▁mathem": 6721,
      "iving": 6722,
      "lim": 6723,
      "▁featuring": 6724,
      "▁insane": 6725,
      "▁enjoyment": 6726,
      "▁featured": 6727,
      "▁biblical": 6728,
      "▁bookstore": 6729,
      "▁attempted": 6730,
      "ifer": 6731,
      "▁ec": 6732,
      "▁gh": 6733,
      "▁dos": 6734,
      "▁grasp": 6735,
      "▁importantly": 6736,
      "▁consistently": 6737,
      "▁fee": 6738,
      "▁logitech": 6739,
      "▁mile": 6740,
      "▁strateg": 6741,
      "▁detective": 6742,
      "▁lemon": 6743,
      "▁rere": 6744,
      "▁minds": 6745,
      "▁distrib": 6746,
      "▁gripping": 6747,
      "▁bluetooth": 6748,
      "▁reco": 6749,
      "▁pregnancy": 6750,
      "▁backup": 6751,
      "▁screaming": 6752,
      "▁revel": 6753,
      "inate": 6754,
      "▁anyways": 6755,
      "iah": 6756,
      "▁drawings": 6757,
      "ptive": 6758,
      "▁torn": 6759,
      "▁intellectual": 6760,
      "oses": 6761,
      "▁sed": 6762,
      "▁listener": 6763,
      "▁seam": 6764,
      "▁rus": 6765,
      "▁sonic": 6766,
      "/2": 6767,
      "▁ax": 6768,
      "▁anger": 6769,
      "▁jason": 6770,
      "▁criticism": 6771,
      "▁gray": 6772,
      "▁awful\r\n": 6773,
      "▁invent": 6774,
      "▁fright": 6775,
      "▁dare": 6776,
      "▁cha": 6777,
      "▁roles": 6778,
      "▁bark": 6779,
      "▁decades": 6780,
      "fall": 6781,
      "orrow": 6782,
      "▁flawed": 6783,
      "▁cage": 6784,
      "▁ow": 6785,
      "▁assign": 6786,
      "▁thoughtful": 6787,
      "▁alco": 6788,
      "ers\"": 6789,
      "▁operation": 6790,
      "▁physics": 6791,
      "▁conduct": 6792,
      "bish": 6793,
      "▁golf": 6794,
      "▁applications": 6795,
      "function": 6796,
      "▁upbeat": 6797,
      "▁trite": 6798,
      "▁chip": 6799,
      "cons": 6800,
      "▁roller": 6801,
      "▁faces": 6802,
      "▁definet": 6803,
      "chant": 6804,
      "▁handling": 6805,
      "▁shipment": 6806,
      "99": 6807,
      "▁recy": 6808,
      "▁cush": 6809,
      "▁register": 6810,
      "▁wwii": 6811,
      "▁joint": 6812,
      "▁britney": 6813,
      "▁convinced": 6814,
      "oe": 6815,
      "▁bump": 6816,
      "▁posted": 6817,
      "▁tends": 6818,
      "▁ratings": 6819,
      "▁christianity": 6820,
      "now": 6821,
      "▁article": 6822,
      "case": 6823,
      "▁virgin": 6824,
      "bow": 6825,
      "▁batch": 6826,
      "▁stroller": 6827,
      "▁purple": 6828,
      "▁lazy": 6829,
      "▁farm": 6830,
      "▁techno": 6831,
      "▁fancy": 6832,
      "▁stove": 6833,
      "▁magnificent": 6834,
      "▁grisham": 6835,
      "intend": 6836,
      "▁wax": 6837,
      "▁conditions": 6838,
      "▁football": 6839,
      "zes": 6840,
      "earing": 6841,
      "▁trimmer": 6842,
      "▁racing": 6843,
      "▁legal": 6844,
      "▁goal": 6845,
      "▁agre": 6846,
      "▁skipping": 6847,
      "▁shamp": 6848,
      "▁humans": 6849,
      "▁blows": 6850,
      "▁sisters": 6851,
      "▁coach": 6852,
      "▁capacity": 6853,
      "▁serves": 6854,
      "▁bubble": 6855,
      "▁fragile": 6856,
      "bud": 6857,
      "▁atmosphere": 6858,
      "▁uninteresting": 6859,
      "▁crying": 6860,
      "▁highlights": 6861,
      "▁workouts": 6862,
      "atical": 6863,
      "▁tragic": 6864,
      "▁typos": 6865,
      "▁coast": 6866,
      "coming": 6867,
      "▁tests": 6868,
      "gging": 6869,
      "▁manip": 6870,
      "▁combo": 6871,
      "▁henry": 6872,
      "▁knight": 6873,
      "▁classroom": 6874,
      "▁rabb": 6875,
      "▁minded": 6876,
      "▁entertained": 6877,
      "▁accomplish": 6878,
      "son's": 6879,
      "▁where's": 6880,
      "▁india": 6881,
      "▁theatre": 6882,
      "tr": 6883,
      "ilty": 6884,
      "▁alph": 6885,
      "▁stack": 6886,
      "▁shine": 6887,
      "▁nephew": 6888,
      "▁rushed": 6889,
      "▁guessing": 6890,
      "▁they'll": 6891,
      "▁dispos": 6892,
      "▁trap": 6893,
      "▁warn": 6894,
      "▁towel": 6895,
      "▁wasnt": 6896,
      "▁cous": 6897,
      "▁jobs": 6898,
      "illed": 6899,
      "▁pretentious": 6900,
      "▁heavier": 6901,
      "stein": 6902,
      "▁increase": 6903,
      "▁py": 6904,
      "▁switched": 6905,
      "▁speech": 6906,
      "▁desert": 6907,
      "▁makers": 6908,
      "▁skim": 6909,
      "▁passing": 6910,
      "▁cel": 6911,
      "▁soup": 6912,
      "▁rise": 6913,
      "▁elim": 6914,
      "▁pity": 6915,
      "▁taylor": 6916,
      "▁reaction": 6917,
      "▁incons": 6918,
      "▁walmart": 6919,
      "ama": 6920,
      "▁\"good": 6921,
      "▁healing": 6922,
      "lass": 6923,
      "▁bug": 6924,
      "▁afterno": 6925,
      "▁teenager": 6926,
      "▁fond": 6927,
      "▁protagonist": 6928,
      "▁establish": 6929,
      "▁thousands": 6930,
      "e\r\n": 6931,
      "▁life\r\n": 6932,
      "▁gad": 6933,
      "▁primary": 6934,
      "▁prote": 6935,
      "▁child's": 6936,
      "bra": 6937,
      "▁ja": 6938,
      "▁cole": 6939,
      "▁wave": 6940,
      "▁extraordinary": 6941,
      "▁cham": 6942,
      "iw": 6943,
      "pa": 6944,
      "▁clancy": 6945,
      "▁80s": 6946,
      "▁velcro": 6947,
      "eness": 6948,
      "▁20th": 6949,
      "▁mtv": 6950,
      "▁accessible": 6951,
      "▁jimmy": 6952,
      "▁jess": 6953,
      "gia": 6954,
      "ontin": 6955,
      "▁sensor": 6956,
      "▁sells": 6957,
      "▁tact": 6958,
      "ooper": 6959,
      "▁ebay": 6960,
      "▁wrench": 6961,
      "▁rp": 6962,
      "▁reputation": 6963,
      "oph": 6964,
      "▁stew": 6965,
      "▁shir": 6966,
      "▁franc": 6967,
      "▁sons": 6968,
      "▁drops": 6969,
      "▁mixer": 6970,
      "▁winning": 6971,
      "▁fram": 6972,
      "▁colored": 6973,
      "▁forms": 6974,
      "bility": 6975,
      "▁charts": 6976,
      "▁bizarre": 6977,
      "▁thier": 6978,
      "▁category": 6979,
      "▁rober": 6980,
      "▁contract": 6981,
      "▁cancer": 6982,
      "▁wiz": 6983,
      "▁ens": 6984,
      "▁bridge": 6985,
      "▁maxim": 6986,
      "▁handed": 6987,
      "▁popcorn": 6988,
      "▁unusable": 6989,
      "▁rive": 6990,
      "▁hitch": 6991,
      "▁cert": 6992,
      "▁nove": 6993,
      "▁bust": 6994,
      "▁execution": 6995,
      "▁loyal": 6996,
      "ggy": 6997,
      "▁profession": 6998,
      "▁forces": 6999,
      "▁sheer": 7000,
      "▁rights": 7001,
      "▁suffering": 7002,
      "▁lic": 7003,
      "▁scholar": 7004,
      "▁plans": 7005,
      "▁homes": 7006,
      "▁channels": 7007,
      "▁loses": 7008,
      "▁lacked": 7009,
      "▁funky": 7010,
      "▁scream": 7011,
      "▁yuck": 7012,
      "▁accuracy": 7013,
      "▁rubbish": 7014,
      "▁adjustable": 7015,
      "aver": 7016,
      "▁reven": 7017,
      "▁intent": 7018,
      "za": 7019,
      "▁primarily": 7020,
      "▁ron": 7021,
      "▁pepper": 7022,
      "▁charges": 7023,
      "▁98": 7024,
      "▁fictional": 7025,
      "hes": 7026,
      "▁oce": 7027,
      "oned": 7028,
      "▁furniture": 7029,
      "▁uplifting": 7030,
      "▁official": 7031,
      "theless": 7032,
      "▁sticking": 7033,
      "ference": 7034,
      "▁soothing": 7035,
      "▁dc": 7036,
      "▁conce": 7037,
      "▁granddaughter": 7038,
      "ales": 7039,
      "iac": 7040,
      "▁dual": 7041,
      "▁nap": 7042,
      "▁complet": 7043,
      "▁designs": 7044,
      "▁repeatedly": 7045,
      "▁meas": 7046,
      "▁islam": 7047,
      "▁dell": 7048,
      "▁memoir": 7049,
      "▁wick": 7050,
      "▁satur": 7051,
      "▁witness": 7052,
      "alling": 7053,
      "▁dent": 7054,
      "uch": 7055,
      "▁buyers": 7056,
      "▁intention": 7057,
      "▁alice": 7058,
      "gent": 7059,
      "▁mixing": 7060,
      "agger": 7061,
      "▁crafted": 7062,
      "▁\"com": 7063,
      "attle": 7064,
      "▁would've": 7065,
      "▁23": 7066,
      "▁booklet": 7067,
      "▁1/4": 7068,
      "inc": 7069,
      "▁reward": 7070,
      "yy": 7071,
      "▁clark": 7072,
      "▁skeptical": 7073,
      "▁heroes": 7074,
      "▁cliche": 7075,
      "▁foundation": 7076,
      "▁pearl": 7077,
      "▁mos": 7078,
      "▁cla": 7079,
      "▁owning": 7080,
      "▁dat": 7081,
      "obi": 7082,
      "atisfied": 7083,
      "▁circumst": 7084,
      "▁blocks": 7085,
      "ucing": 7086,
      "▁ford": 7087,
      "▁blink": 7088,
      "▁400": 7089,
      "▁opens": 7090,
      "▁narrator": 7091,
      "▁rely": 7092,
      "▁connections": 7093,
      "▁\"un": 7094,
      "▁hitting": 7095,
      "▁animated": 7096,
      "▁dolls": 7097,
      "▁odor": 7098,
      "▁liner": 7099,
      "▁pilot": 7100,
      "▁mask": 7101,
      "▁zone": 7102,
      "▁194": 7103,
      "▁carb": 7104,
      "▁lean": 7105,
      "▁substant": 7106,
      "▁for\r\n": 7107,
      "▁nich": 7108,
      "▁nostal": 7109,
      "▁touches": 7110,
      "▁cleans": 7111,
      "▁lip": 7112,
      "▁originals": 7113,
      "▁`": 7114,
      "▁combat": 7115,
      "▁mont": 7116,
      "▁battles": 7117,
      "▁potty": 7118,
      "▁\"he": 7119,
      "▁clint": 7120,
      "▁pushing": 7121,
      "▁sof": 7122,
      "▁regularly": 7123,
      "▁outs": 7124,
      "▁connector": 7125,
      "▁whit": 7126,
      "▁you\r\n": 7127,
      "▁accounts": 7128,
      "▁publication": 7129,
      "▁editions": 7130,
      "▁matches": 7131,
      "▁tremendous": 7132,
      "▁proven": 7133,
      "▁shell": 7134,
      "gger": 7135,
      "▁off\r\n": 7136,
      "▁capital": 7137,
      "▁pushed": 7138,
      "▁academic": 7139,
      "▁gather": 7140,
      "▁seemingly": 7141,
      "iveness": 7142,
      "▁java": 7143,
      "▁statement": 7144,
      "uk": 7145,
      "cop": 7146,
      "▁pulls": 7147,
      "▁trial": 7148,
      "▁external": 7149,
      "▁diapers": 7150,
      "▁portrayal": 7151,
      "▁cried": 7152,
      "▁explore": 7153,
      "▁couldnt": 7154,
      "▁leaked": 7155,
      "▁mixes": 7156,
      "▁analog": 7157,
      "ippers": 7158,
      "▁jerry": 7159,
      "▁daughter's": 7160,
      "▁resources": 7161,
      "▁beliefs": 7162,
      "▁grate": 7163,
      "▁reprod": 7164,
      "irl": 7165,
      "▁walls": 7166,
      "iently": 7167,
      "itect": 7168,
      "▁imple": 7169,
      "▁sees": 7170,
      "▁sept": 7171,
      "▁360": 7172,
      "▁entry": 7173,
      "▁struggling": 7174,
      "▁convincing": 7175,
      "▁tempt": 7176,
      "▁borrowed": 7177,
      "▁shoulder": 7178,
      "▁perman": 7179,
      "▁conscious": 7180,
      "▁leader": 7181,
      "▁darn": 7182,
      "▁shaver": 7183,
      "▁chips": 7184,
      "▁robin": 7185,
      "▁dreadful": 7186,
      "▁vocabulary": 7187,
      "▁ah": 7188,
      "▁fest": 7189,
      "▁suggestion": 7190,
      "ike": 7191,
      "▁hospital": 7192,
      "▁corporate": 7193,
      "▁texture": 7194,
      "▁troubles": 7195,
      "▁'c": 7196,
      "▁horses": 7197,
      "rial": 7198,
      "▁outdoor": 7199,
      "▁refused": 7200,
      "▁olds": 7201,
      "▁distinct": 7202,
      "▁cooker": 7203,
      "▁react": 7204,
      "▁pockets": 7205,
      "▁wished": 7206,
      "▁heavily": 7207,
      "▁weapons": 7208,
      "▁overd": 7209,
      "▁5th": 7210,
      "lle": 7211,
      "▁\"we": 7212,
      "▁penc": 7213,
      "▁unfor": 7214,
      "ointed": 7215,
      "▁medicine": 7216,
      "estyle": 7217,
      "▁saves": 7218,
      "▁trend": 7219,
      "▁faulty": 7220,
      "▁mut": 7221,
      "▁plants": 7222,
      "oops": 7223,
      "▁cookies": 7224,
      "▁adorable": 7225,
      "▁vul": 7226,
      "▁arc": 7227,
      "▁afternoon": 7228,
      "ilton": 7229,
      "▁scope": 7230,
      "▁precise": 7231,
      "mother": 7232,
      "▁chest": 7233,
      "oors": 7234,
      "▁sync": 7235,
      "▁nevertheless": 7236,
      "▁deserved": 7237,
      "▁guarantee": 7238,
      "▁laughable": 7239,
      "▁inconsist": 7240,
      "▁corny": 7241,
      "leg": 7242,
      "▁shampoo": 7243,
      "▁dislike": 7244,
      "▁alas": 7245,
      "▁up\r\n": 7246,
      "resp": 7247,
      "▁concern": 7248,
      "▁struggles": 7249,
      "▁latter": 7250,
      "▁anec": 7251,
      "▁wears": 7252,
      "resso": 7253,
      "▁jenn": 7254,
      "▁allowing": 7255,
      "▁jumping": 7256,
      "▁alan": 7257,
      "▁thumb": 7258,
      "▁superficial": 7259,
      "▁neil": 7260,
      "▁growth": 7261,
      "▁assumed": 7262,
      "▁anecd": 7263,
      "ja": 7264,
      "▁artistic": 7265,
      "▁glob": 7266,
      "***": 7267,
      "▁martial": 7268,
      "▁nintend": 7269,
      "▁meal": 7270,
      "▁item\r\n": 7271,
      "▁semi": 7272,
      "▁architect": 7273,
      "▁eggs": 7274,
      "▁tragedy": 7275,
      "▁thankfully": 7276,
      "▁twin": 7277,
      "▁madonna": 7278,
      "athers": 7279,
      "▁squir": 7280,
      "oms": 7281,
      "▁steven": 7282,
      "▁talents": 7283,
      "▁greed": 7284,
      "▁removing": 7285,
      "▁valid": 7286,
      "▁qualities": 7287,
      "▁enemy": 7288,
      "90": 7289,
      "▁hmm": 7290,
      "▁remastered": 7291,
      "▁headache": 7292,
      "▁plates": 7293,
      "▁spends": 7294,
      "▁oscar": 7295,
      "vest": 7296,
      "▁repub": 7297,
      "▁trees": 7298,
      "▁theories": 7299,
      "▁$15": 7300,
      "▁focuses": 7301,
      "▁gil": 7302,
      "▁meaningful": 7303,
      "▁charlie": 7304,
      "▁producer": 7305,
      "▁amp": 7306,
      "▁royal": 7307,
      "ogether": 7308,
      "▁caps": 7309,
      "▁tong": 7310,
      "▁nud": 7311,
      "▁closet": 7312,
      "▁hence": 7313,
      "▁lect": 7314,
      "▁louis": 7315,
      "▁roman": 7316,
      "▁noneth": 7317,
      "▁distracting": 7318,
      "▁lunch": 7319,
      "▁film\r\n": 7320,
      "▁fid": 7321,
      "izations": 7322,
      "isions": 7323,
      "mond": 7324,
      "paper": 7325,
      "▁arrival": 7326,
      "▁signs": 7327,
      "▁accessories": 7328,
      "▁gary": 7329,
      "akers": 7330,
      "▁portra": 7331,
      "▁puzzles": 7332,
      "▁walked": 7333,
      "▁symbol": 7334,
      "▁border": 7335,
      "▁lan": 7336,
      "▁packs": 7337,
      "▁december": 7338,
      "▁beast": 7339,
      "▁purs": 7340,
      "▁attempting": 7341,
      "bu": 7342,
      "▁gadget": 7343,
      "ione": 7344,
      "▁google": 7345,
      "atics": 7346,
      "▁silent": 7347,
      "▁obtain": 7348,
      "▁irre": 7349,
      "▁importance": 7350,
      "▁nin": 7351,
      "▁leon": 7352,
      "▁nonetheless": 7353,
      "bbles": 7354,
      "▁adam": 7355,
      "agan": 7356,
      "▁naz": 7357,
      "uel": 7358,
      "▁popped": 7359,
      "▁recorder": 7360,
      "▁cookie": 7361,
      "▁kim": 7362,
      "▁implement": 7363,
      "▁extension": 7364,
      "▁ath": 7365,
      "esis": 7366,
      "▁skipped": 7367,
      "▁tail": 7368,
      "▁escap": 7369,
      "▁uneven": 7370,
      "▁slower": 7371,
      "edia": 7372,
      "▁lis": 7373,
      "▁essays": 7374,
      "ifi": 7375,
      "▁hunt": 7376,
      "▁gauge": 7377,
      "▁engineering": 7378,
      "▁friendship": 7379,
      "▁cartoons": 7380,
      "▁sloppy": 7381,
      "▁sinc": 7382,
      "eding": 7383,
      "▁pupp": 7384,
      "▁quirky": 7385,
      "▁cents": 7386,
      "cript": 7387,
      "accept": 7388,
      "▁jose": 7389,
      "▁earbud": 7390,
      "▁observ": 7391,
      "▁closely": 7392,
      "▁phrases": 7393,
      "▁catalog": 7394,
      "aaaa": 7395,
      "▁receipt": 7396,
      "▁sword": 7397,
      "▁staying": 7398,
      "▁grey": 7399,
      "▁value\r\n": 7400,
      "▁scholars": 7401,
      "▁passages": 7402,
      "15": 7403,
      "▁wondered": 7404,
      "▁pron": 7405,
      "▁steal": 7406,
      "▁automatic": 7407,
      "▁perfume": 7408,
      "▁\"v": 7409,
      "aks": 7410,
      "▁readings": 7411,
      "▁developing": 7412,
      "▁destruct": 7413,
      "▁emailed": 7414,
      "▁sunday": 7415,
      "▁sharing": 7416,
      "ront": 7417,
      "▁haz": 7418,
      "▁france": 7419,
      "force": 7420,
      "▁cure": 7421,
      "▁apartment": 7422,
      "▁evol": 7423,
      "▁zipper": 7424,
      "▁wound": 7425,
      "▁vitam": 7426,
      "▁tomorrow": 7427,
      "▁rave": 7428,
      "▁exposed": 7429,
      "▁confidence": 7430,
      "▁waff": 7431,
      "▁lowest": 7432,
      "▁august": 7433,
      "icide": 7434,
      "▁hdmi": 7435,
      "▁stir": 7436,
      "▁lil": 7437,
      "▁precious": 7438,
      "▁pointed": 7439,
      "▁glory": 7440,
      "▁wack": 7441,
      "▁proved": 7442,
      "▁discount": 7443,
      "▁woods": 7444,
      "e\"": 7445,
      "▁infant": 7446,
      "▁greg": 7447,
      "gas": 7448,
      "▁meeting": 7449,
      "▁victim": 7450,
      "▁intu": 7451,
      "▁disease": 7452,
      "don": 7453,
      "▁zen": 7454,
      "▁harris": 7455,
      "▁nikon": 7456,
      "▁definition": 7457,
      "▁phill": 7458,
      "▁cotton": 7459,
      "alk": 7460,
      "▁opposed": 7461,
      "▁identical": 7462,
      "onge": 7463,
      "▁thermometer": 7464,
      "▁davis": 7465,
      "▁vietnam": 7466,
      "▁desktop": 7467,
      "mies": 7468,
      "▁28": 7469,
      "▁wig": 7470,
      "rael": 7471,
      "▁dol": 7472,
      "▁64": 7473,
      "▁it\"": 7474,
      "▁outrage": 7475,
      "▁outlet": 7476,
      "▁\"tr": 7477,
      "kind": 7478,
      "▁jet": 7479,
      "▁versat": 7480,
      "▁layout": 7481,
      "▁annoyed": 7482,
      "▁aliens": 7483,
      "▁stap": 7484,
      "▁cliff": 7485,
      "▁bach": 7486,
      "▁mellow": 7487,
      "▁consp": 7488,
      "▁apo": 7489,
      "ching": 7490,
      "▁dedicated": 7491,
      "▁carp": 7492,
      "▁stable": 7493,
      "▁tosh": 7494,
      "▁hotel": 7495,
      "icit": 7496,
      "orig": 7497,
      "commend": 7498,
      "▁cinemat": 7499,
      "▁echo": 7500,
      "xture": 7501,
      "▁prints": 7502,
      "▁volt": 7503,
      "▁feeder": 7504,
      "▁durability": 7505,
      "▁dor": 7506,
      "▁chase": 7507,
      "▁filling": 7508,
      "▁labels": 7509,
      "▁selections": 7510,
      "▁raise": 7511,
      "eral": 7512,
      "▁shelves": 7513,
      "▁dash": 7514,
      "▁disconnect": 7515,
      "oke": 7516,
      "▁downside": 7517,
      "▁washington": 7518,
      "▁labor": 7519,
      "▁fragr": 7520,
      "▁innocent": 7521,
      "▁fulf": 7522,
      "▁lasting": 7523,
      "▁encountered": 7524,
      "▁optim": 7525,
      "lings": 7526,
      "▁differences": 7527,
      "▁humanity": 7528,
      "aired": 7529,
      "▁fashioned": 7530,
      "▁tricks": 7531,
      "▁carried": 7532,
      "▁drunk": 7533,
      "▁affordable": 7534,
      "▁revenge": 7535,
      "rition": 7536,
      "ugs": 7537,
      "▁survival": 7538,
      "▁loos": 7539,
      "▁warri": 7540,
      "▁sequence": 7541,
      "▁lud": 7542,
      "▁craw": 7543,
      "▁challenges": 7544,
      "▁shift": 7545,
      "▁mounting": 7546,
      "▁kay": 7547,
      "▁searched": 7548,
      "▁naturally": 7549,
      "▁sincere": 7550,
      "▁proph": 7551,
      "icer": 7552,
      "▁purchase\r\n": 7553,
      "▁blond": 7554,
      "▁june": 7555,
      "▁indul": 7556,
      "oooooooo": 7557,
      "▁coat": 7558,
      "▁whats": 7559,
      "▁dried": 7560,
      "▁sne": 7561,
      "▁patience": 7562,
      "▁andrew": 7563,
      "▁coaster": 7564,
      "▁notebook": 7565,
      "▁rental": 7566,
      "'m": 7567,
      "▁jean": 7568,
      "▁torture": 7569,
      "▁protein": 7570,
      "▁chart": 7571,
      "▁reviewing": 7572,
      "▁reports": 7573,
      "▁26": 7574,
      "▁jr": 7575,
      "▁1000": 7576,
      "▁anxious": 7577,
      "▁circle": 7578,
      "dr": 7579,
      "▁cruel": 7580,
      "▁alter": 7581,
      "▁alumin": 7582,
      "▁\"all": 7583,
      "▁promising": 7584,
      "attered": 7585,
      "▁feedback": 7586,
      "▁sophistic": 7587,
      "uation": 7588,
      "▁josh": 7589,
      "▁liking": 7590,
      "▁perfection": 7591,
      "▁rig": 7592,
      "▁bones": 7593,
      "▁minus": 7594,
      "▁essence": 7595,
      "▁clog": 7596,
      "▁crush": 7597,
      "▁roberts": 7598,
      "hhhh": 7599,
      "▁jordan": 7600,
      "unes": 7601,
      "▁sooner": 7602,
      "▁sig": 7603,
      "away": 7604,
      "herent": 7605,
      "▁musically": 7606,
      "▁ourselves": 7607,
      "▁partner": 7608,
      "▁succeed": 7609,
      "▁brat": 7610,
      "▁hunting": 7611,
      "▁eg": 7612,
      "▁prayer": 7613,
      "▁fame": 7614,
      "▁doom": 7615,
      "▁revol": 7616,
      "▁electrical": 7617,
      "abet": 7618,
      "▁unreli": 7619,
      "▁ack": 7620,
      "▁poo": 7621,
      "ensity": 7622,
      "▁harm": 7623,
      "▁shared": 7624,
      "▁metaph": 7625,
      "▁surprises": 7626,
      "ingu": 7627,
      "▁rum": 7628,
      "▁teenagers": 7629,
      "▁consequ": 7630,
      "▁sacri": 7631,
      "cials": 7632,
      "▁floyd": 7633,
      "ologist": 7634,
      "▁shocking": 7635,
      "▁nas": 7636,
      "▁underground": 7637,
      "▁diagram": 7638,
      "▁operating": 7639,
      "▁suspenseful": 7640,
      "▁delighted": 7641,
      "works": 7642,
      "▁automatically": 7643,
      "raction": 7644,
      "▁analy": 7645,
      "ressive": 7646,
      "ears": 7647,
      "▁quote": 7648,
      "▁love\"": 7649,
      "▁landsc": 7650,
      "▁pricey": 7651,
      "▁devoted": 7652,
      "▁fan\r\n": 7653,
      "▁margin": 7654,
      "▁sque": 7655,
      "▁eld": 7656,
      "osed": 7657,
      "▁elegant": 7658,
      "rah": 7659,
      "▁gim": 7660,
      "▁gene": 7661,
      "▁responsible": 7662,
      "▁sched": 7663,
      "▁treats": 7664,
      "manship": 7665,
      "▁discontin": 7666,
      "▁expense": 7667,
      "▁mario": 7668,
      "▁belly": 7669,
      "▁offend": 7670,
      "▁releasing": 7671,
      "▁necessarily": 7672,
      "▁grat": 7673,
      "▁theatrical": 7674,
      "▁depending": 7675,
      "icity": 7676,
      "▁solved": 7677,
      "▁\"le": 7678,
      "▁awe": 7679,
      "nel": 7680,
      "▁ven": 7681,
      "▁writings": 7682,
      "▁tan": 7683,
      "▁bos": 7684,
      "▁fri": 7685,
      "▁testament": 7686,
      "▁straw": 7687,
      "▁sweep": 7688,
      "▁individuals": 7689,
      "▁viewed": 7690,
      "▁credits": 7691,
      "▁'b": 7692,
      "/w": 7693,
      "▁lake": 7694,
      "▁starter": 7695,
      "▁desperate": 7696,
      "▁jumps": 7697,
      "ari": 7698,
      "▁altogether": 7699,
      "▁join": 7700,
      "▁spider": 7701,
      "▁plugs": 7702,
      "▁nintendo": 7703,
      "proof": 7704,
      "▁howard": 7705,
      "▁horn": 7706,
      "▁truely": 7707,
      "▁cabinet": 7708,
      "▁kat": 7709,
      "▁agent": 7710,
      "ograp": 7711,
      "▁powered": 7712,
      "▁yawn": 7713,
      "▁ie": 7714,
      "▁cloud": 7715,
      "▁whist": 7716,
      "▁dissapointment": 7717,
      "▁yrs": 7718,
      "▁braz": 7719,
      "▁unaccept": 7720,
      "▁keeper": 7721,
      "▁psychology": 7722,
      "▁wand": 7723,
      "▁logical": 7724,
      "▁mudd": 7725,
      "▁$7": 7726,
      "▁quart": 7727,
      "▁myst": 7728,
      "▁definitive": 7729,
      "▁assembled": 7730,
      "▁floors": 7731,
      "iden": 7732,
      "iba": 7733,
      "▁camping": 7734,
      "▁inval": 7735,
      "anity": 7736,
      "▁remin": 7737,
      "▁santa": 7738,
      "▁brave": 7739,
      "▁theres": 7740,
      "▁nutrition": 7741,
      "▁israel": 7742,
      "▁marvelous": 7743,
      "▁coating": 7744,
      "▁disj": 7745,
      "▁dys": 7746,
      "zed": 7747,
      "▁dur": 7748,
      "ic\"": 7749,
      "▁sauce": 7750,
      "ode": 7751,
      "▁'n": 7752,
      "▁groove": 7753,
      "▁poke": 7754,
      "haust": 7755,
      "▁kir": 7756,
      "abor": 7757,
      "▁aband": 7758,
      "▁monsters": 7759,
      "▁factual": 7760,
      "▁testing": 7761,
      "▁drawer": 7762,
      "▁\"get": 7763,
      "▁purposes": 7764,
      "▁purchases": 7765,
      "▁accent": 7766,
      "▁johnson": 7767,
      "▁tops": 7768,
      "65": 7769,
      "▁out\r\n": 7770,
      "quis": 7771,
      "bits": 7772,
      "▁headphone": 7773,
      "▁status": 7774,
      "▁consult": 7775,
      "▁thousand": 7776,
      "▁presence": 7777,
      "▁wonders": 7778,
      "fly": 7779,
      "▁songwriting": 7780,
      "▁atro": 7781,
      "▁lyrical": 7782,
      "cher": 7783,
      "13": 7784,
      "▁beans": 7785,
      "▁cooler": 7786,
      "▁bulbs": 7787,
      "▁reached": 7788,
      "▁republic": 7789,
      "▁\"ex": 7790,
      "▁depression": 7791,
      "ayed": 7792,
      "▁suggests": 7793,
      "▁150": 7794,
      "▁countries": 7795,
      "▁danger": 7796,
      "▁stuff\r\n": 7797,
      "▁grows": 7798,
      "mediate": 7799,
      "▁\"on": 7800,
      "▁ocean": 7801,
      "hill": 7802,
      "▁firmware": 7803,
      "▁subscription": 7804,
      "vation": 7805,
      "▁2008": 7806,
      "100": 7807,
      "▁pole": 7808,
      "ighter": 7809,
      "▁packing": 7810,
      "▁aluminum": 7811,
      "ifies": 7812,
      "▁mes": 7813,
      "ugging": 7814,
      "▁ot": 7815,
      "gie": 7816,
      "▁germany": 7817,
      "▁fisher": 7818,
      "▁diff": 7819,
      "▁shortly": 7820,
      "▁para": 7821,
      "▁darkness": 7822,
      "▁propaganda": 7823,
      "▁motorola": 7824,
      "▁scenar": 7825,
      "▁@": 7826,
      "fy": 7827,
      "▁hers": 7828,
      "idents": 7829,
      "▁sevent": 7830,
      "▁'em": 7831,
      "▁selected": 7832,
      "▁locked": 7833,
      "icious": 7834,
      "▁chore": 7835,
      "osity": 7836,
      "▁hello": 7837,
      "otion": 7838,
      "▁independent": 7839,
      "▁verb": 7840,
      "▁latch": 7841,
      "▁trance": 7842,
      "▁sail": 7843,
      "▁screwed": 7844,
      "▁engross": 7845,
      "▁poign": 7846,
      "▁vcr": 7847,
      "jud": 7848,
      "▁mall": 7849,
      "▁introduct": 7850,
      "▁incorpor": 7851,
      "▁cale": 7852,
      "ivers": 7853,
      "cery": 7854,
      "▁transmitter": 7855,
      "▁typically": 7856,
      "▁flexible": 7857,
      "▁loop": 7858,
      "▁nort": 7859,
      "▁kate": 7860,
      "▁bene": 7861,
      "▁organic": 7862,
      "▁worship": 7863,
      "▁recognized": 7864,
      "▁wii": 7865,
      "▁idol": 7866,
      "▁july": 7867,
      "▁exhaust": 7868,
      "gypt": 7869,
      "▁dean": 7870,
      "des": 7871,
      "▁elementary": 7872,
      "parent": 7873,
      "▁arguments": 7874,
      "▁sequences": 7875,
      "▁wouldnt": 7876,
      "▁completed": 7877,
      "▁comparing": 7878,
      "▁jennifer": 7879,
      "fast": 7880,
      "▁hearts": 7881,
      "▁messy": 7882,
      "▁ok\r\n": 7883,
      "▁grant": 7884,
      "▁tutor": 7885,
      "▁ft": 7886,
      "▁down\r\n": 7887,
      "▁africa": 7888,
      "▁fifth": 7889,
      "father": 7890,
      "▁ryan": 7891,
      "encies": 7892,
      "▁descriptive": 7893,
      "arted": 7894,
      "kel": 7895,
      "▁circumstances": 7896,
      "▁brutal": 7897,
      "umph": 7898,
      "▁beck": 7899,
      "elle": 7900,
      "▁collection\r\n": 7901,
      "▁shark": 7902,
      "▁sax": 7903,
      "▁saga": 7904,
      "▁leap": 7905,
      "▁believed": 7906,
      "▁people's": 7907,
      "▁$40": 7908,
      "lined": 7909,
      "▁sided": 7910,
      "aret": 7911,
      "▁saver": 7912,
      "bro": 7913,
      "▁oun": 7914,
      "▁corners": 7915,
      "▁baking": 7916,
      "▁snapped": 7917,
      "▁pod": 7918,
      "▁mounted": 7919,
      "▁ours": 7920,
      "▁burns": 7921,
      "▁conservative": 7922,
      "▁\"if": 7923,
      "▁guitarist": 7924,
      "▁divor": 7925,
      "natural": 7926,
      "▁captain": 7927,
      "▁millions": 7928,
      "▁cinematography": 7929,
      "▁alert": 7930,
      "▁cutter": 7931,
      "aine": 7932,
      "you": 7933,
      "▁outer": 7934,
      "▁revealed": 7935,
      "▁masters": 7936,
      "▁reading\r\n": 7937,
      "▁circuit": 7938,
      "▁massive": 7939,
      "▁unfold": 7940,
      "▁beef": 7941,
      "▁eve": 7942,
      "▁dock": 7943,
      "▁2010": 7944,
      "▁soldiers": 7945,
      "▁wayne": 7946,
      "▁nom": 7947,
      "imately": 7948,
      "▁disci": 7949,
      "ota": 7950,
      "aste": 7951,
      "▁supported": 7952,
      "▁exh": 7953,
      "▁activity": 7954,
      "▁font": 7955,
      "▁crib": 7956,
      "▁tol": 7957,
      "▁stead": 7958,
      "▁laws": 7959,
      "wind": 7960,
      "▁discovery": 7961,
      "▁shakespe": 7962,
      "▁gifted": 7963,
      "▁grandchild": 7964,
      "▁lucas": 7965,
      "▁b/c": 7966,
      "▁adjustment": 7967,
      "▁spice": 7968,
      "ussed": 7969,
      "▁worlds": 7970,
      "▁effectively": 7971,
      "▁tables": 7972,
      "iner": 7973,
      "▁carafe": 7974,
      "▁remotely": 7975,
      "▁egypt": 7976,
      "▁argument": 7977,
      "iracy": 7978,
      "plays": 7979,
      "▁alcohol": 7980,
      "▁\"me": 7981,
      "▁tender": 7982,
      "▁brid": 7983,
      "▁diary": 7984,
      "▁april": 7985,
      "▁pets": 7986,
      "umbled": 7987,
      "▁downright": 7988,
      "▁camc": 7989,
      "▁overwhelming": 7990,
      "▁slot": 7991,
      "▁global": 7992,
      "iders": 7993,
      "▁months\r\n": 7994,
      "▁clothing": 7995,
      "▁muff": 7996,
      "▁oli": 7997,
      "▁iv": 7998,
      "▁reply": 7999,
      "▁movements": 8000,
      "aly": 8001,
      "▁seper": 8002,
      "▁cann": 8003,
      "▁women's": 8004,
      "athy": 8005,
      "▁progressive": 8006,
      "vd": 8007,
      "▁kicks": 8008,
      "▁explo": 8009,
      "▁breeze": 8010,
      "▁locks": 8011,
      "▁tripod": 8012,
      "rem": 8013,
      "▁gab": 8014,
      "▁disjointed": 8015,
      "▁va": 8016,
      "▁ignored": 8017,
      "▁root": 8018,
      "▁len": 8019,
      "hy": 8020,
      "▁autobi": 8021,
      "▁ira": 8022,
      "▁broadway": 8023,
      "▁sellers": 8024,
      "▁documents": 8025,
      "unky": 8026,
      "▁shaped": 8027,
      "▁dude": 8028,
      "▁mins": 8029,
      "▁hearted": 8030,
      "▁darker": 8031,
      "▁streets": 8032,
      "▁intrigue": 8033,
      "omy": 8034,
      "ctor": 8035,
      "▁noises": 8036,
      "▁snack": 8037,
      "▁producing": 8038,
      "mate": 8039,
      "▁gag": 8040,
      "▁ric": 8041,
      "▁1999": 8042,
      "▁emails": 8043,
      "▁sorts": 8044,
      "ige": 8045,
      "▁naked": 8046,
      "▁tasty": 8047,
      "▁allen": 8048,
      "▁therapy": 8049,
      "▁\"al": 8050,
      "▁chef": 8051,
      "▁painfully": 8052,
      "rete": 8053,
      "▁pizz": 8054,
      "▁amazing\r\n": 8055,
      "▁cad": 8056,
      "▁costumes": 8057,
      "▁horrid": 8058,
      "▁slides": 8059,
      "▁angels": 8060,
      "▁trading": 8061,
      "▁solos": 8062,
      "station": 8063,
      "▁basement": 8064,
      "▁gaming": 8065,
      "▁rach": 8066,
      "▁poetic": 8067,
      "▁modem": 8068,
      "▁brazil": 8069,
      "▁'m": 8070,
      "▁193": 8071,
      "▁belongs": 8072,
      "▁sf": 8073,
      "plic": 8074,
      "▁cuz": 8075,
      "▁wilson": 8076,
      "▁they'd": 8077,
      "▁flashlight": 8078,
      "usive": 8079,
      "▁usable": 8080,
      "▁beware\r\n": 8081,
      "▁rail": 8082,
      "▁session": 8083,
      "real": 8084,
      "▁27": 8085,
      "▁pops": 8086,
      "iper": 8087,
      "▁kills": 8088,
      "▁obscure": 8089,
      "▁valve": 8090,
      "▁lonely": 8091,
      "▁decisions": 8092,
      "▁countless": 8093,
      "▁dropping": 8094,
      "▁collections": 8095,
      "▁grandmother": 8096,
      "▁drew": 8097,
      "▁espresso": 8098,
      "reen": 8099,
      "▁\"one": 8100,
      "▁eddie": 8101,
      "oric": 8102,
      "▁flower": 8103,
      "rian": 8104,
      "▁claimed": 8105,
      "▁immense": 8106,
      "▁expired": 8107,
      "▁patient": 8108,
      "▁stylish": 8109,
      "▁arab": 8110,
      "neath": 8111,
      "▁ps3": 8112,
      "▁scrap": 8113,
      "▁climax": 8114,
      "▁produces": 8115,
      "original": 8116,
      "▁intermediate": 8117,
      "▁pros:": 8118,
      "▁australia": 8119,
      "▁messed": 8120,
      "entional": 8121,
      "▁gods": 8122,
      "▁suffered": 8123,
      "▁communication": 8124,
      "▁set\r\n": 8125,
      "▁mexico": 8126,
      "▁chill": 8127,
      "▁unread": 8128,
      "▁documentation": 8129,
      "▁freeze": 8130,
      "▁shed": 8131,
      "▁jaw": 8132,
      "▁snug": 8133,
      "200": 8134,
      "▁proced": 8135,
      "▁installment": 8136,
      "▁schools": 8137,
      "▁objective": 8138,
      "lie": 8139,
      "▁beep": 8140,
      "▁affair": 8141,
      "▁innovative": 8142,
      "star": 8143,
      "▁shines": 8144,
      "▁blanket": 8145,
      "▁ht": 8146,
      "▁lap": 8147,
      "▁slick": 8148,
      "▁triumph": 8149,
      "▁perfect\r\n": 8150,
      "▁veter": 8151,
      "▁marked": 8152,
      "ulations": 8153,
      "ician": 8154,
      "▁barry": 8155,
      "▁rapid": 8156,
      "▁smoking": 8157,
      "▁successfully": 8158,
      "▁works\r\n": 8159,
      "▁memor": 8160,
      "▁spoke": 8161,
      "▁monot": 8162,
      "▁emotionally": 8163,
      "▁uninspired": 8164,
      "▁800": 8165,
      "▁russell": 8166,
      "/g": 8167,
      "ok": 8168,
      "▁]\r\n": 8169,
      "▁mug": 8170,
      "▁strict": 8171,
      "▁fauc": 8172,
      "▁citiz": 8173,
      "▁toshiba": 8174,
      "▁tad": 8175,
      "▁guilty": 8176,
      "▁priest": 8177,
      "▁holmes": 8178,
      "▁compassion": 8179,
      "gery": 8180,
      "▁acid": 8181,
      "▁phrase": 8182,
      "▁jen": 8183,
      "▁creatures": 8184,
      "▁castle": 8185,
      "▁eastern": 8186,
      "▁colour": 8187,
      "▁manufactured": 8188,
      "▁excelent": 8189,
      "▁chess": 8190,
      "▁unacceptable": 8191,
      "▁locations": 8192,
      "▁thes": 8193,
      "ders": 8194,
      "16": 8195,
      "uits": 8196,
      "▁potato": 8197,
      "▁binding": 8198,
      "▁thirty": 8199,
      "▁dough": 8200,
      "▁boston": 8201,
      "▁texts": 8202,
      "vity": 8203,
      "▁rca": 8204,
      "▁feeding": 8205,
      "▁pam": 8206,
      "ographer": 8207,
      "▁tru": 8208,
      "▁aa": 8209,
      "▁remaining": 8210,
      "▁lion": 8211,
      "▁hann": 8212,
      "anic": 8213,
      "▁league": 8214,
      "▁twins": 8215,
      "▁hurts": 8216,
      "▁rescue": 8217,
      "▁nudity": 8218,
      "▁bias": 8219,
      "ups": 8220,
      "▁jeans": 8221,
      "▁bio": 8222,
      "▁painted": 8223,
      "▁underneath": 8224,
      "actory": 8225,
      "▁underrated": 8226,
      "▁rendition": 8227,
      "▁'d": 8228,
      "han": 8229,
      "▁dynamic": 8230,
      "ieces": 8231,
      "▁manager": 8232,
      "aby": 8233,
      "▁smoothly": 8234,
      "▁suited": 8235,
      "nic": 8236,
      "▁kings": 8237,
      "▁humour": 8238,
      "▁shakespeare": 8239,
      "▁scra": 8240,
      "▁airpl": 8241,
      "▁complaining": 8242,
      "▁empire": 8243,
      "▁goof": 8244,
      "▁hesitate": 8245,
      "▁incon": 8246,
      "▁existing": 8247,
      "▁ari": 8248,
      "world": 8249,
      "reck": 8250,
      "//": 8251,
      "▁epson": 8252,
      "cell": 8253,
      "▁gap": 8254,
      "▁celt": 8255,
      "▁kore": 8256,
      "▁bloody": 8257,
      "▁switching": 8258,
      "▁shall": 8259,
      "▁viewers": 8260,
      "▁reccommend": 8261,
      "▁facing": 8262,
      "▁sorely": 8263,
      "laim": 8264,
      "▁prev": 8265,
      "▁decides": 8266,
      "▁oem": 8267,
      "▁thrilling": 8268,
      "▁florida": 8269,
      "▁\"love": 8270,
      "vit": 8271,
      "▁bs": 8272,
      "▁cock": 8273,
      "▁oriented": 8274,
      "▁oly": 8275,
      "▁soulful": 8276,
      "▁happiness": 8277,
      "▁emerg": 8278,
      "kable": 8279,
      "▁miracle": 8280,
      "▁pics": 8281,
      "▁terry": 8282,
      "▁ego": 8283,
      "▁tonight": 8284,
      "▁spa": 8285,
      "▁frozen": 8286,
      "▁emer": 8287,
      "▁involving": 8288,
      "▁2011": 8289,
      "▁panel": 8290,
      "▁36": 8291,
      "▁walks": 8292,
      "▁neighb": 8293,
      "▁quarter": 8294,
      "cia": 8295,
      "▁meditation": 8296,
      "▁saturday": 8297,
      "▁gut": 8298,
      "ausible": 8299,
      "▁thro": 8300,
      "▁asks": 8301,
      "oved": 8302,
      "▁pier": 8303,
      "hesive": 8304,
      "▁termin": 8305,
      "▁blowing": 8306,
      "▁adopt": 8307,
      "intage": 8308,
      "▁hates": 8309,
      "▁convey": 8310,
      "▁strategies": 8311,
      "▁definetly": 8312,
      "▁aged": 8313,
      "ibilities": 8314,
      "▁expans": 8315,
      "▁associated": 8316,
      "▁pride": 8317,
      "▁\"am": 8318,
      "iation": 8319,
      "▁indicated": 8320,
      "▁cooked": 8321,
      "▁lifestyle": 8322,
      "▁3/4": 8323,
      "▁sooo": 8324,
      "▁\"not": 8325,
      "▁fog": 8326,
      "▁complained": 8327,
      "opher": 8328,
      "▁closing": 8329,
      "▁shod": 8330,
      "▁particip": 8331,
      "▁imaginative": 8332,
      "▁stewart": 8333,
      "▁centered": 8334,
      "▁casting": 8335,
      "▁components": 8336,
      "▁carries": 8337,
      "ante": 8338,
      "▁spoiled": 8339,
      "▁fundamental": 8340,
      "▁crap\r\n": 8341,
      "aky": 8342,
      "▁glued": 8343,
      "▁flawless": 8344,
      "rell": 8345,
      "oured": 8346,
      "wall": 8347,
      "▁reserv": 8348,
      "▁household": 8349,
      "▁contrad": 8350,
      "▁surrounding": 8351,
      "▁admitted": 8352,
      "▁mars": 8353,
      "▁allerg": 8354,
      "▁answered": 8355,
      "▁unst": 8356,
      "ober": 8357,
      "▁canad": 8358,
      "▁erotic": 8359,
      "▁cere": 8360,
      "▁scrub": 8361,
      "▁originality": 8362,
      "▁susan": 8363,
      "▁cinema": 8364,
      "▁spelling": 8365,
      "▁staff": 8366,
      "▁tossed": 8367,
      "▁cushion": 8368,
      "▁ware": 8369,
      "▁vary": 8370,
      "▁pione": 8371,
      "▁justify": 8372,
      "▁turkey": 8373,
      "ami": 8374,
      "idays": 8375,
      "▁conversations": 8376,
      "▁spoken": 8377,
      "▁anthony": 8378,
      "▁discussed": 8379,
      "▁gems": 8380,
      "▁friday": 8381,
      "▁gb": 8382,
      "▁displayed": 8383,
      "▁linux": 8384,
      "▁wizard": 8385,
      "▁dow": 8386,
      "ito": 8387,
      "▁btw": 8388,
      "urately": 8389,
      "▁narration": 8390,
      "▁thicker": 8391,
      "▁poster": 8392,
      "▁psychological": 8393,
      "▁urban": 8394,
      "▁fuzzy": 8395,
      "▁simon": 8396,
      "▁warming": 8397,
      "▁lying": 8398,
      "▁practices": 8399,
      "▁alternate": 8400,
      "▁$25": 8401,
      "mers": 8402,
      "▁cans": 8403,
      "llar": 8404,
      "▁blat": 8405,
      "▁niece": 8406,
      "▁2009": 8407,
      "▁sealed": 8408,
      "▁minimum": 8409,
      "▁pressed": 8410,
      "stone": 8411,
      "ulating": 8412,
      "▁slap": 8413,
      "▁heal": 8414,
      "▁decept": 8415,
      "▁phenomenal": 8416,
      "▁reminis": 8417,
      "▁handled": 8418,
      "low": 8419,
      "▁note:": 8420,
      "▁robb": 8421,
      "thew": 8422,
      "▁anytime": 8423,
      "rend": 8424,
      "lets": 8425,
      "▁tempo": 8426,
      "▁happily": 8427,
      "▁stood": 8428,
      "▁nancy": 8429,
      "▁\"so": 8430,
      "power": 8431,
      "life": 8432,
      "urance": 8433,
      "▁ris": 8434,
      "▁industrial": 8435,
      "▁iii": 8436,
      "acle": 8437,
      "▁parties": 8438,
      "▁\"mo": 8439,
      "▁performing": 8440,
      "aign": 8441,
      "vet": 8442,
      "▁recommendations": 8443,
      "▁needing": 8444,
      "▁understandable": 8445,
      "▁fragrance": 8446,
      "▁sentiment": 8447,
      "▁january": 8448,
      "▁grocery": 8449,
      "gear": 8450,
      "▁lately": 8451,
      "▁resemb": 8452,
      "▁services": 8453,
      "▁gift\r\n": 8454,
      "▁belkin": 8455,
      "▁eh": 8456,
      "water": 8457,
      "▁ballad": 8458,
      "▁believes": 8459,
      "▁dinos": 8460,
      "▁deleted": 8461,
      "▁labeled": 8462,
      "▁<": 8463,
      "▁scoop": 8464,
      "▁argu": 8465,
      "▁'f": 8466,
      "rad": 8467,
      "▁prejud": 8468,
      "▁elev": 8469,
      "▁concerning": 8470,
      "▁korn": 8471,
      "▁arthur": 8472,
      "▁stim": 8473,
      "▁kong": 8474,
      "▁$6": 8475,
      "▁accomplished": 8476,
      "▁sang": 8477,
      "▁performs": 8478,
      "▁frequent": 8479,
      "/t": 8480,
      "▁christopher": 8481,
      "▁reduced": 8482,
      "▁disgrace": 8483,
      "▁itunes": 8484,
      "▁comics": 8485,
      "▁inse": 8486,
      "▁fishing": 8487,
      "/re": 8488,
      "pleas": 8489,
      "▁graduate": 8490,
      "itious": 8491,
      "▁48": 8492,
      "▁luke": 8493,
      "▁it;": 8494,
      "▁asian": 8495,
      "▁explos": 8496,
      "loading": 8497,
      "▁poly": 8498,
      "books": 8499,
      "uu": 8500,
      "▁reveals": 8501,
      "t's": 8502,
      "▁preferred": 8503,
      "▁scam": 8504,
      "▁yours": 8505,
      "▁crafts": 8506,
      "▁buddy": 8507,
      "▁bite": 8508,
      "▁agreed": 8509,
      "arse": 8510,
      "▁overcome": 8511,
      "▁bom": 8512,
      "n's": 8513,
      "▁regg": 8514,
      "▁vintage": 8515,
      "▁matthew": 8516,
      "cut": 8517,
      "▁bold": 8518,
      "▁sophisticated": 8519,
      "▁fuel": 8520,
      "▁carl": 8521,
      "fying": 8522,
      "uther": 8523,
      "▁nichol": 8524,
      "/off": 8525,
      "▁canada": 8526,
      "▁mindless": 8527,
      "▁knob": 8528,
      "yr": 8529,
      "▁outf": 8530,
      "▁determined": 8531,
      "anie": 8532,
      "▁october": 8533,
      "▁ea": 8534,
      "▁backing": 8535,
      "▁cowboy": 8536,
      "▁launch": 8537,
      "▁up\"": 8538,
      "▁pills": 8539,
      "▁polar": 8540,
      "dri": 8541,
      "xx": 8542,
      "▁larry": 8543,
      "▁largely": 8544,
      "▁collecting": 8545,
      "▁manufacturing": 8546,
      "▁leadership": 8547,
      "▁gum": 8548,
      "www": 8549,
      "▁kra": 8550,
      "▁camcorder": 8551,
      "▁ruins": 8552,
      "▁italy": 8553,
      "▁til": 8554,
      "▁70s": 8555,
      "▁cheer": 8556,
      "ido": 8557,
      "▁publishers": 8558,
      "▁made\r\n": 8559,
      "▁evident": 8560,
      "▁bulk": 8561,
      "▁subsequ": 8562,
      "▁holidays": 8563,
      "▁cheated": 8564,
      "▁pant": 8565,
      "▁jung": 8566,
      "▁2012": 8567,
      "ania": 8568,
      "▁caring": 8569,
      "seud": 8570,
      "▁passionate": 8571,
      "▁contrary": 8572,
      "▁olymp": 8573,
      "pled": 8574,
      "14": 8575,
      "▁clin": 8576,
      "▁norton": 8577,
      "▁carrier": 8578,
      "▁beloved": 8579,
      "▁merc": 8580,
      "▁gran": 8581,
      "▁beer": 8582,
      "▁dragged": 8583,
      "▁lawn": 8584,
      "▁watch\r\n": 8585,
      "▁glimp": 8586,
      "▁profit": 8587,
      "▁newest": 8588,
      "▁honesty": 8589,
      "udes": 8590,
      "▁refuse": 8591,
      "'nt": 8592,
      "▁cig": 8593,
      "▁roy": 8594,
      "▁misses": 8595,
      "▁lenses": 8596,
      "▁dissappointed": 8597,
      "▁fortune": 8598,
      "▁intuitive": 8599,
      "▁poignant": 8600,
      "▁padding": 8601,
      "▁obsessed": 8602,
      "▁flesh": 8603,
      "▁ripoff": 8604,
      "▁conclusions": 8605,
      "▁dimensions": 8606,
      "itors": 8607,
      "▁brace": 8608,
      "▁percent": 8609,
      "▁crank": 8610,
      "▁promises": 8611,
      "▁jumped": 8612,
      "cence": 8613,
      "tha": 8614,
      "▁fare": 8615,
      "▁stol": 8616,
      "▁imagery": 8617,
      "▁campaign": 8618,
      "▁brows": 8619,
      "▁tied": 8620,
      "▁decker": 8621,
      "▁digest": 8622,
      "▁glimpse": 8623,
      "▁locally": 8624,
      "forward": 8625,
      "▁mildly": 8626,
      "ley's": 8627,
      "▁benefits": 8628,
      "25": 8629,
      "▁efficient": 8630,
      "▁fights": 8631,
      "▁sessions": 8632,
      "▁definit": 8633,
      "▁broadcast": 8634,
      "▁diana": 8635,
      "▁infect": 8636,
      "▁intrigued": 8637,
      "bird": 8638,
      "▁juven": 8639,
      "▁threads": 8640,
      "▁mesh": 8641,
      "▁likeable": 8642,
      "▁invaluable": 8643,
      "▁cornwell": 8644,
      "atherine": 8645,
      "▁spite": 8646,
      "▁diverse": 8647,
      "install": 8648,
      "▁cs": 8649,
      "▁overs": 8650,
      "▁statements": 8651,
      "▁violin": 8652,
      "▁mislead": 8653,
      "▁defense": 8654,
      "▁pairs": 8655,
      "▁recyc": 8656,
      "▁$$$": 8657,
      "taking": 8658,
      "▁transition": 8659,
      "ched": 8660,
      "▁downhill": 8661,
      "▁arrog": 8662,
      "▁could've": 8663,
      "▁adaptation": 8664,
      "▁tomm": 8665,
      "▁existence": 8666,
      "▁bry": 8667,
      "▁sometime": 8668,
      "▁listens": 8669,
      "▁airport": 8670,
      "▁overlooked": 8671,
      "▁cooper": 8672,
      "▁fate": 8673,
      "rain": 8674,
      "▁ll": 8675,
      "▁\"sp": 8676,
      "▁ga": 8677,
      "▁confusion": 8678,
      "▁engineer": 8679,
      "▁personalities": 8680,
      "▁dispens": 8681,
      "▁faucet": 8682,
      "▁compartment": 8683,
      "▁doz": 8684,
      "▁grateful": 8685,
      "▁incident": 8686,
      "▁pseud": 8687,
      "▁differently": 8688,
      "▁tutorial": 8689,
      "oma": 8690,
      "▁shiny": 8691,
      "▁rape": 8692,
      "▁legendary": 8693,
      "oot": 8694,
      "▁stab": 8695,
      "▁unpleas": 8696,
      "▁glowing": 8697,
      "▁wipe": 8698,
      "issed": 8699,
      "▁rome": 8700,
      "▁friend's": 8701,
      "▁starring": 8702,
      "▁surviv": 8703,
      "itled": 8704,
      "rings": 8705,
      "▁havent": 8706,
      "▁infin": 8707,
      "▁forest": 8708,
      "▁drummer": 8709,
      "▁noticeable": 8710,
      "ona": 8711,
      "▁planned": 8712,
      "▁identity": 8713,
      "▁dissapointing": 8714,
      "eday": 8715,
      "▁apolog": 8716,
      "▁daniel": 8717,
      "▁introduce": 8718,
      "▁tasting": 8719,
      "▁nope": 8720,
      "▁mother's": 8721,
      "▁util": 8722,
      "▁enthusiast": 8723,
      "▁vall": 8724,
      "▁chorus": 8725,
      "▁divers": 8726,
      "▁bother\r\n": 8727,
      "▁symphony": 8728,
      "▁toy\r\n": 8729,
      "▁aston": 8730,
      "▁bolts": 8731,
      "▁strips": 8732,
      "iat": 8733,
      "▁vert": 8734,
      "▁hind": 8735,
      "▁earbuds": 8736,
      "▁tod": 8737,
      "▁intensity": 8738,
      "▁faced": 8739,
      "▁remixes": 8740,
      "/0": 8741,
      "▁sett": 8742,
      "▁accurately": 8743,
      "▁parall": 8744,
      "▁roger": 8745,
      "▁cruise": 8746,
      "▁acknow": 8747,
      "▁\"an": 8748,
      "▁hoover": 8749,
      "ember": 8750,
      "▁controvers": 8751,
      "▁ai": 8752,
      "▁drm": 8753,
      "▁\"must": 8754,
      "▁processor": 8755,
      "▁mixture": 8756,
      "▁fried": 8757,
      "▁jams": 8758,
      "▁draws": 8759,
      "▁enlightening": 8760,
      "▁wrestling": 8761,
      "▁wicked": 8762,
      "▁compliment": 8763,
      "▁sq": 8764,
      "▁hamilton": 8765,
      "▁discontinued": 8766,
      "▁world's": 8767,
      "▁reread": 8768,
      "▁joan": 8769,
      "▁dylan": 8770,
      "eed": 8771,
      "▁lite": 8772,
      "▁severe": 8773,
      "▁eagerly": 8774,
      "▁mothers": 8775,
      "▁anecdotes": 8776,
      "▁toe": 8777,
      "breaking": 8778,
      "ester": 8779,
      "▁mistaken": 8780,
      "omic": 8781,
      "▁linda": 8782,
      "▁emphasis": 8783,
      "▁hardcover": 8784,
      "▁rude": 8785,
      "▁dawn": 8786,
      "i\r\n": 8787,
      "▁renting": 8788,
      "▁layer": 8789,
      "athan": 8790,
      "▁indoor": 8791,
      "▁visually": 8792,
      "▁delux": 8793,
      "▁stale": 8794,
      "irst": 8795,
      "▁vocalist": 8796,
      "▁tasted": 8797,
      "▁ree": 8798,
      "▁objects": 8799,
      "uls": 8800,
      "▁appreciation": 8801,
      "inations": 8802,
      "vably": 8803,
      "▁burnt": 8804,
      "▁stellar": 8805,
      "▁brass": 8806,
      "▁cousin": 8807,
      "▁55": 8808,
      "▁woman's": 8809,
      "rous": 8810,
      "▁engage": 8811,
      "▁disgusted": 8812,
      "▁lb": 8813,
      "▁primer": 8814,
      "▁visible": 8815,
      "▁generous": 8816,
      "▁furthermore": 8817,
      "ivalent": 8818,
      "▁swear": 8819,
      "▁vampires": 8820,
      "▁commit": 8821,
      "▁adams": 8822,
      "▁counting": 8823,
      "▁accidentally": 8824,
      "▁interior": 8825,
      "▁barbie": 8826,
      "▁incomp": 8827,
      "▁bran": 8828,
      "▁suppli": 8829,
      "▁smelled": 8830,
      "▁shaving": 8831,
      "▁administ": 8832,
      "▁pee": 8833,
      "▁clamp": 8834,
      "▁warner": 8835,
      "undant": 8836,
      "▁\"do": 8837,
      "rat": 8838,
      "arded": 8839,
      "velope": 8840,
      "▁resort": 8841,
      "▁criminal": 8842,
      "▁suicide": 8843,
      "▁parad": 8844,
      "▁sean": 8845,
      "▁amounts": 8846,
      "▁functionality": 8847,
      "dge": 8848,
      "▁displays": 8849,
      "▁carter": 8850,
      "▁manually": 8851,
      "▁dates": 8852,
      "▁stating": 8853,
      "▁cris": 8854,
      "▁increasing": 8855,
      "▁bench": 8856,
      "▁miller": 8857,
      "▁studied": 8858,
      "▁neighborhood": 8859,
      "ttp": 8860,
      "▁yell": 8861,
      "▁supports": 8862,
      "unks": 8863,
      "▁steer": 8864,
      "▁diagrams": 8865,
      "mith": 8866,
      "▁disli": 8867,
      "▁burner": 8868,
      "▁exists": 8869,
      "orders": 8870,
      "▁dummies": 8871,
      "hl": 8872,
      "▁coffe": 8873,
      "ler's": 8874,
      "▁crashes": 8875,
      "▁november": 8876,
      "▁aunt": 8877,
      "▁reprint": 8878,
      "▁celtic": 8879,
      "▁history\r\n": 8880,
      "▁magazines": 8881,
      "tech": 8882,
      "▁convert": 8883,
      "▁tiger": 8884,
      "▁dozens": 8885,
      "▁roof": 8886,
      "▁shoddy": 8887,
      "▁rooms": 8888,
      "▁\"don't": 8889,
      "▁collectors": 8890,
      "resents": 8891,
      "or's": 8892,
      "brush": 8893,
      "ost": 8894,
      "▁wishing": 8895,
      "▁advertised\r\n": 8896,
      "▁daddy": 8897,
      "▁kud": 8898,
      "▁childish": 8899,
      "▁twel": 8900,
      "▁joseph": 8901,
      "▁ren": 8902,
      "▁bund": 8903,
      "▁books\r\n": 8904,
      "working": 8905,
      "▁unreliable": 8906,
      "▁laughter": 8907,
      "▁legacy": 8908,
      "▁loads": 8909,
      "▁exceed": 8910,
      "▁additionally": 8911,
      "▁um": 8912,
      "▁papers": 8913,
      "▁influenced": 8914,
      "▁platform": 8915,
      "rict": 8916,
      "▁makeup": 8917,
      "▁inspect": 8918,
      "▁oprah": 8919,
      "▁$8": 8920,
      "▁calm": 8921,
      "▁sucks\r\n": 8922,
      "▁insulting": 8923,
      "▁afterwards": 8924,
      "▁competition": 8925,
      "▁mitch": 8926,
      "▁soldier": 8927,
      "▁concrete": 8928,
      "▁exposure": 8929,
      "nold": 8930,
      "▁unb": 8931,
      "▁datab": 8932,
      "▁upside": 8933,
      "▁restaurant": 8934,
      "rays": 8935,
      "iro": 8936,
      "keep": 8937,
      "▁agenda": 8938,
      "▁vibr": 8939,
      "ersome": 8940,
      "▁limp": 8941,
      "▁portrait": 8942,
      "▁refurb": 8943,
      "▁absolut": 8944,
      "▁scripture": 8945,
      "cs": 8946,
      "▁delicate": 8947,
      "▁harmony": 8948,
      "▁character's": 8949,
      "▁amateurish": 8950,
      "lum": 8951,
      "▁u2": 8952,
      "▁reiss": 8953,
      "lig": 8954,
      "▁'p": 8955,
      "▁rolls": 8956,
      "▁muse": 8957,
      "ressed": 8958,
      "atra": 8959,
      "▁ties": 8960,
      "▁sticker": 8961,
      "▁laure": 8962,
      "▁nyc": 8963,
      "▁overnight": 8964,
      "▁wired": 8965,
      "▁andy": 8966,
      "▁whis": 8967,
      "▁occup": 8968,
      "▁patterson": 8969,
      "▁woo": 8970,
      "▁horiz": 8971,
      "▁recommended\r\n": 8972,
      "▁bravo": 8973,
      "▁fantas": 8974,
      "▁tracking": 8975,
      "▁breed": 8976,
      "▁bears": 8977,
      "▁ignorant": 8978,
      "/sh": 8979,
      "▁sprink": 8980,
      "▁seed": 8981,
      "▁compliments": 8982,
      "otte": 8983,
      "▁lyn": 8984,
      "`s": 8985,
      "▁vet": 8986,
      "▁grandchildren": 8987,
      "▁abilities": 8988,
      "▁paragraphs": 8989,
      "▁bern": 8990,
      "▁stolen": 8991,
      "▁julia": 8992,
      "▁earphones": 8993,
      "▁comparable": 8994,
      "▁depressed": 8995,
      "▁astound": 8996,
      "▁conspiracy": 8997,
      "kee": 8998,
      "▁component": 8999,
      "▁maximum": 9000,
      "▁directing": 9001,
      "ton's": 9002,
      "▁han": 9003,
      "lyn": 9004,
      "▁ross": 9005,
      "▁sid": 9006,
      "▁wings": 9007,
      "▁isol": 9008,
      "▁handbook": 9009,
      "▁executed": 9010,
      "▁lucy": 9011,
      "ancing": 9012,
      "ilight": 9013,
      "▁bullet": 9014,
      "▁approximately": 9015,
      "▁storytelling": 9016,
      "ographical": 9017,
      "▁suffers": 9018,
      "▁urge": 9019,
      "▁cliches": 9020,
      "▁tongue": 9021,
      "▁poison": 9022,
      "ppro": 9023,
      "▁motorcy": 9024,
      "▁economic": 9025,
      "▁pean": 9026,
      "▁neighbors": 9027,
      "▁cared": 9028,
      "▁chances": 9029,
      "phy": 9030,
      "▁enhance": 9031,
      "▁on/off": 9032,
      "▁consists": 9033,
      "▁beating": 9034,
      "▁backst": 9035,
      "▁reported": 9036,
      "▁fluid": 9037,
      "▁b&": 9038,
      "▁hart": 9039,
      "▁hungry": 9040,
      "▁outrageous": 9041,
      "▁align": 9042,
      "▁pencil": 9043,
      "▁drown": 9044,
      "▁design\r\n": 9045,
      "▁philips": 9046,
      "▁embar": 9047,
      "cope": 9048,
      "▁band's": 9049,
      "▁september": 9050,
      "▁angles": 9051,
      "cock": 9052,
      "▁fitness": 9053,
      "road": 9054,
      "▁grainy": 9055,
      "▁hints": 9056,
      "▁rever": 9057,
      "▁xmas": 9058,
      "▁useless\r\n": 9059,
      "vol": 9060,
      "▁>": 9061,
      "▁upgraded": 9062,
      "▁reel": 9063,
      "▁kod": 9064,
      "▁sleeve": 9065,
      "▁ought": 9066,
      "▁voy": 9067,
      "lying": 9068,
      "▁fills": 9069,
      "▁lesser": 9070,
      "▁junior": 9071,
      "▁versatile": 9072,
      "▁juvenile": 9073,
      "osex": 9074,
      "▁dealer": 9075,
      "elic": 9076,
      "▁breakfast": 9077,
      "▁housing": 9078,
      "▁meals": 9079,
      "▁thunder": 9080,
      "▁spinning": 9081,
      "▁fence": 9082,
      "▁glitch": 9083,
      "▁braun": 9084,
      "▁illeg": 9085,
      "▁habit": 9086,
      "▁mentions": 9087,
      "▁raising": 9088,
      "▁lotion": 9089,
      "▁confident": 9090,
      "▁estate": 9091,
      "▁addictive": 9092,
      "ttp:": 9093,
      "▁cer": 9094,
      "▁buddh": 9095,
      "▁contradict": 9096,
      "▁marry": 9097,
      "rough": 9098,
      "▁bose": 9099,
      "▁dose": 9100,
      "▁imper": 9101,
      "reet": 9102,
      "▁chamber": 9103,
      "33": 9104,
      "▁doo": 9105,
      "▁inh": 9106,
      "▁bubbles": 9107,
      "▁surgery": 9108,
      "▁life\"": 9109,
      "▁iraq": 9110,
      "▁route": 9111,
      "umn": 9112,
      "▁detract": 9113,
      "▁information\r\n": 9114,
      "▁someday": 9115,
      "▁tighten": 9116,
      "atures": 9117,
      "▁clients": 9118,
      "▁optical": 9119,
[...]
